<pad>	0
<s>	0
</s>	0
<unk>	0
<0x00>	0
<0x01>	0
<0x02>	0
<0x03>	0
<0x04>	0
<0x05>	0
<0x06>	0
<0x07>	0
<0x08>	0
<0x09>	0
<0x0A>	0
<0x0B>	0
<0x0C>	0
<0x0D>	0
<0x0E>	0
<0x0F>	0
<0x10>	0
<0x11>	0
<0x12>	0
<0x13>	0
<0x14>	0
<0x15>	0
<0x16>	0
<0x17>	0
<0x18>	0
<0x19>	0
<0x1A>	0
<0x1B>	0
<0x1C>	0
<0x1D>	0
<0x1E>	0
<0x1F>	0
<0x20>	0
<0x21>	0
<0x22>	0
<0x23>	0
<0x24>	0
<0x25>	0
<0x26>	0
<0x27>	0
<0x28>	0
<0x29>	0
<0x2A>	0
<0x2B>	0
<0x2C>	0
<0x2D>	0
<0x2E>	0
<0x2F>	0
<0x30>	0
<0x31>	0
<0x32>	0
<0x33>	0
<0x34>	0
<0x35>	0
<0x36>	0
<0x37>	0
<0x38>	0
<0x39>	0
<0x3A>	0
<0x3B>	0
<0x3C>	0
<0x3D>	0
<0x3E>	0
<0x3F>	0
<0x40>	0
<0x41>	0
<0x42>	0
<0x43>	0
<0x44>	0
<0x45>	0
<0x46>	0
<0x47>	0
<0x48>	0
<0x49>	0
<0x4A>	0
<0x4B>	0
<0x4C>	0
<0x4D>	0
<0x4E>	0
<0x4F>	0
<0x50>	0
<0x51>	0
<0x52>	0
<0x53>	0
<0x54>	0
<0x55>	0
<0x56>	0
<0x57>	0
<0x58>	0
<0x59>	0
<0x5A>	0
<0x5B>	0
<0x5C>	0
<0x5D>	0
<0x5E>	0
<0x5F>	0
<0x60>	0
<0x61>	0
<0x62>	0
<0x63>	0
<0x64>	0
<0x65>	0
<0x66>	0
<0x67>	0
<0x68>	0
<0x69>	0
<0x6A>	0
<0x6B>	0
<0x6C>	0
<0x6D>	0
<0x6E>	0
<0x6F>	0
<0x70>	0
<0x71>	0
<0x72>	0
<0x73>	0
<0x74>	0
<0x75>	0
<0x76>	0
<0x77>	0
<0x78>	0
<0x79>	0
<0x7A>	0
<0x7B>	0
<0x7C>	0
<0x7D>	0
<0x7E>	0
<0x7F>	0
<0x80>	0
<0x81>	0
<0x82>	0
<0x83>	0
<0x84>	0
<0x85>	0
<0x86>	0
<0x87>	0
<0x88>	0
<0x89>	0
<0x8A>	0
<0x8B>	0
<0x8C>	0
<0x8D>	0
<0x8E>	0
<0x8F>	0
<0x90>	0
<0x91>	0
<0x92>	0
<0x93>	0
<0x94>	0
<0x95>	0
<0x96>	0
<0x97>	0
<0x98>	0
<0x99>	0
<0x9A>	0
<0x9B>	0
<0x9C>	0
<0x9D>	0
<0x9E>	0
<0x9F>	0
<0xA0>	0
<0xA1>	0
<0xA2>	0
<0xA3>	0
<0xA4>	0
<0xA5>	0
<0xA6>	0
<0xA7>	0
<0xA8>	0
<0xA9>	0
<0xAA>	0
<0xAB>	0
<0xAC>	0
<0xAD>	0
<0xAE>	0
<0xAF>	0
<0xB0>	0
<0xB1>	0
<0xB2>	0
<0xB3>	0
<0xB4>	0
<0xB5>	0
<0xB6>	0
<0xB7>	0
<0xB8>	0
<0xB9>	0
<0xBA>	0
<0xBB>	0
<0xBC>	0
<0xBD>	0
<0xBE>	0
<0xBF>	0
<0xC0>	0
<0xC1>	0
<0xC2>	0
<0xC3>	0
<0xC4>	0
<0xC5>	0
<0xC6>	0
<0xC7>	0
<0xC8>	0
<0xC9>	0
<0xCA>	0
<0xCB>	0
<0xCC>	0
<0xCD>	0
<0xCE>	0
<0xCF>	0
<0xD0>	0
<0xD1>	0
<0xD2>	0
<0xD3>	0
<0xD4>	0
<0xD5>	0
<0xD6>	0
<0xD7>	0
<0xD8>	0
<0xD9>	0
<0xDA>	0
<0xDB>	0
<0xDC>	0
<0xDD>	0
<0xDE>	0
<0xDF>	0
<0xE0>	0
<0xE1>	0
<0xE2>	0
<0xE3>	0
<0xE4>	0
<0xE5>	0
<0xE6>	0
<0xE7>	0
<0xE8>	0
<0xE9>	0
<0xEA>	0
<0xEB>	0
<0xEC>	0
<0xED>	0
<0xEE>	0
<0xEF>	0
<0xF0>	0
<0xF1>	0
<0xF2>	0
<0xF3>	0
<0xF4>	0
<0xF5>	0
<0xF6>	0
<0xF7>	0
<0xF8>	0
<0xF9>	0
<0xFA>	0
<0xFB>	0
<0xFC>	0
<0xFD>	0
<0xFE>	0
<0xFF>	0
▁t	-0
▁a	-1
in	-2
he	-3
re	-4
on	-5
er	-6
▁the	-7
▁s	-8
▁w	-9
or	-10
at	-11
nd	-12
ou	-13
▁c	-14
it	-15
es	-16
▁f	-17
is	-18
en	-19
ing	-20
▁b	-21
▁p	-22
▁o	-23
an	-24
ed	-25
▁to	-26
al	-27
▁m	-28
ar	-29
▁and	-30
▁in	-31
▁of	-32
▁d	-33
le	-34
ic	-35
▁h	-36
as	-37
om	-38
ion	-39
▁th	-40
il	-41
▁T	-42
▁l	-43
ent	-44
ve	-45
▁y	-46
▁I	-47
ro	-48
st	-49
▁e	-50
▁re	-51
▁n	-52
▁S	-53
▁g	-54
et	-55
ct	-56
▁you	-57
▁A	-58
ly	-59
▁C	-60
▁for	-61
▁is	-62
id	-63
ay	-64
▁on	-65
▁be	-66
ot	-67
ow	-68
ol	-69
am	-70
ac	-71
ig	-72
us	-73
el	-74
ad	-75
im	-76
▁M	-77
ver	-78
ith	-79
ut	-80
▁st	-81
ation	-82
▁P	-83
ur	-84
▁with	-85
▁that	-86
ir	-87
▁B	-88
▁W	-89
ch	-90
▁The	-91
ce	-92
▁he	-93
▁it	-94
ill	-95
ers	-96
▁al	-97
un	-98
▁an	-99
ul	-100
▁D	-101
▁H	-102
ra	-103
▁F	-104
▁as	-105
out	-106
ke	-107
▁wh	-108
▁are	-109
se	-110
▁pro	-111
ter	-112
if	-113
▁ha	-114
▁we	-115
oo	-116
ge	-117
our	-118
▁R	-119
pp	-120
ess	-121
ate	-122
▁at	-123
▁con	-124
▁com	-125
▁or	-126
est	-127
▁L	-128
her	-129
ore	-130
ment	-131
ri	-132
ab	-133
igh	-134
▁ne	-135
rom	-136
▁-	-137
▁se	-138
▁N	-139
ort	-140
▁G	-141
▁your	-142
ld	-143
▁E	-144
ist	-145
op	-146
▁ex	-147
▁(	-148
ant	-149
em	-150
▁v	-151
ure	-152
qu	-153
art	-154
ity	-155
▁O	-156
ive	-157
▁have	-158
▁was	-159
▁r	-160
um	-161
pe	-162
ust	-163
▁from	-164
▁this	-165
oc	-166
▁de	-167
▁sh	-168
▁can	-169
ies	-170
th	-171
up	-172
ain	-173
▁will	-174
▁ch	-175
os	-176
and	-177
ight	-178
▁by	-179
nt	-180
▁us	-181
all	-182
ard	-183
ome	-184
▁not	-185
ud	-186
▁le	-187
res	-188
▁J	-189
ast	-190
▁pl	-191
ost	-192
ie	-193
▁su	-194
▁ab	-195
▁wor	-196
ide	-197
iv	-198
ial	-199
gh	-200
ack	-201
ear	-202
rou	-203
▁all	-204
ell	-205
▁j	-206
ak	-207
ould	-208
ine	-209
te	-210
..	-211
od	-212
▁has	-213
ag	-214
are	-215
ice	-216
▁Th	-217
▁k	-218
▁do	-219
age	-220
fe	-221
▁U	-222
▁ad	-223
ook	-224
ip	-225
per	-226
ake	-227
▁out	-228
▁In	-229
▁me	-230
▁comp	-231
▁up	-232
ally	-233
▁but	-234
ction	-235
▁whe	-236
one	-237
red	-238
ind	-239
ry	-240
▁“	-241
▁en	-242
able	-243
▁our	-244
og	-245
pt	-246
▁more	-247
ail	-248
ite	-249
▁Y	-250
ther	-251
▁their	-252
very	-253
ime	-254
▁cl	-255
ich	-256
▁so	-257
▁my	-258
cc	-259
ood	-260
ong	-261
ated	-262
▁K	-263
▁they	-264
▁sa	-265
▁one	-266
for	-267
ame	-268
iz	-269
ous	-270
ace	-271
ike	-272
▁St	-273
so	-274
▁te	-275
▁about	-276
ber	-277
▁V	-278
ans	-279
ick	-280
pl	-281
▁cont	-282
▁im	-283
ase	-284
du	-285
ia	-286
▁work	-287
ions	-288
cl	-289
ree	-290
ance	-291
▁who	-292
ire	-293
ue	-294
▁fe	-295
▁un	-296
ign	-297
ub	-298
▁off	-299
act	-300
▁man	-301
ach	-302
▁It	-303
reat	-304
ll	-305
ap	-306
▁go	-307
ne	-308
▁new	-309
▁We	-310
ays	-311
▁tr	-312
▁his	-313
▁res	-314
und	-315
▁app	-316
ib	-317
ult	-318
▁year	-319
erv	-320
ass	-321
ff	-322
▁qu	-323
ep	-324
▁Ch	-325
▁get	-326
ations	-327
▁sp	-328
▁time	-329
ary	-330
▁also	-331
ove	-332
ark	-333
ile	-334
▁per	-335
▁which	-336
ven	-337
▁like	-338
▁"	-339
▁int	-340
form	-341
▁some	-342
ount	-343
own	-344
▁other	-345
ents	-346
▁any	-347
ings	-348
▁part	-349
vel	-350
ond	-351
▁been	-352
ence	-353
▁This	-354
▁over	-355
▁dis	-356
av	-357
▁them	-358
ical	-359
ors	-360
▁rec	-361
ition	-362
ress	-363
ck	-364
▁pe	-365
▁ro	-366
▁sc	-367
▁He	-368
▁her	-369
ink	-370
ild	-371
▁ar	-372
▁ag	-373
▁kn	-374
ound	-375
▁when	-376
low	-377
port	-378
ose	-379
ru	-380
ough	-381
ish	-382
▁need	-383
oy	-384
ov	-385
ord	-386
▁just	-387
wn	-388
int	-389
▁spe	-390
▁there	-391
▁pre	-392
mer	-393
irst	-394
ren	-395
ob	-396
▁what	-397
▁–	-398
ens	-399
▁acc	-400
▁if	-401
▁said	-402
▁than	-403
▁Re	-404
▁would	-405
ning	-406
day	-407
ade	-408
▁had	-409
ater	-410
fter	-411
▁am	-412
old	-413
▁its	-414
vers	-415
lp	-416
rough	-417
itt	-418
▁how	-419
▁were	-420
ople	-421
▁des	-422
clud	-423
ory	-424
▁into	-425
▁help	-426
ool	-427
end	-428
use	-429
lic	-430
anc	-431
ons	-432
▁tw	-433
ks	-434
▁bec	-435
▁add	-436
...	-437
ang	-438
▁first	-439
▁You	-440
▁make	-441
amp	-442
▁people	-443
ft	-444
hed	-445
▁prov	-446
▁Wh	-447
▁bl	-448
ual	-449
▁know	-450
ric	-451
▁look	-452
▁comm	-453
ful	-454
▁col	-455
▁includ	-456
▁Ne	-457
▁serv	-458
ious	-459
▁em	-460
gr	-461
iew	-462
ments	-463
tern	-464
▁she	-465
les	-466
rent	-467
round	-468
▁only	-469
ates	-470
▁every	-471
▁through	-472
▁may	-473
▁back	-474
ating	-475
▁no	-476
▁produ	-477
pport	-478
ian	-479
▁want	-480
▁most	-481
▁well	-482
cts	-483
ities	-484
▁see	-485
▁ph	-486
com	-487
we	-488
ise	-489
▁As	-490
je	-491
▁If	-492
▁ind	-493
▁bu	-494
▁bet	-495
▁use	-496
▁two	-497
▁und	-498
▁after	-499
ife	-500
xt	-501
iss	-502
ont	-503
▁play	-504
ph	-505
ause	-506
iness	-507
oth	-508
▁|	-509
▁exper	-510
ily	-511
▁Se	-512
▁fl	-513
▁co	-514
▁these	-515
▁cons	-516
ts	-517
row	-518
als	-519
hen	-520
cial	-521
▁&	-522
▁act	-523
ock	-524
▁stud	-525
ting	-526
enc	-527
▁tra	-528
▁years	-529
▁under	-530
▁An	-531
urn	-532
aw	-533
▁Com	-534
▁For	-535
vent	-536
▁pr	-537
▁very	-538
bs	-539
▁Pro	-540
aking	-541
usiness	-542
ange	-543
▁many	-544
ices	-545
▁ke	-546
ures	-547
▁dif	-548
▁Un	-549
▁good	-550
ific	-551
▁sm	-552
▁reg	-553
ience	-554
▁$	-555
▁imp	-556
hing	-557
ased	-558
any	-559
fore	-560
▁great	-561
▁start	-562
get	-563
▁now	-564
erson	-565
oint	-566
▁way	-567
ational	-568
ward	-569
▁wee	-570
▁gu	-571
lect	-572
▁rem	-573
▁fin	-574
ert	-575
uch	-576
▁sy	-577
▁day	-578
▁rel	-579
uring	-580
formation	-581
▁could	-582
its	-583
▁even	-584
oss	-585
▁where	-586
fect	-587
).	-588
▁And	-589
hip	-590
▁loc	-591
▁inv	-592
▁inc	-593
▁own	-594
ty	-595
ible	-596
▁find	-597
elf	-598
||	-599
hes	-600
rit	-601
ath	-602
▁De	-603
▁here	-604
▁home	-605
ident	-606
ull	-607
cess	-608
ork	-609
velop	-610
▁ass	-611
▁show	-612
▁don	-613
▁best	-614
ility	-615
▁then	-616
▁should	-617
arch	-618
▁ent	-619
alth	-620
ular	-621
lease	-622
chool	-623
air	-624
▁Sh	-625
▁high	-626
▁sec	-627
▁down	-628
▁car	-629
▁read	-630
▁right	-631
line	-632
▁br	-633
▁ac	-634
▁ins	-635
▁fam	-636
▁Al	-637
The	-638
ited	-639
▁take	-640
▁min	-641
olog	-642
▁New	-643
ner	-644
▁av	-645
▁set	-646
gan	-647
.”	-648
ble	-649
▁att	-650
pect	-651
▁too	-652
ix	-653
ative	-654
▁much	-655
ied	-656
▁mon	-657
▁che	-658
▁dec	-659
ict	-660
erm	-661
▁business	-662
ract	-663
▁inst	-664
stem	-665
▁made	-666
io	-667
ys	-668
▁long	-669
ics	-670
▁design	-671
▁last	-672
gram	-673
other	-674
ax	-675
▁information	-676
▁Cl	-677
ason	-678
▁because	-679
ollow	-680
▁think	-681
omet	-682
▁did	-683
ject	-684
▁call	-685
▁Be	-686
atch	-687
oun	-688
▁before	-689
az	-690
ues	-691
▁diffe	-692
pen	-693
rib	-694
▁him	-695
),	-696
▁team	-697
way	-698
▁world	-699
▁person	-700
ng	-701
▁again	-702
alk	-703
ient	-704
▁requ	-705
▁art	-706
riend	-707
▁develop	-708
ouse	-709
▁But	-710
arket	-711
▁being	-712
ug	-713
▁inte	-714
▁life	-715
▁does	-716
▁vis	-717
▁such	-718
▁end	-719
▁cre	-720
▁sur	-721
ower	-722
rest	-723
▁hand	-724
ank	-725
▁Ad	-726
ving	-727
▁mem	-728
unity	-729
▁support	-730
ener	-731
arn	-732
land	-733
▁Le	-734
ince	-735
pr	-736
ave	-737
▁free	-738
▁those	-739
▁pres	-740
▁love	-741
ale	-742
▁gr	-743
▁while	-744
ins	-745
chn	-746
ustom	-747
▁ra	-748
▁sk	-749
▁provid	-750
ss	-751
▁disc	-752
▁around	-753
ives	-754
view	-755
▁used	-756
akes	-757
arm	-758
▁sim	-759
▁med	-760
ash	-761
▁pub	-762
ced	-763
ather	-764
▁pol	-765
▁bo	-766
ailable	-767
▁lead	-768
▁cur	-769
ces	-770
ually	-771
▁ed	-772
▁each	-773
ivers	-774
ality	-775
▁follow	-776
▁Ar	-777
ize	-778
der	-779
▁comple	-780
ages	-781
ple	-782
read	-783
ional	-784
▁There	-785
roup	-786
▁care	-787
▁On	-788
▁really	-789
irect	-790
▁eas	-791
▁post	-792
▁ser	-793
▁child	-794
ier	-795
▁ret	-796
ars	-797
▁system	-798
▁How	-799
▁program	-800
oad	-801
ene	-802
▁feel	-803
▁num	-804
led	-805
▁place	-806
au	-807
▁book	-808
▁det	-809
ines	-810
▁mod	-811
▁list	-812
▁found	-813
▁count	-814
▁trans	-815
▁They	-816
imes	-817
ets	-818
ah	-819
▁So	-820
ness	-821
▁run	-822
▁top	-823
ittle	-824
▁cour	-825
▁form	-826
▁del	-827
▁going	-828
,”	-829
▁Pl	-830
▁char	-831
iet	-832
▁fun	-833
▁available	-834
ton	-835
ways	-836
▁All	-837
man	-838
▁inter	-839
ature	-840
ctions	-841
▁different	-842
▁month	-843
▁somet	-844
▁sign	-845
▁prof	-846
▁str	-847
ute	-848
▁gl	-849
▁Te	-850
ames	-851
▁i	-852
▁still	-853
▁though	-854
▁both	-855
▁few	-856
▁open	-857
▁cle	-858
▁custom	-859
cept	-860
iel	-861
▁sub	-862
▁To	-863
ata	-864
▁Bl	-865
▁friend	-866
ering	-867
▁lot	-868
orn	-869
▁happ	-870
▁three	-871
▁school	-872
iqu	-873
ants	-874
ired	-875
▁health	-876
orth	-877
▁keep	-878
ween	-879
uc	-880
ved	-881
ining	-882
▁adv	-883
rand	-884
▁aut	-885
▁rep	-886
▁week	-887
▁fil	-888
▁market	-889
▁ext	-890
ital	-891
▁little	-892
▁pur	-893
▁Sc	-894
▁She	-895
▁family	-896
▁Ex	-897
▁experience	-898
▁plan	-899
bers	-900
tt	-901
▁company	-902
▁lar	-903
▁import	-904
▁met	-905
atur	-906
ross	-907
▁exp	-908
▁things	-909
▁between	-910
iving	-911
els	-912
▁process	-913
▁say	-914
meric	-915
▁point	-916
▁using	-917
▁report	-918
▁sol	-919
▁same	-920
▁Q	-921
▁during	-922
▁game	-923
▁including	-924
ott	-925
▁techn	-926
ology	-927
oot	-928
▁ev	-929
ik	-930
aut	-931
▁What	-932
reen	-933
▁real	-934
att	-935
▁dri	-936
ves	-937
▁Fr	-938
▁mus	-939
▁service	-940
be	-941
ized	-942
gg	-943
ms	-944
uss	-945
over	-946
▁next	-947
▁water	-948
oh	-949
▁state	-950
▁rest	-951
▁var	-952
arly	-953
▁always	-954
less	-955
self	-956
thing	-957
▁come	-958
ever	-959
ware	-960
▁allow	-961
▁contin	-962
uck	-963
▁fr	-964
▁full	-965
▁Ph	-966
ished	-967
▁Tr	-968
▁sure	-969
ern	-970
▁try	-971
ody	-972
gy	-973
▁small	-974
ution	-975
▁interest	-976
aint	-977
ists	-978
▁organ	-979
▁online	-980
▁Col	-981
▁put	-982
▁bel	-983
▁cent	-984
ery	-985
▁win	-986
▁pat	-987
▁big	-988
▁cr	-989
▁opt	-990
▁When	-991
▁ide	-992
."	-993
▁Ind	-994
▁poss	-995
▁pri	-996
▁mov	-997
ex	-998
▁appro	-999
ffect	-1000
ours	-1001
▁days	-1002
▁build	-1003
▁Americ	-1004
▁rece	-1005
▁ty	-1006
▁special	-1007
▁partic	-1008
▁since	-1009
▁group	-1010
▁ve	-1011
▁better	-1012
▁ref	-1013
▁quest	-1014
ined	-1015
eng	-1016
ield	-1017
▁val	-1018
▁class	-1019
▁resp	-1020
▁pass	-1021
▁dist	-1022
oney	-1023
▁pay	-1024
▁something	-1025
▁iss	-1026
▁phot	-1027
cent	-1028
ps	-1029
▁hard	-1030
▁result	-1031
ients	-1032
▁gener	-1033
ER	-1034
joy	-1035
ling	-1036
ipp	-1037
▁With	-1038
▁head	-1039
▁stand	-1040
▁Or	-1041
▁wom	-1042
▁provide	-1043
▁bro	-1044
work	-1045
▁perform	-1046
▁Z	-1047
▁Con	-1048
oor	-1049
▁another	-1050
iversity	-1051
▁tri	-1052
▁sl	-1053
ccess	-1054
ared	-1055
▁today	-1056
ploy	-1057
▁able	-1058
br	-1059
▁vide	-1060
illion	-1061
▁def	-1062
▁soc	-1063
▁services	-1064
▁cor	-1065
ision	-1066
stand	-1067
▁give	-1068
▁ann	-1069
▁without	-1070
▁area	-1071
▁conf	-1072
▁Sp	-1073
▁At	-1074
me	-1075
▁important	-1076
▁bre	-1077
ok	-1078
ope	-1079
▁direct	-1080
▁Cent	-1081
rist	-1082
▁cost	-1083
▁second	-1084
ann	-1085
ards	-1086
rence	-1087
ium	-1088
▁meet	-1089
▁current	-1090
▁must	-1091
▁ask	-1092
ically	-1093
▁access	-1094
ley	-1095
▁public	-1096
▁invest	-1097
▁webs	-1098
▁number	-1099
▁rese	-1100
▁Our	-1101
raph	-1102
▁sal	-1103
▁grow	-1104
ral	-1105
▁exc	-1106
▁old	-1107
▁working	-1108
▁never	-1109
outh	-1110
▁incre	-1111
con	-1112
aj	-1113
▁got	-1114
ote	-1115
▁—	-1116
▁unt	-1117
▁Is	-1118
ately	-1119
▁wr	-1120
▁data	-1121
ample	-1122
ior	-1123
ered	-1124
iver	-1125
▁fact	-1126
ems	-1127
▁visit	-1128
▁event	-1129
▁students	-1130
▁My	-1131
▁local	-1132
tend	-1133
▁room	-1134
▁food	-1135
▁light	-1136
▁order	-1137
▁fac	-1138
▁Res	-1139
▁might	-1140
▁ob	-1141
ense	-1142
▁looking	-1143
▁enjoy	-1144
ential	-1145
▁eng	-1146
▁site	-1147
ats	-1148
▁let	-1149
▁proper	-1150
▁sing	-1151
▁US	-1152
▁proble	-1153
ffic	-1154
ording	-1155
▁level	-1156
utes	-1157
▁view	-1158
ww	-1159
▁Man	-1160
▁within	-1161
▁prom	-1162
▁offer	-1163
ember	-1164
▁addition	-1165
▁job	-1166
▁four	-1167
▁inf	-1168
▁children	-1169
▁season	-1170
here	-1171
lection	-1172
▁No	-1173
▁email	-1174
▁spec	-1175
▁Comm	-1176
▁check	-1177
▁night	-1178
▁expl	-1179
▁'	-1180
▁That	-1181
▁intern	-1182
pend	-1183
urs	-1184
ertain	-1185
▁Mar	-1186
▁pos	-1187
▁power	-1188
▁until	-1189
ieve	-1190
▁test	-1191
▁past	-1192
let	-1193
▁profess	-1194
▁making	-1195
ories	-1196
rol	-1197
gin	-1198
▁sit	-1199
ently	-1200
ills	-1201
ienc	-1202
agement	-1203
ids	-1204
▁ca	-1205
ission	-1206
▁pop	-1207
ird	-1208
▁el	-1209
ream	-1210
,"	-1211
irl	-1212
▁May	-1213
ged	-1214
▁oper	-1215
ique	-1216
ases	-1217
iron	-1218
▁less	-1219
▁est	-1220
▁community	-1221
ains	-1222
ised	-1223
▁Co	-1224
▁products	-1225
▁contact	-1226
inal	-1227
▁against	-1228
ivid	-1229
▁impro	-1230
app	-1231
▁law	-1232
▁Car	-1233
load	-1234
▁prote	-1235
▁away	-1236
▁quality	-1237
med	-1238
icle	-1239
enn	-1240
▁needs	-1241
to	-1242
▁Fl	-1243
ger	-1244
IN	-1245
▁indust	-1246
▁equ	-1247
▁turn	-1248
▁website	-1249
gether	-1250
▁together	-1251
ney	-1252
ina	-1253
ator	-1254
ified	-1255
▁course	-1256
▁easy	-1257
▁project	-1258
co	-1259
sh	-1260
ift	-1261
▁pract	-1262
We	-1263
orm	-1264
▁dr	-1265
▁Br	-1266
ider	-1267
▁App	-1268
▁Can	-1269
room	-1270
iday	-1271
bo	-1272
omm	-1273
▁money	-1274
▁learn	-1275
ret	-1276
▁music	-1277
▁news	-1278
▁opport	-1279
▁success	-1280
▁Am	-1281
▁along	-1282
▁large	-1283
▁leg	-1284
▁beaut	-1285
▁complete	-1286
▁creat	-1287
▁product	-1288
▁supp	-1289
▁la	-1290
osed	-1291
▁cap	-1292
ffe	-1293
▁Fe	-1294
ocus	-1295
ode	-1296
por	-1297
oci	-1298
▁University	-1299
aring	-1300
ump	-1301
▁change	-1302
▁house	-1303
▁detail	-1304
▁One	-1305
▁expect	-1306
arent	-1307
▁include	-1308
avor	-1309
ruct	-1310
iety	-1311
▁activ	-1312
ries	-1313
vern	-1314
augh	-1315
▁says	-1316
▁research	-1317
ec	-1318
▁applic	-1319
▁.	-1320
atures	-1321
▁please	-1322
part	-1323
▁video	-1324
▁bas	-1325
▁name	-1326
▁Christ	-1327
ability	-1328
yle	-1329
atter	-1330
▁why	-1331
▁chang	-1332
ots	-1333
▁employ	-1334
▁members	-1335
▁offic	-1336
ably	-1337
lish	-1338
aterial	-1339
ism	-1340
▁Eng	-1341
▁dra	-1342
enef	-1343
▁sw	-1344
veral	-1345
pecial	-1346
aff	-1347
aster	-1348
by	-1349
▁ce	-1350
ration	-1351
aper	-1352
▁perfect	-1353
▁thing	-1354
ON	-1355
▁times	-1356
fort	-1357
opp	-1358
ify	-1359
une	-1360
▁cou	-1361
ows	-1362
▁left	-1363
▁case	-1364
▁En	-1365
viron	-1366
hor	-1367
▁Pr	-1368
iting	-1369
ready	-1370
side	-1371
▁across	-1372
ten	-1373
▁below	-1374
ising	-1375
▁understand	-1376
ane	-1377
ored	-1378
▁beh	-1379
▁friends	-1380
alf	-1381
▁educ	-1382
▁having	-1383
Th	-1384
▁These	-1385
▁word	-1386
▁buy	-1387
min	-1388
▁hum	-1389
▁dem	-1390
▁makes	-1391
▁present	-1392
▁live	-1393
▁following	-1394
▁hot	-1395
▁kind	-1396
rap	-1397
ization	-1398
itive	-1399
▁conne	-1400
▁hist	-1401
ury	-1402
the	-1403
▁air	-1404
ron	-1405
▁Cont	-1406
▁share	-1407
▁govern	-1408
▁Ste	-1409
▁writ	-1410
osp	-1411
▁short	-1412
!!	-1413
uro	-1414
▁women	-1415
itions	-1416
ES	-1417
▁account	-1418
▁treat	-1419
iam	-1420
book	-1421
▁Do	-1422
▁create	-1423
▁getting	-1424
▁social	-1425
▁done	-1426
▁net	-1427
▁side	-1428
▁story	-1429
sc	-1430
▁Me	-1431
▁review	-1432
▁enough	-1433
▁/	-1434
▁mil	-1435
▁minutes	-1436
ention	-1437
vious	-1438
▁move	-1439
▁After	-1440
▁effect	-1441
▁camp	-1442
▁ever	-1443
▁link	-1444
▁hours	-1445
uly	-1446
▁cond	-1447
▁country	-1448
uper	-1449
of	-1450
▁Che	-1451
▁pot	-1452
▁soft	-1453
ted	-1454
▁trad	-1455
ividual	-1456
▁personal	-1457
▁Des	-1458
▁page	-1459
▁comes	-1460
▁focus	-1461
▁several	-1462
▁possible	-1463
ived	-1464
▁based	-1465
▁Your	-1466
▁already	-1467
▁talk	-1468
▁benef	-1469
▁often	-1470
oon	-1471
ister	-1472
▁million	-1473
▁record	-1474
▁conc	-1475
iven	-1476
▁mar	-1477
AT	-1478
▁hold	-1479
▁development	-1480
uff	-1481
ency	-1482
▁es	-1483
wards	-1484
oice	-1485
AN	-1486
ination	-1487
▁become	-1488
err	-1489
ances	-1490
ony	-1491
ush	-1492
aim	-1493
orts	-1494
▁const	-1495
vironment	-1496
aces	-1497
▁Med	-1498
▁dev	-1499
▁fund	-1500
▁quick	-1501
rop	-1502
▁line	-1503
ohn	-1504
▁Comp	-1505
uture	-1506
▁cut	-1507
▁Please	-1508
son	-1509
▁sum	-1510
ead	-1511
mber	-1512
▁young	-1513
oose	-1514
▁bit	-1515
ograph	-1516
ips	-1517
ones	-1518
ured	-1519
▁city	-1520
unch	-1521
▁won	-1522
▁mult	-1523
▁bring	-1524
▁material	-1525
ajor	-1526
▁blog	-1527
▁tell	-1528
▁compet	-1529
arl	-1530
▁others	-1531
AR	-1532
▁individual	-1533
▁men	-1534
ners	-1535
▁Tw	-1536
ides	-1537
▁term	-1538
▁jo	-1539
ee	-1540
▁Gu	-1541
▁far	-1542
▁Here	-1543
▁didn	-1544
▁pack	-1545
▁Ass	-1546
iful	-1547
▁non	-1548
ference	-1549
OR	-1550
arr	-1551
▁:	-1552
▁months	-1553
▁Count	-1554
▁Wor	-1555
▁vers	-1556
▁doing	-1557
▁Dr	-1558
▁tre	-1559
▁doesn	-1560
▁Rep	-1561
▁return	-1562
ape	-1563
ched	-1564
▁Serv	-1565
idd	-1566
▁started	-1567
▁Inst	-1568
▁games	-1569
▁body	-1570
fer	-1571
yl	-1572
▁industry	-1573
ew	-1574
ource	-1575
▁X	-1576
lement	-1577
▁...	-1578
▁purch	-1579
▁store	-1580
▁wind	-1581
▁wa	-1582
▁Not	-1583
reet	-1584
▁came	-1585
▁called	-1586
▁However	-1587
▁Gr	-1588
▁commun	-1589
▁Intern	-1590
▁John	-1591
urity	-1592
ateg	-1593
ilities	-1594
jects	-1595
▁mom	-1596
▁deal	-1597
ball	-1598
▁mind	-1599
lished	-1600
rict	-1601
▁ey	-1602
▁ens	-1603
▁chall	-1604
anies	-1605
ober	-1606
ches	-1607
▁space	-1608
▁means	-1609
ript	-1610
▁clean	-1611
ights	-1612
▁City	-1613
▁land	-1614
▁lim	-1615
▁took	-1616
▁pie	-1617
▁rele	-1618
▁future	-1619
▁Now	-1620
▁key	-1621
conom	-1622
▁girl	-1623
▁low	-1624
▁yet	-1625
▁main	-1626
▁invol	-1627
▁heart	-1628
▁cover	-1629
▁five	-1630
▁price	-1631
▁Ab	-1632
ford	-1633
▁once	-1634
▁pict	-1635
▁major	-1636
rodu	-1637
sel	-1638
oll	-1639
▁*	-1640
▁range	-1641
▁strong	-1642
most	-1643
▁offers	-1644
▁early	-1645
ctor	-1646
ai	-1647
▁mean	-1648
▁control	-1649
▁American	-1650
▁Min	-1651
▁sn	-1652
▁tem	-1653
▁Cal	-1654
▁State	-1655
aken	-1656
▁orig	-1657
▁specific	-1658
▁priv	-1659
▁step	-1660
▁went	-1661
ges	-1662
▁fore	-1663
▁elect	-1664
acy	-1665
utions	-1666
.,	-1667
illed	-1668
▁tool	-1669
▁discuss	-1670
▁tax	-1671
▁break	-1672
▁features	-1673
▁Bro	-1674
▁study	-1675
▁least	-1676
urther	-1677
▁series	-1678
sw	-1679
irm	-1680
▁occ	-1681
▁require	-1682
▁close	-1683
atic	-1684
ained	-1685
ians	-1686
▁thought	-1687
▁walk	-1688
▁Sy	-1689
▁comb	-1690
ancial	-1691
atural	-1692
▁single	-1693
▁redu	-1694
resent	-1695
▁hope	-1696
▁upd	-1697
▁questions	-1698
▁vol	-1699
▁x	-1700
▁percent	-1701
▁ener	-1702
lege	-1703
▁happen	-1704
▁actually	-1705
ilt	-1706
▁pick	-1707
▁charact	-1708
▁stay	-1709
cer	-1710
▁Bo	-1711
ging	-1712
▁appear	-1713
▁ste	-1714
▁brand	-1715
ither	-1716
▁School	-1717
▁government	-1718
▁More	-1719
▁search	-1720
pos	-1721
aps	-1722
▁Add	-1723
▁environment	-1724
▁favor	-1725
▁Euro	-1726
▁added	-1727
▁watch	-1728
▁prep	-1729
▁Jan	-1730
▁ago	-1731
icy	-1732
▁unique	-1733
▁training	-1734
anks	-1735
▁customers	-1736
come	-1737
It	-1738
▁hig	-1739
af	-1740
▁begin	-1741
▁beautiful	-1742
ST	-1743
nes	-1744
▁Im	-1745
▁anal	-1746
resh	-1747
▁host	-1748
gle	-1749
hers	-1750
▁companies	-1751
▁mess	-1752
▁United	-1753
nam	-1754
▁Ed	-1755
ster	-1756
▁enc	-1757
▁typ	-1758
▁travel	-1759
aur	-1760
//	-1761
ensive	-1762
▁Em	-1763
arning	-1764
▁staff	-1765
▁improve	-1766
▁works	-1767
▁near	-1768
isk	-1769
ources	-1770
▁announ	-1771
▁technology	-1772
▁Pre	-1773
▁install	-1774
▁Gl	-1775
ided	-1776
ental	-1777
▁told	-1778
▁media	-1779
▁certain	-1780
▁later	-1781
ural	-1782
▁taking	-1783
://	-1784
▁By	-1785
ests	-1786
▁God	-1787
▁mor	-1788
▁red	-1789
▁results	-1790
▁someone	-1791
▁half	-1792
▁film	-1793
▁Ke	-1794
▁cook	-1795
▁field	-1796
wh	-1797
▁Qu	-1798
▁face	-1799
▁everything	-1800
▁Sm	-1801
▁tot	-1802
atest	-1803
irt	-1804
▁Su	-1805
isc	-1806
urch	-1807
lebr	-1808
rain	-1809
fully	-1810
▁ess	-1811
▁North	-1812
itor	-1813
▁track	-1814
▁Mc	-1815
▁address	-1816
▁card	-1817
▁whole	-1818
▁known	-1819
▁manag	-1820
▁everyone	-1821
▁bed	-1822
▁wond	-1823
▁press	-1824
eral	-1825
▁office	-1826
▁While	-1827
cle	-1828
ables	-1829
▁sound	-1830
▁particip	-1831
▁z	-1832
AL	-1833
play	-1834
org	-1835
inc	-1836
ille	-1837
opy	-1838
▁Will	-1839
▁Some	-1840
imate	-1841
ublic	-1842
ama	-1843
ief	-1844
▁bar	-1845
▁recomm	-1846
▁Part	-1847
▁Pres	-1848
ued	-1849
ocu	-1850
▁age	-1851
rew	-1852
▁respons	-1853
▁miss	-1854
▁cal	-1855
▁recommend	-1856
hod	-1857
▁due	-1858
cted	-1859
▁sex	-1860
▁management	-1861
▁Acc	-1862
▁content	-1863
not	-1864
▁oil	-1865
go	-1866
ino	-1867
▁ident	-1868
▁particular	-1869
▁professional	-1870
back	-1871
▁areas	-1872
▁front	-1873
▁Pe	-1874
▁Park	-1875
▁energy	-1876
▁Pol	-1877
▁building	-1878
raft	-1879
▁Just	-1880
ites	-1881
▁relations	-1882
ledge	-1883
▁click	-1884
pecially	-1885
▁sell	-1886
ibr	-1887
▁seen	-1888
▁port	-1889
▁York	-1890
▁Aust	-1891
▁ant	-1892
▁pain	-1893
▁given	-1894
▁provides	-1895
▁problem	-1896
▁mag	-1897
place	-1898
▁believe	-1899
EN	-1900
▁Aug	-1901
▁Per	-1902
▁phone	-1903
abor	-1904
oved	-1905
roll	-1906
gest	-1907
▁web	-1908
▁World	-1909
▁mot	-1910
▁reason	-1911
ators	-1912
▁events	-1913
▁Don	-1914
▁color	-1915
ung	-1916
▁--	-1917
▁assist	-1918
fact	-1919
▁size	-1920
▁tour	-1921
pro	-1922
▁simple	-1923
▁issues	-1924
▁anything	-1925
▁performance	-1926
▁Stud	-1927
ibility	-1928
▁Apr	-1929
In	-1930
▁official	-1931
▁cred	-1932
ask	-1933
▁experienc	-1934
▁claim	-1935
omes	-1936
▁South	-1937
▁print	-1938
▁Europe	-1939
ogn	-1940
ED	-1941
ef	-1942
▁opportunity	-1943
umb	-1944
▁Reg	-1945
▁eff	-1946
▁Center	-1947
▁six	-1948
itted	-1949
time	-1950
▁prob	-1951
iod	-1952
▁Day	-1953
▁Oct	-1954
urance	-1955
ison	-1956
▁weeks	-1957
▁County	-1958
▁et	-1959
▁aud	-1960
▁pret	-1961
▁From	-1962
▁details	-1963
▁history	-1964
ply	-1965
AS	-1966
▁htt	-1967
asing	-1968
▁maint	-1969
nder	-1970
▁various	-1971
ole	-1972
aining	-1973
itter	-1974
▁above	-1975
▁fall	-1976
▁Sec	-1977
▁Dep	-1978
▁latest	-1979
▁designed	-1980
▁extra	-1981
▁tou	-1982
▁foot	-1983
▁idea	-1984
ops	-1985
crib	-1986
ried	-1987
▁continue	-1988
▁cult	-1989
▁send	-1990
▁points	-1991
▁further	-1992
IT	-1993
▁black	-1994
▁National	-1995
▁Sund	-1996
▁value	-1997
obal	-1998
ze	-1999
▁soon	-2000
▁TH	-2001
astic	-2002
▁popular	-2003
▁econom	-2004
year	-2005
▁yourself	-2006
nov	-2007
▁taken	-2008
though	-2009
▁among	-2010
▁white	-2011
▁forward	-2012
▁trying	-2013
head	-2014
▁summer	-2015
▁author	-2016
▁High	-2017
AC	-2018
ands	-2019
itional	-2020
▁property	-2021
▁log	-2022
▁amount	-2023
▁includes	-2024
ises	-2025
aturday	-2026
▁living	-2027
▁required	-2028
IC	-2029
ety	-2030
▁Bar	-2031
▁safe	-2032
▁type	-2033
▁diff	-2034
▁comfort	-2035
▁Friday	-2036
▁parent	-2037
▁,	-2038
▁pretty	-2039
▁Us	-2040
▁attend	-2041
aily	-2042
ilar	-2043
▁needed	-2044
ulation	-2045
▁example	-2046
edd	-2047
lex	-2048
▁whether	-2049
▁consider	-2050
che	-2051
▁fre	-2052
▁kids	-2053
RE	-2054
ume	-2055
aching	-2056
aid	-2057
▁spend	-2058
▁according	-2059
▁date	-2060
▁hol	-2061
elt	-2062
▁hon	-2063
selves	-2064
▁question	-2065
▁answ	-2066
▁feature	-2067
ees	-2068
▁Post	-2069
▁celebr	-2070
▁dig	-2071
itch	-2072
▁coming	-2073
▁docu	-2074
icult	-2075
▁wide	-2076
uation	-2077
▁couple	-2078
▁relationship	-2079
ively	-2080
▁almost	-2081
This	-2082
▁init	-2083
▁entire	-2084
idence	-2085
▁financial	-2086
uter	-2087
ires	-2088
▁network	-2089
ham	-2090
▁ready	-2091
▁phys	-2092
▁song	-2093
▁receive	-2094
ufact	-2095
▁especially	-2096
▁insp	-2097
amer	-2098
▁famil	-2099
▁paper	-2100
ruction	-2101
▁select	-2102
cript	-2103
▁sugg	-2104
▁running	-2105
▁Off	-2106
▁fit	-2107
▁style	-2108
▁potential	-2109
▁nice	-2110
verage	-2111
▁human	-2112
▁clients	-2113
iate	-2114
uary	-2115
▁ways	-2116
▁April	-2117
▁El	-2118
▁crit	-2119
▁fire	-2120
▁education	-2121
▁box	-2122
▁cup	-2123
▁natural	-2124
▁March	-2125
▁Fin	-2126
new	-2127
▁engine	-2128
▁bad	-2129
▁par	-2130
▁via	-2131
▁wanted	-2132
▁ach	-2133
IS	-2134
▁dam	-2135
val	-2136
▁coll	-2137
▁provided	-2138
▁currently	-2139
obile	-2140
▁final	-2141
ek	-2142
▁seem	-2143
vert	-2144
▁writing	-2145
aby	-2146
OU	-2147
▁Mr	-2148
▁skin	-2149
▁sent	-2150
▁Saturday	-2151
▁isn	-2152
azing	-2153
▁June	-2154
▁recent	-2155
▁text	-2156
▁park	-2157
▁choose	-2158
▁previous	-2159
▁Health	-2160
▁software	-2161
▁meas	-2162
ese	-2163
▁Art	-2164
▁period	-2165
itting	-2166
▁party	-2167
▁ensure	-2168
▁road	-2169
▁role	-2170
▁ele	-2171
▁dou	-2172
▁recently	-2173
clus	-2174
▁Bu	-2175
▁either	-2176
gress	-2177
▁common	-2178
▁impact	-2179
▁issue	-2180
▁items	-2181
▁morning	-2182
▁reading	-2183
atform	-2184
▁member	-2185
▁held	-2186
▁happy	-2187
▁regular	-2188
itten	-2189
▁download	-2190
icro	-2191
▁July	-2192
▁Read	-2193
where	-2194
▁quite	-2195
ival	-2196
ounc	-2197
▁veh	-2198
▁grad	-2199
▁behind	-2200
▁throughout	-2201
angu	-2202
▁takes	-2203
onday	-2204
▁else	-2205
▁favorite	-2206
▁represent	-2207
▁Af	-2208
bor	-2209
▁options	-2210
used	-2211
▁President	-2212
▁Sept	-2213
▁sales	-2214
▁Tra	-2215
▁bott	-2216
▁method	-2217
▁pric	-2218
▁self	-2219
▁increase	-2220
▁sle	-2221
oura	-2222
▁House	-2223
▁skills	-2224
ux	-2225
oes	-2226
▁asked	-2227
▁table	-2228
▁words	-2229
uge	-2230
de	-2231
▁leave	-2232
▁users	-2233
▁spr	-2234
▁third	-2235
pper	-2236
mb	-2237
▁Ag	-2238
▁Sw	-2239
earch	-2240
▁Sunday	-2241
my	-2242
....	-2243
wood	-2244
▁created	-2245
▁players	-2246
▁security	-2247
ny	-2248
anced	-2249
▁action	-2250
▁jour	-2251
▁shows	-2252
▁knowledge	-2253
oud	-2254
eter	-2255
arth	-2256
▁Cor	-2257
▁Get	-2258
▁pan	-2259
▁consum	-2260
▁probably	-2261
ada	-2262
▁hy	-2263
▁difficult	-2264
icles	-2265
▁signific	-2266
oe	-2267
▁Aut	-2268
▁deb	-2269
▁Up	-2270
▁Red	-2271
▁however	-2272
▁mix	-2273
▁fresh	-2274
itc	-2275
mit	-2276
overed	-2277
▁version	-2278
▁problems	-2279
kend	-2280
▁article	-2281
erc	-2282
▁Ge	-2283
▁cool	-2284
aced	-2285
▁swe	-2286
▁exam	-2287
▁TV	-2288
▁Dav	-2289
▁Mich	-2290
arter	-2291
aving	-2292
▁anim	-2293
gs	-2294
apt	-2295
▁clear	-2296
▁Free	-2297
▁West	-2298
▁likely	-2299
▁Of	-2300
▁stri	-2301
▁wonder	-2302
ox	-2303
oogle	-2304
▁Inc	-2305
▁Are	-2306
▁di	-2307
▁simply	-2308
ication	-2309
▁tit	-2310
▁Val	-2311
.)	-2312
▁board	-2313
▁drive	-2314
▁worth	-2315
▁police	-2316
▁Mon	-2317
▁His	-2318
▁anyone	-2319
reme	-2320
▁activities	-2321
hel	-2322
▁outside	-2323
▁recogn	-2324
▁Direct	-2325
▁Her	-2326
▁stop	-2327
▁flow	-2328
▁Monday	-2329
▁position	-2330
▁stra	-2331
▁private	-2332
minist	-2333
aul	-2334
▁practice	-2335
empt	-2336
▁Wed	-2337
▁inj	-2338
pm	-2339
idge	-2340
▁match	-2341
▁learning	-2342
▁received	-2343
▁abs	-2344
▁etc	-2345
▁super	-2346
aign	-2347
St	-2348
▁town	-2349
ana	-2350
oid	-2351
▁ful	-2352
▁ple	-2353
▁systems	-2354
ground	-2355
▁projects	-2356
▁necess	-2357
ude	-2358
▁fast	-2359
▁Sk	-2360
cast	-2361
ification	-2362
▁programs	-2363
▁career	-2364
▁Int	-2365
eth	-2366
▁inside	-2367
▁changes	-2368
▁associ	-2369
▁growth	-2370
▁lay	-2371
▁additional	-2372
▁Feb	-2373
▁located	-2374
▁ground	-2375
▁contrib	-2376
▁lives	-2377
▁sat	-2378
▁customer	-2379
ession	-2380
▁significant	-2381
ming	-2382
▁Face	-2383
▁round	-2384
▁Black	-2385
▁Austral	-2386
▁platform	-2387
hib	-2388
erve	-2389
▁hair	-2390
▁speak	-2391
iff	-2392
name	-2393
ram	-2394
iple	-2395
▁squ	-2396
arget	-2397
right	-2398
based	-2399
nal	-2400
▁longer	-2401
▁tast	-2402
▁accept	-2403
▁Sal	-2404
▁meeting	-2405
face	-2406
▁Act	-2407
▁fig	-2408
▁release	-2409
▁Soc	-2410
▁ball	-2411
ouncil	-2412
▁original	-2413
▁application	-2414
ules	-2415
▁tal	-2416
ester	-2417
ague	-2418
▁defin	-2419
▁model	-2420
par	-2421
irth	-2422
▁UK	-2423
icated	-2424
▁amazing	-2425
▁Then	-2426
ipping	-2427
oke	-2428
▁chance	-2429
▁playing	-2430
reg	-2431
adem	-2432
oom	-2433
ecut	-2434
mercial	-2435
▁character	-2436
▁News	-2437
▁autom	-2438
▁exist	-2439
▁fail	-2440
▁books	-2441
▁seems	-2442
▁August	-2443
▁rather	-2444
▁goal	-2445
ler	-2446
▁cir	-2447
▁First	-2448
▁challeng	-2449
ID	-2450
oring	-2451
nesday	-2452
▁hands	-2453
▁matter	-2454
▁photos	-2455
▁January	-2456
▁nothing	-2457
▁concern	-2458
aging	-2459
▁cand	-2460
▁total	-2461
▁former	-2462
▁touch	-2463
▁Har	-2464
▁mach	-2465
▁San	-2466
▁suggest	-2467
▁manufact	-2468
▁providing	-2469
▁treatment	-2470
airs	-2471
▁hit	-2472
artment	-2473
▁ideas	-2474
▁choice	-2475
▁States	-2476
▁sun	-2477
ought	-2478
mas	-2479
ades	-2480
▁teac	-2481
▁saf	-2482
ET	-2483
▁wood	-2484
▁medical	-2485
gar	-2486
ursday	-2487
▁Mus	-2488
▁Every	-2489
uesday	-2490
eds	-2491
iber	-2492
▁boy	-2493
▁student	-2494
cing	-2495
OT	-2496
▁tick	-2497
▁similar	-2498
▁movie	-2499
▁weekend	-2500
Wh	-2501
izing	-2502
▁club	-2503
▁variety	-2504
▁function	-2505
▁Associ	-2506
ipment	-2507
▁deg	-2508
▁polit	-2509
rec	-2510
▁Also	-2511
▁risk	-2512
▁screen	-2513
▁collect	-2514
▁Ac	-2515
ING	-2516
oph	-2517
▁death	-2518
▁October	-2519
▁leading	-2520
▁September	-2521
▁Well	-2522
mon	-2523
light	-2524
▁Group	-2525
▁production	-2526
iddle	-2527
now	-2528
na	-2529
off	-2530
▁depend	-2531
▁true	-2532
▁looks	-2533
arden	-2534
▁exact	-2535
▁infl	-2536
▁America	-2537
▁decided	-2538
▁arri	-2539
▁base	-2540
▁allows	-2541
▁loss	-2542
▁determ	-2543
▁international	-2544
▁file	-2545
▁mark	-2546
▁attack	-2547
▁general	-2548
▁Cons	-2549
▁quickly	-2550
li	-2551
▁iP	-2552
▁included	-2553
▁green	-2554
▁lo	-2555
▁Wind	-2556
▁La	-2557
▁Ang	-2558
ipe	-2559
▁Sim	-2560
▁easily	-2561
▁late	-2562
▁encoura	-2563
▁respect	-2564
▁Facebook	-2565
iol	-2566
▁plans	-2567
▁leaders	-2568
▁Business	-2569
▁Let	-2570
▁worked	-2571
▁purchase	-2572
▁draw	-2573
▁location	-2574
urg	-2575
ondon	-2576
▁involved	-2577
unities	-2578
iding	-2579
▁PM	-2580
▁bud	-2581
▁agree	-2582
imum	-2583
▁introdu	-2584
▁mass	-2585
▁regard	-2586
opping	-2587
▁Calif	-2588
▁Department	-2589
▁collection	-2590
mm	-2591
eal	-2592
aves	-2593
▁campaign	-2594
▁investig	-2595
cy	-2596
▁Net	-2597
▁excell	-2598
--	-2599
▁drink	-2600
▁cell	-2601
▁Dis	-2602
example	-2603
▁af	-2604
illing	-2605
itchen	-2606
▁Thursday	-2607
▁op	-2608
▁sil	-2609
idents	-2610
▁decision	-2611
elcome	-2612
olution	-2613
▁rad	-2614
▁Street	-2615
▁Any	-2616
▁built	-2617
▁langu	-2618
▁lost	-2619
▁Wednesday	-2620
▁sche	-2621
▁higher	-2622
key	-2623
rown	-2624
▁bus	-2625
▁prevent	-2626
▁pers	-2627
▁parents	-2628
▁ep	-2629
ospital	-2630
▁benefits	-2631
▁Tuesday	-2632
▁comment	-2633
sp	-2634
bum	-2635
▁Pat	-2636
▁Google	-2637
▁estab	-2638
hern	-2639
ached	-2640
▁clos	-2641
amb	-2642
▁wall	-2643
▁floor	-2644
▁aw	-2645
▁usually	-2646
▁cause	-2647
▁effic	-2648
▁center	-2649
▁protect	-2650
▁safety	-2651
▁national	-2652
AM	-2653
▁insurance	-2654
action	-2655
▁prior	-2656
▁moment	-2657
zy	-2658
▁Was	-2659
▁cannot	-2660
▁Ob	-2661
▁po	-2662
atives	-2663
▁image	-2664
▁daily	-2665
▁earn	-2666
▁gen	-2667
▁saw	-2668
▁hear	-2669
ples	-2670
ivery	-2671
▁stat	-2672
▁court	-2673
oday	-2674
pped	-2675
▁bal	-2676
▁Most	-2677
▁stock	-2678
▁expected	-2679
▁Design	-2680
▁average	-2681
▁marketing	-2682
ellow	-2683
▁serious	-2684
ams	-2685
uk	-2686
▁deep	-2687
ovember	-2688
▁commit	-2689
▁partners	-2690
▁integr	-2691
▁regist	-2692
lim	-2693
▁request	-2694
just	-2695
▁Rec	-2696
▁Ser	-2697
▁expert	-2698
▁weight	-2699
▁patients	-2700
▁display	-2701
ael	-2702
ville	-2703
▁modern	-2704
▁CO	-2705
▁gives	-2706
lin	-2707
ishing	-2708
▁apply	-2709
▁piece	-2710
▁mother	-2711
▁Out	-2712
amed	-2713
cember	-2714
▁credit	-2715
hood	-2716
▁huge	-2717
str	-2718
reng	-2719
erous	-2720
ength	-2721
▁norm	-2722
add	-2723
olf	-2724
▁ri	-2725
ructure	-2726
▁bag	-2727
avy	-2728
▁restaur	-2729
▁standard	-2730
▁International	-2731
acing	-2732
▁door	-2733
ornia	-2734
▁Cour	-2735
▁gift	-2736
hold	-2737
▁announced	-2738
▁Air	-2739
atory	-2740
irit	-2741
▁inde	-2742
▁write	-2743
▁dom	-2744
▁costs	-2745
▁remember	-2746
urt	-2747
duct	-2748
▁giving	-2749
▁organization	-2750
▁goes	-2751
▁corre	-2752
▁highly	-2753
▁Christmas	-2754
▁contract	-2755
▁helps	-2756
▁tools	-2757
board	-2758
band	-2759
▁note	-2760
▁fight	-2761
▁Click	-2762
▁London	-2763
▁gets	-2764
▁user	-2765
▁warm	-2766
▁released	-2767
▁join	-2768
▁dream	-2769
iter	-2770
▁imm	-2771
▁rate	-2772
▁interested	-2773
uel	-2774
arant	-2775
▁Home	-2776
▁sens	-2777
▁award	-2778
▁related	-2779
▁positive	-2780
▁computer	-2781
▁India	-2782
▁myself	-2783
ocol	-2784
▁families	-2785
ett	-2786
orge	-2787
EO	-2788
like	-2789
▁neg	-2790
▁Thanks	-2791
▁woman	-2792
▁target	-2793
unte	-2794
apan	-2795
▁Gener	-2796
▁English	-2797
▁ability	-2798
▁enter	-2799
▁trust	-2800
asons	-2801
iring	-2802
▁ones	-2803
ressed	-2804
sy	-2805
ris	-2806
▁played	-2807
▁instead	-2808
▁ut	-2809
▁ord	-2810
▁global	-2811
▁November	-2812
enge	-2813
▁vict	-2814
▁Check	-2815
pri	-2816
ederal	-2817
▁innov	-2818
urb	-2819
aught	-2820
▁Play	-2821
ibrary	-2822
▁levels	-2823
▁materials	-2824
▁feed	-2825
▁parts	-2826
▁sense	-2827
▁surpr	-2828
▁effective	-2829
▁California	-2830
▁War	-2831
▁ded	-2832
▁approach	-2833
▁attention	-2834
▁qual	-2835
▁roll	-2836
▁groups	-2837
▁published	-2838
▁themselves	-2839
OS	-2840
EL	-2841
ysis	-2842
▁copy	-2843
▁policy	-2844
▁deliver	-2845
ening	-2846
ashion	-2847
unt	-2848
▁hour	-2849
partment	-2850
ha	-2851
ruary	-2852
▁dise	-2853
▁eye	-2854
▁legal	-2855
▁photo	-2856
▁describ	-2857
▁rout	-2858
edding	-2859
▁Sen	-2860
▁Spe	-2861
iation	-2862
▁camer	-2863
▁immed	-2864
cription	-2865
▁planning	-2866
▁save	-2867
▁digital	-2868
bit	-2869
▁Sch	-2870
▁arch	-2871
▁capt	-2872
▁opportunities	-2873
▁Hot	-2874
▁Prof	-2875
▁reported	-2876
pose	-2877
ipped	-2878
▁Other	-2879
▁Since	-2880
▁Hol	-2881
▁consult	-2882
▁Over	-2883
▁sites	-2884
▁interesting	-2885
▁opp	-2886
▁December	-2887
▁gar	-2888
▁hor	-2889
istic	-2890
▁ill	-2891
▁dest	-2892
▁http	-2893
▁reach	-2894
▁healthy	-2895
▁answer	-2896
▁firm	-2897
▁Rem	-2898
gu	-2899
▁sus	-2900
▁fine	-2901
rab	-2902
iles	-2903
▁baby	-2904
▁written	-2905
▁Mag	-2906
▁Sub	-2907
▁lif	-2908
▁sold	-2909
▁adult	-2910
▁message	-2911
”.	-2912
ald	-2913
▁Je	-2914
attle	-2915
▁sale	-2916
▁player	-2917
▁document	-2918
▁starting	-2919
put	-2920
▁mid	-2921
▁Afric	-2922
▁Trans	-2923
▁According	-2924
▁interview	-2925
▁solution	-2926
ida	-2927
▁Dist	-2928
▁prim	-2929
ara	-2930
▁Great	-2931
EC	-2932
▁images	-2933
ivity	-2934
▁defe	-2935
▁Techn	-2936
▁equipment	-2937
izes	-2938
▁source	-2939
aly	-2940
▁Del	-2941
ffee	-2942
▁cy	-2943
▁Even	-2944
▁businesses	-2945
▁conditions	-2946
▁attempt	-2947
▁College	-2948
▁employees	-2949
iant	-2950
▁dry	-2951
▁cases	-2952
aged	-2953
▁Book	-2954
▁trip	-2955
▁directly	-2956
▁completely	-2957
inner	-2958
▁East	-2959
▁rights	-2960
▁Paul	-2961
▁resources	-2962
orage	-2963
▁subs	-2964
▁began	-2965
▁Service	-2966
▁condition	-2967
▁Par	-2968
▁www	-2969
▁option	-2970
▁Program	-2971
aches	-2972
▁Port	-2973
▁lower	-2974
▁streng	-2975
▁achieve	-2976
AP	-2977
ares	-2978
▁seek	-2979
onse	-2980
▁Law	-2981
▁commercial	-2982
▁traditional	-2983
www	-2984
▁dead	-2985
▁wrong	-2986
itation	-2987
▁Twitter	-2988
▁multiple	-2989
▁gold	-2990
elling	-2991
▁Green	-2992
wor	-2993
▁implement	-2994
overn	-2995
▁emer	-2996
aker	-2997
▁prem	-2998
▁tele	-2999
▁plant	-3000
▁thinking	-3001
▁Market	-3002
ault	-3003
ension	-3004
▁stuff	-3005
▁picture	-3006
▁promot	-3007
▁schools	-3008
duc	-3009
▁Best	-3010
itely	-3011
▁heat	-3012
▁prices	-3013
▁February	-3014
▁Brit	-3015
▁Once	-3016
▁president	-3017
▁Many	-3018
▁band	-3019
▁pull	-3020
▁code	-3021
▁sett	-3022
▁upon	-3023
▁essential	-3024
uate	-3025
▁Year	-3026
unk	-3027
▁obs	-3028
▁mobile	-3029
ils	-3030
ube	-3031
▁wasn	-3032
vey	-3033
ibly	-3034
wide	-3035
▁necessary	-3036
ule	-3037
uth	-3038
ooth	-3039
▁slow	-3040
▁David	-3041
▁Found	-3042
▁Av	-3043
▁album	-3044
▁Loc	-3045
▁cat	-3046
coming	-3047
rought	-3048
▁except	-3049
▁Phil	-3050
▁reve	-3051
▁excellent	-3052
▁comments	-3053
▁pictures	-3054
▁block	-3055
▁stories	-3056
oul	-3057
ruit	-3058
▁Mod	-3059
▁aim	-3060
enty	-3061
▁Work	-3062
▁fair	-3063
▁types	-3064
▁See	-3065
▁hop	-3066
▁wait	-3067
ography	-3068
▁countries	-3069
vest	-3070
iable	-3071
▁Down	-3072
▁viol	-3073
ffects	-3074
▁sleep	-3075
▁affect	-3076
▁subject	-3077
▁Mor	-3078
urning	-3079
▁fully	-3080
TM	-3081
▁Bre	-3082
▁bank	-3083
▁cert	-3084
nds	-3085
▁paint	-3086
imately	-3087
ma	-3088
▁solutions	-3089
BC	-3090
▁THE	-3091
▁birth	-3092
ancy	-3093
aries	-3094
udd	-3095
▁rock	-3096
▁itself	-3097
▁feeling	-3098
▁reports	-3099
▁Why	-3100
▁offe	-3101
▁Services	-3102
rup	-3103
uses	-3104
▁eat	-3105
▁pet	-3106
▁fab	-3107
▁suit	-3108
▁temper	-3109
▁fix	-3110
▁broad	-3111
▁loved	-3112
▁vac	-3113
▁Good	-3114
▁felt	-3115
▁Japan	-3116
▁advice	-3117
ager	-3118
▁led	-3119
IL	-3120
▁AM	-3121
ica	-3122
▁lab	-3123
▁Phot	-3124
▁neigh	-3125
▁internet	-3126
▁Jack	-3127
▁Spr	-3128
▁Make	-3129
▁Cle	-3130
▁Met	-3131
▁moving	-3132
▁coun	-3133
▁carry	-3134
mission	-3135
▁successful	-3136
yond	-3137
▁William	-3138
▁extreme	-3139
▁Web	-3140
▁circ	-3141
▁aware	-3142
▁places	-3143
▁King	-3144
▁item	-3145
▁div	-3146
▁Germ	-3147
▁gave	-3148
▁Office	-3149
rs	-3150
▁blue	-3151
▁fans	-3152
▁effort	-3153
▁Each	-3154
ecutive	-3155
▁creating	-3156
▁Use	-3157
▁towards	-3158
mat	-3159
hest	-3160
▁eyes	-3161
arlier	-3162
▁growing	-3163
haps	-3164
▁dire	-3165
▁region	-3166
▁Hall	-3167
▁Cr	-3168
▁distrib	-3169
ey	-3170
zz	-3171
▁Go	-3172
ties	-3173
▁teams	-3174
net	-3175
ocks	-3176
pite	-3177
▁Whe	-3178
▁goals	-3179
▁appoint	-3180
▁language	-3181
ores	-3182
▁mat	-3183
aughter	-3184
▁nature	-3185
▁nut	-3186
▁vot	-3187
▁Super	-3188
▁section	-3189
▁individuals	-3190
rows	-3191
▁Mac	-3192
▁blood	-3193
▁Pri	-3194
▁dru	-3195
▁vehicle	-3196
▁AN	-3197
▁lic	-3198
vis	-3199
▁Today	-3200
▁mount	-3201
▁terms	-3202
▁cancer	-3203
rote	-3204
▁Flor	-3205
erved	-3206
▁dro	-3207
▁stru	-3208
▁smart	-3209
▁complex	-3210
▁straight	-3211
▁saying	-3212
▁Find	-3213
arc	-3214
▁Jo	-3215
▁farm	-3216
▁heard	-3217
▁offering	-3218
▁rent	-3219
▁Council	-3220
▁administ	-3221
▁sometimes	-3222
▁Dem	-3223
▁serve	-3224
▁arr	-3225
▁limited	-3226
▁dark	-3227
▁dating	-3228
▁respond	-3229
▁cas	-3230
▁director	-3231
▁profession	-3232
ios	-3233
▁Russ	-3234
▁Hel	-3235
▁ble	-3236
house	-3237
▁girls	-3238
▁wonderful	-3239
▁requirements	-3240
▁apprec	-3241
▁consist	-3242
▁weather	-3243
▁Bel	-3244
▁aff	-3245
▁sen	-3246
▁organiz	-3247
▁Ty	-3248
▁Class	-3249
▁finally	-3250
▁White	-3251
su	-3252
▁race	-3253
▁wish	-3254
ological	-3255
▁difference	-3256
Ch	-3257
rench	-3258
▁Club	-3259
▁Educ	-3260
▁glass	-3261
▁spent	-3262
▁Michael	-3263
anch	-3264
▁Road	-3265
▁speed	-3266
▁owners	-3267
useum	-3268
idered	-3269
▁connect	-3270
▁enh	-3271
ression	-3272
itute	-3273
iction	-3274
▁stick	-3275
▁budget	-3276
▁convers	-3277
▁kitchen	-3278
RO	-3279
venue	-3280
▁Lear	-3281
▁dress	-3282
▁lik	-3283
omen	-3284
▁grand	-3285
▁separ	-3286
▁applications	-3287
▁Board	-3288
▁Inter	-3289
▁mention	-3290
▁cross	-3291
▁progress	-3292
▁Mem	-3293
AD	-3294
yn	-3295
▁Last	-3296
bon	-3297
▁IN	-3298
istry	-3299
▁finish	-3300
▁war	-3301
▁Pal	-3302
▁wants	-3303
▁developed	-3304
▁Tex	-3305
▁son	-3306
▁shoot	-3307
▁turned	-3308
▁Director	-3309
ceed	-3310
▁situation	-3311
porate	-3312
▁college	-3313
▁emot	-3314
▁shop	-3315
▁Govern	-3316
ened	-3317
▁Vis	-3318
down	-3319
▁ten	-3320
mitted	-3321
▁strateg	-3322
dule	-3323
▁Gold	-3324
hington	-3325
▁System	-3326
tee	-3327
wise	-3328
▁influ	-3329
▁Canada	-3330
▁response	-3331
▁entertain	-3332
pects	-3333
▁Apple	-3334
▁exactly	-3335
▁quarter	-3336
itary	-3337
▁lots	-3338
▁miles	-3339
▁Association	-3340
▁bi	-3341
▁brought	-3342
▁cold	-3343
ocr	-3344
▁bath	-3345
▁dep	-3346
▁uses	-3347
▁charge	-3348
▁delivery	-3349
▁homes	-3350
▁maybe	-3351
▁instru	-3352
▁Develop	-3353
inary	-3354
rel	-3355
▁spot	-3356
▁guarant	-3357
▁investment	-3358
▁Sol	-3359
rences	-3360
▁concept	-3361
▁wedding	-3362
▁imag	-3363
▁path	-3364
▁dog	-3365
▁ing	-3366
▁seven	-3367
▁Thank	-3368
▁advant	-3369
estern	-3370
▁Ant	-3371
field	-3372
▁candid	-3373
▁volunte	-3374
PS	-3375
▁China	-3376
▁sports	-3377
▁physical	-3378
US	-3379
fl	-3380
▁pattern	-3381
▁guide	-3382
▁device	-3383
▁nearly	-3384
▁altern	-3385
owl	-3386
▁pow	-3387
▁transport	-3388
uted	-3389
▁ult	-3390
▁nation	-3391
▁definitely	-3392
▁Plan	-3393
▁avoid	-3394
▁inform	-3395
▁max	-3396
inger	-3397
opped	-3398
▁wrote	-3399
▁active	-3400
▁became	-3401
isf	-3402
▁Sl	-3403
▁Indian	-3404
▁annual	-3405
ION	-3406
▁Windows	-3407
▁ver	-3408
▁Review	-3409
▁offered	-3410
▁Dan	-3411
▁Rel	-3412
▁hotel	-3413
▁tried	-3414
▁retail	-3415
ications	-3416
▁Big	-3417
olute	-3418
▁repl	-3419
▁demon	-3420
▁exerc	-3421
word	-3422
▁comfortable	-3423
▁Top	-3424
ounds	-3425
▁wear	-3426
▁About	-3427
▁stage	-3428
▁sweet	-3429
He	-3430
▁Mart	-3431
▁decor	-3432
▁extend	-3433
▁excited	-3434
▁helping	-3435
▁overall	-3436
ned	-3437
pre	-3438
▁length	-3439
):	-3440
roid	-3441
hips	-3442
▁jud	-3443
▁Open	-3444
▁thank	-3445
error	-3446
▁construction	-3447
▁IT	-3448
▁doll	-3449
▁Internet	-3450
You	-3451
▁challenge	-3452
▁experienced	-3453
▁rev	-3454
antly	-3455
change	-3456
▁James	-3457
ago	-3458
illa	-3459
▁afford	-3460
▁reduce	-3461
▁analysis	-3462
▁feet	-3463
amin	-3464
▁Fam	-3465
▁decl	-3466
sec	-3467
▁PC	-3468
more	-3469
▁emb	-3470
▁estate	-3471
▁partner	-3472
▁IS	-3473
▁fat	-3474
▁accom	-3475
▁assess	-3476
▁coffee	-3477
▁Washington	-3478
".	-3479
ston	-3480
▁acqu	-3481
▁pred	-3482
OL	-3483
▁load	-3484
asy	-3485
ales	-3486
▁Angel	-3487
akers	-3488
▁Have	-3489
▁title	-3490
▁activity	-3491
▁surround	-3492
▁culture	-3493
▁ST	-3494
▁statement	-3495
EM	-3496
▁star	-3497
▁ahead	-3498
▁largest	-3499
▁considered	-3500
▁Ev	-3501
▁opening	-3502
▁conference	-3503
atever	-3504
usband	-3505
▁Church	-3506
▁Rich	-3507
▁shot	-3508
ancing	-3509
▁bottom	-3510
▁client	-3511
▁understanding	-3512
▁Cur	-3513
▁outd	-3514
icious	-3515
▁thous	-3516
estival	-3517
▁holiday	-3518
▁responsible	-3519
mark	-3520
▁hous	-3521
▁belie	-3522
▁European	-3523
▁wife	-3524
▁pieces	-3525
roud	-3526
▁Fire	-3527
▁independ	-3528
▁cra	-3529
ategy	-3530
▁collabor	-3531
▁Bay	-3532
▁demand	-3533
▁videos	-3534
rey	-3535
▁Ins	-3536
▁Republic	-3537
last	-3538
▁Oh	-3539
oves	-3540
het	-3541
uce	-3542
▁Care	-3543
▁Life	-3544
isions	-3545
▁truly	-3546
▁Florida	-3547
▁talking	-3548
asc	-3549
▁Ir	-3550
▁damage	-3551
▁contain	-3552
▁initial	-3553
▁beginning	-3554
▁categ	-3555
▁Public	-3556
▁machine	-3557
ady	-3558
cel	-3559
oming	-3560
▁expand	-3561
▁fashion	-3562
tion	-3563
vant	-3564
care	-3565
▁Texas	-3566
que	-3567
ports	-3568
▁cards	-3569
▁adjust	-3570
▁correct	-3571
ota	-3572
nown	-3573
▁benefit	-3574
▁Mal	-3575
▁Call	-3576
▁Char	-3577
▁driving	-3578
▁Sum	-3579
▁Research	-3580
iny	-3581
ails	-3582
rast	-3583
▁wild	-3584
▁beyond	-3585
icip	-3586
▁paid	-3587
friend	-3588
▁analy	-3589
▁disease	-3590
oos	-3591
▁certainly	-3592
icate	-3593
order	-3594
▁fant	-3595
▁Child	-3596
set	-3597
oving	-3598
▁pool	-3599
ustain	-3600
▁pages	-3601
▁Island	-3602
▁served	-3603
▁states	-3604
▁gas	-3605
▁lack	-3606
▁plus	-3607
▁earlier	-3608
▁reviews	-3609
dom	-3610
▁eight	-3611
chan	-3612
▁posted	-3613
▁Ann	-3614
▁Look	-3615
▁easier	-3616
box	-3617
hone	-3618
▁files	-3619
▁sugar	-3620
hens	-3621
▁prec	-3622
▁prot	-3623
▁advert	-3624
▁Although	-3625
▁background	-3626
cause	-3627
▁button	-3628
▁camera	-3629
rem	-3630
▁supply	-3631
za	-3632
▁histor	-3633
▁proced	-3634
▁Information	-3635
▁Tom	-3636
acity	-3637
▁tips	-3638
▁garden	-3639
▁spirit	-3640
▁clin	-3641
iately	-3642
agn	-3643
▁General	-3644
▁himself	-3645
▁completed	-3646
IP	-3647
LE	-3648
ado	-3649
ona	-3650
▁wine	-3651
ocolate	-3652
▁replace	-3653
Re	-3654
▁II	-3655
▁double	-3656
ying	-3657
▁Time	-3658
▁frame	-3659
▁finished	-3660
▁haven	-3661
▁Australia	-3662
▁Cap	-3663
▁numbers	-3664
▁purpose	-3665
aled	-3666
▁Court	-3667
▁rates	-3668
▁jobs	-3669
▁evening	-3670
▁session	-3671
anta	-3672
▁prop	-3673
iture	-3674
▁storage	-3675
esome	-3676
▁helped	-3677
▁thanks	-3678
▁husband	-3679
▁setting	-3680
bl	-3681
asp	-3682
orrow	-3683
osh	-3684
iling	-3685
body	-3686
▁billion	-3687
dd	-3688
▁Sam	-3689
phone	-3690
▁degree	-3691
▁exhib	-3692
▁spread	-3693
oly	-3694
▁cru	-3695
▁slight	-3696
ulations	-3697
ky	-3698
▁train	-3699
▁Management	-3700
▁Str	-3701
icken	-3702
▁Take	-3703
▁beauty	-3704
If	-3705
nded	-3706
▁craft	-3707
▁People	-3708
aith	-3709
▁normal	-3710
▁prefer	-3711
lies	-3712
▁creative	-3713
sych	-3714
▁cash	-3715
▁winter	-3716
▁communities	-3717
▁patient	-3718
IV	-3719
▁Mary	-3720
▁Thom	-3721
undred	-3722
▁furn	-3723
▁opin	-3724
▁During	-3725
▁remain	-3726
▁Education	-3727
▁challenges	-3728
▁threat	-3729
mail	-3730
▁incred	-3731
arily	-3732
▁Micro	-3733
▁taste	-3734
▁increased	-3735
▁Who	-3736
▁sty	-3737
▁Cong	-3738
▁View	-3739
▁fem	-3740
▁Star	-3741
▁knew	-3742
▁mission	-3743
amm	-3744
ari	-3745
▁basis	-3746
▁father	-3747
umn	-3748
vin	-3749
▁Mark	-3750
▁	-3751
e	-3752
t	-3753
a	-3754
o	-3755
i	-3756
n	-3757
s	-3758
r	-3759
h	-3760
l	-3761
d	-3762
c	-3763
u	-3764
m	-3765
p	-3766
f	-3767
g	-3768
y	-3769
w	-3770
b	-3771
.	-3772
v	-3773
,	-3774
k	-3775
T	-3776
I	-3777
S	-3778
A	-3779
-	-3780
C	-3781
0	-3782
M	-3783
1	-3784
P	-3785
x	-3786
B	-3787
2	-3788
W	-3789
D	-3790
E	-3791
R	-3792
H	-3793
’	-3794
F	-3795
L	-3796
N	-3797
O	-3798
:	-3799
G	-3800
'	-3801
j	-3802
)	-3803
(	-3804
3	-3805
z	-3806
5	-3807
q	-3808
4	-3809
U	-3810
J	-3811
9	-3812
"	-3813
6	-3814
8	-3815
|	-3816
V	-3817
Y	-3818
K	-3819
!	-3820
7	-3821
/	-3822
“	-3823
”	-3824
?	-3825
–	-3826
;	-3827
&	-3828
$	-3829
Q	-3830
%	-3831
—	-3832
X	-3833
Z	-3834
*	-3835
