<pad>	0
<s>	0
</s>	0
<unk>	0
<0x00>	0
<0x01>	0
<0x02>	0
<0x03>	0
<0x04>	0
<0x05>	0
<0x06>	0
<0x07>	0
<0x08>	0
<0x09>	0
<0x0A>	0
<0x0B>	0
<0x0C>	0
<0x0D>	0
<0x0E>	0
<0x0F>	0
<0x10>	0
<0x11>	0
<0x12>	0
<0x13>	0
<0x14>	0
<0x15>	0
<0x16>	0
<0x17>	0
<0x18>	0
<0x19>	0
<0x1A>	0
<0x1B>	0
<0x1C>	0
<0x1D>	0
<0x1E>	0
<0x1F>	0
<0x20>	0
<0x21>	0
<0x22>	0
<0x23>	0
<0x24>	0
<0x25>	0
<0x26>	0
<0x27>	0
<0x28>	0
<0x29>	0
<0x2A>	0
<0x2B>	0
<0x2C>	0
<0x2D>	0
<0x2E>	0
<0x2F>	0
<0x30>	0
<0x31>	0
<0x32>	0
<0x33>	0
<0x34>	0
<0x35>	0
<0x36>	0
<0x37>	0
<0x38>	0
<0x39>	0
<0x3A>	0
<0x3B>	0
<0x3C>	0
<0x3D>	0
<0x3E>	0
<0x3F>	0
<0x40>	0
<0x41>	0
<0x42>	0
<0x43>	0
<0x44>	0
<0x45>	0
<0x46>	0
<0x47>	0
<0x48>	0
<0x49>	0
<0x4A>	0
<0x4B>	0
<0x4C>	0
<0x4D>	0
<0x4E>	0
<0x4F>	0
<0x50>	0
<0x51>	0
<0x52>	0
<0x53>	0
<0x54>	0
<0x55>	0
<0x56>	0
<0x57>	0
<0x58>	0
<0x59>	0
<0x5A>	0
<0x5B>	0
<0x5C>	0
<0x5D>	0
<0x5E>	0
<0x5F>	0
<0x60>	0
<0x61>	0
<0x62>	0
<0x63>	0
<0x64>	0
<0x65>	0
<0x66>	0
<0x67>	0
<0x68>	0
<0x69>	0
<0x6A>	0
<0x6B>	0
<0x6C>	0
<0x6D>	0
<0x6E>	0
<0x6F>	0
<0x70>	0
<0x71>	0
<0x72>	0
<0x73>	0
<0x74>	0
<0x75>	0
<0x76>	0
<0x77>	0
<0x78>	0
<0x79>	0
<0x7A>	0
<0x7B>	0
<0x7C>	0
<0x7D>	0
<0x7E>	0
<0x7F>	0
<0x80>	0
<0x81>	0
<0x82>	0
<0x83>	0
<0x84>	0
<0x85>	0
<0x86>	0
<0x87>	0
<0x88>	0
<0x89>	0
<0x8A>	0
<0x8B>	0
<0x8C>	0
<0x8D>	0
<0x8E>	0
<0x8F>	0
<0x90>	0
<0x91>	0
<0x92>	0
<0x93>	0
<0x94>	0
<0x95>	0
<0x96>	0
<0x97>	0
<0x98>	0
<0x99>	0
<0x9A>	0
<0x9B>	0
<0x9C>	0
<0x9D>	0
<0x9E>	0
<0x9F>	0
<0xA0>	0
<0xA1>	0
<0xA2>	0
<0xA3>	0
<0xA4>	0
<0xA5>	0
<0xA6>	0
<0xA7>	0
<0xA8>	0
<0xA9>	0
<0xAA>	0
<0xAB>	0
<0xAC>	0
<0xAD>	0
<0xAE>	0
<0xAF>	0
<0xB0>	0
<0xB1>	0
<0xB2>	0
<0xB3>	0
<0xB4>	0
<0xB5>	0
<0xB6>	0
<0xB7>	0
<0xB8>	0
<0xB9>	0
<0xBA>	0
<0xBB>	0
<0xBC>	0
<0xBD>	0
<0xBE>	0
<0xBF>	0
<0xC0>	0
<0xC1>	0
<0xC2>	0
<0xC3>	0
<0xC4>	0
<0xC5>	0
<0xC6>	0
<0xC7>	0
<0xC8>	0
<0xC9>	0
<0xCA>	0
<0xCB>	0
<0xCC>	0
<0xCD>	0
<0xCE>	0
<0xCF>	0
<0xD0>	0
<0xD1>	0
<0xD2>	0
<0xD3>	0
<0xD4>	0
<0xD5>	0
<0xD6>	0
<0xD7>	0
<0xD8>	0
<0xD9>	0
<0xDA>	0
<0xDB>	0
<0xDC>	0
<0xDD>	0
<0xDE>	0
<0xDF>	0
<0xE0>	0
<0xE1>	0
<0xE2>	0
<0xE3>	0
<0xE4>	0
<0xE5>	0
<0xE6>	0
<0xE7>	0
<0xE8>	0
<0xE9>	0
<0xEA>	0
<0xEB>	0
<0xEC>	0
<0xED>	0
<0xEE>	0
<0xEF>	0
<0xF0>	0
<0xF1>	0
<0xF2>	0
<0xF3>	0
<0xF4>	0
<0xF5>	0
<0xF6>	0
<0xF7>	0
<0xF8>	0
<0xF9>	0
<0xFA>	0
<0xFB>	0
<0xFC>	0
<0xFD>	0
<0xFE>	0
<0xFF>	0
s	-3.06355
▁	-3.36104
.	-3.50884
,	-3.6053
▁the	-3.6861
▁and	-4.14472
▁to	-4.17045
▁a	-4.28443
▁of	-4.3348
▁in	-4.581
ing	-4.69406
ed	-4.80669
0	-4.80741
1	-4.9407
-	-4.98779
t	-4.98962
d	-4.99404
▁for	-5.07117
▁is	-5.07957
2	-5.12634
▁I	-5.27393
▁that	-5.35819
▁with	-5.42191
▁on	-5.43361
er	-5.46597
▁you	-5.4663
y	-5.47783
’	-5.47986
'	-5.50275
▁be	-5.66396
e	-5.66416
▁it	-5.66488
:	-5.66826
▁The	-5.68675
ly	-5.71591
▁are	-5.7445
n	-5.78427
3	-5.83386
al	-5.85213
m	-5.86371
5	-5.8814
▁(	-5.92497
re	-5.94589
▁at	-5.97167
▁-	-5.97345
▁your	-5.99013
▁was	-6.00336
▁have	-6.00986
▁as	-6.01456
▁or	-6.02656
4	-6.04426
▁from	-6.0462
▁this	-6.0464
)	-6.09969
9	-6.1086
r	-6.11234
▁will	-6.1225
▁by	-6.12348
▁S	-6.16776
▁A	-6.18446
▁can	-6.2023
or	-6.24038
▁an	-6.25226
a	-6.25372
6	-6.27374
8	-6.28065
in	-6.28744
o	-6.30916
th	-6.3239
▁not	-6.32667
es	-6.33108
▁we	-6.34709
7	-6.34946
le	-6.3958
▁has	-6.41106
p	-6.45872
l	-6.46476
S	-6.49852
▁all	-6.50051
▁C	-6.50367
!	-6.53753
▁p	-6.55985
?	-6.59846
▁more	-6.59857
▁but	-6.59955
on	-6.61035
▁“	-6.6253
h	-6.63283
▁he	-6.6349
ar	-6.64398
i	-6.6595
/	-6.66333
▁our	-6.66353
▁B	-6.67512
▁their	-6.67673
▁so	-6.68096
▁out	-6.68463
▁my	-6.68645
c	-6.6869
an	-6.69443
ri	-6.69825
▁one	-6.69943
b	-6.70133
g	-6.70788
▁F	-6.70846
▁up	-6.7097
I	-6.71383
D	-6.71648
ation	-6.7293
▁"	-6.73572
▁about	-6.7378
▁re	-6.74866
A	-6.76043
it	-6.76792
ers	-6.772
ve	-6.78134
P	-6.78336
▁they	-6.80296
ic	-6.80437
▁his	-6.81036
st	-6.81446
ur	-6.81943
▁me	-6.82796
▁In	-6.82909
u	-6.83343
k	-6.84784
at	-6.85119
▁P	-6.85292
el	-6.87232
▁E	-6.87763
▁time	-6.89006
▁new	-6.89116
en	-6.90014
ion	-6.90099
ll	-6.90219
▁who	-6.92078
▁also	-6.93242
▁which	-6.94767
▁It	-6.95128
B	-6.9746
li	-6.97705
▁We	-6.98292
▁like	-6.99866
▁G	-7.00087
▁do	-7.0025
C	-7.00295
T	-7.00544
▁said	-7.02716
et	-7.02834
▁been	-7.02973
▁T	-7.03824
▁b	-7.04456
able	-7.04751
ro	-7.05272
▁This	-7.05747
il	-7.06173
▁when	-7.08957
M	-7.09095
▁some	-7.10168
ra	-7.10386
▁over	-7.111
▁her	-7.12097
▁other	-7.12964
▁get	-7.13022
▁de	-7.13234
▁just	-7.13381
"	-7.14332
ch	-7.14426
▁D	-7.14899
▁work	-7.1493
▁what	-7.15568
▁M	-7.16379
f	-7.16537
ent	-7.16916
L	-7.17562
ive	-7.17659
E	-7.1784
▁would	-7.17887
w	-7.17927
▁if	-7.17984
ne	-7.18694
▁were	-7.18942
▁no	-7.19441
▁had	-7.20067
ment	-7.20229
im	-7.21762
se	-7.21791
F	-7.21792
▁Re	-7.22601
ate	-7.25214
;	-7.25709
▁into	-7.26641
id	-7.26888
▁He	-7.27136
▁first	-7.27329
▁c	-7.27828
is	-7.27834
▁make	-7.28953
▁any	-7.28984
ol	-7.2926
▁there	-7.30066
G	-7.30183
lo	-7.31414
▁than	-7.31661
”	-7.31685
▁K	-7.32427
▁them	-7.32448
▁W	-7.32738
ce	-7.3306
▁H	-7.33166
...	-7.33918
z	-7.34243
am	-7.34445
ir	-7.34854
us	-7.35653
la	-7.36161
▁N	-7.36592
ter	-7.36664
▁people	-7.3735
O	-7.37401
▁help	-7.37514
▁st	-7.37774
com	-7.3875
▁she	-7.38759
ad	-7.38886
▁–	-7.3892
est	-7.40115
me	-7.40186
ist	-7.40808
age	-7.40839
▁un	-7.41237
▁O	-7.41615
▁St	-7.41935
to	-7.42323
▁R	-7.43164
▁For	-7.43833
▁how	-7.44232
un	-7.44241
▁You	-7.44278
▁us	-7.44369
▁only	-7.44522
▁two	-7.44708
▁year	-7.45276
▁use	-7.46114
▁most	-7.46703
x	-7.46759
▁see	-7.46977
R	-7.4846
▁f	-7.48631
H	-7.49875
ta	-7.499
▁way	-7.49926
▁well	-7.50834
ity	-7.51191
▁back	-7.51267
▁If	-7.52363
▁co	-7.52622
▁may	-7.53091
de	-7.53351
▁&	-7.54341
V	-7.54393
ry	-7.5474
as	-7.54911
ia	-7.5511
▁know	-7.55154
▁$	-7.55811
▁L	-7.55905
▁its	-7.56713
▁after	-7.56849
▁g	-7.57045
▁|	-7.57163
ine	-7.57169
▁need	-7.57621
W	-7.57722
▁home	-7.5825
te	-7.58344
ge	-7.58821
ma	-7.59169
ul	-7.59405
▁con	-7.59431
um	-7.60198
na	-7.60574
▁To	-7.60754
ha	-7.60762
▁take	-7.60848
ies	-7.60858
up	-7.6145
▁U	-7.62277
▁years	-7.62498
▁show	-7.62663
▁now	-7.6364
▁very	-7.64109
▁good	-7.64202
▁want	-7.64468
▁through	-7.64555
ant	-7.65116
▁these	-7.65523
▁many	-7.66674
ot	-7.66712
▁day	-7.66937
ut	-7.67517
ary	-7.67836
▁go	-7.67946
man	-7.68161
▁great	-7.68898
The	-7.69297
▁De	-7.7099
▁don	-7.71291
▁even	-7.71645
▁And	-7.7166
▁New	-7.71939
ru	-7.72747
▁V	-7.7287
N	-7.73209
▁where	-7.7332
▁look	-7.73541
▁So	-7.73777
▁Co	-7.7447
▁part	-7.74696
▁should	-7.74753
▁right	-7.74904
▁here	-7.75003
U	-7.75544
▁love	-7.75874
ance	-7.7598
▁Ma	-7.76418
co	-7.76472
ie	-7.76494
▁r	-7.76602
and	-7.77173
po	-7.77266
▁information	-7.77565
▁find	-7.77789
▁could	-7.77971
▁last	-7.79366
ho	-7.79588
▁Be	-7.8129
vi	-7.81318
ver	-7.81398
▁e	-7.81911
▁best	-7.82103
▁life	-7.82255
▁off	-7.82741
▁Le	-7.83397
▁place	-7.83542
▁team	-7.83761
▁much	-7.83922
▁before	-7.84912
mo	-7.84978
▁But	-7.85183
▁because	-7.85484
ti	-7.85532
per	-7.85614
▁made	-7.86017
op	-7.86468
ci	-7.87205
tic	-7.87453
▁free	-7.87753
ction	-7.88214
||	-7.88641
).	-7.88763
|	-7.88955
▁Ro	-7.8905
ting	-7.89087
ian	-7.89139
ton	-7.8982
.”	-7.90097
▁down	-7.90545
▁comp	-7.91531
ure	-7.92276
K	-7.92847
son	-7.93628
ty	-7.94156
▁every	-7.94272
▁under	-7.9435
ab	-7.94394
▁those	-7.94428
▁then	-7.94755
pe	-7.94782
▁end	-7.94921
▁support	-7.95109
▁such	-7.95478
hi	-7.9616
▁La	-7.96454
v	-7.96668
▁car	-7.9674
ated	-7.96895
ill	-7.97079
%	-7.97174
▁An	-7.9727
▁while	-7.97304
▁As	-7.975
Y	-7.97832
▁world	-7.97891
▁ma	-7.98479
▁Do	-7.98712
va	-7.98721
ship	-7.99212
ck	-7.99312
▁own	-7.99661
▁around	-7.99884
▁each	-7.99997
ni	-8.0001
▁being	-8.0045
ow	-8.00805
be	-8.00815
ell	-8.00891
ted	-8.00912
▁high	-8.01063
ag	-8.01136
▁Mo	-8.01216
▁think	-8.01393
▁pro	-8.01446
▁post	-8.01483
▁experience	-8.01645
▁him	-8.02052
▁w	-8.02201
▁Bo	-8.02476
nd	-8.02593
less	-8.02916
ak	-8.02959
▁used	-8.03523
▁All	-8.03674
▁di	-8.04192
▁really	-8.04515
▁Ba	-8.04602
▁am	-8.04675
▁business	-8.04685
▁v	-8.05038
▁long	-8.05183
▁Me	-8.05592
port	-8.05666
ice	-8.05723
▁system	-8.05821
ac	-8.06312
▁three	-8.06366
mp	-8.06676
ish	-8.06758
▁game	-8.06866
▁hand	-8.07219
."	-8.07438
▁found	-8.07495
▁going	-8.07735
ial	-8.08315
end	-8.08358
▁week	-8.0847
▁Pa	-8.08527
▁available	-8.08596
▁set	-8.08604
our	-8.08747
ick	-8.08926
▁She	-8.09048
),	-8.09075
▁open	-8.09091
▁still	-8.09106
he	-8.0956
no	-8.09688
ner	-8.09707
▁both	-8.09942
der	-8.09994
ling	-8.1004
ence	-8.1016
mi	-8.10538
▁Con	-8.1064
▁design	-8.10656
em	-8.10803
▁pre	-8.11297
min	-8.11455
▁program	-8.11526
pa	-8.11584
▁ex	-8.11633
,”	-8.12067
ub	-8.12212
ig	-8.12344
▁There	-8.12838
ke	-8.13202
▁d	-8.13876
▁give	-8.13911
land	-8.13954
om	-8.141
one	-8.14529
▁come	-8.14621
▁few	-8.14627
ness	-8.14662
way	-8.14841
▁No	-8.15686
▁live	-8.16135
▁ch	-8.16197
ning	-8.16266
ster	-8.16395
▁fl	-8.16428
▁J	-8.16462
▁They	-8.17145
red	-8.17614
out	-8.18014
ff	-8.18363
▁keep	-8.18458
▁different	-8.18708
ca	-8.18942
▁man	-8.19326
tor	-8.19339
▁Te	-8.19646
sh	-8.19671
▁same	-8.19862
▁too	-8.2006
▁Ca	-8.20071
▁school	-8.20152
▁lot	-8.20754
▁family	-8.2086
▁Ra	-8.20875
▁number	-8.2093
ating	-8.20958
▁sp	-8.21339
▁play	-8.21524
▁little	-8.21541
▁including	-8.2168
▁mo	-8.21712
▁per	-8.21746
che	-8.21875
mon	-8.21876
▁mi	-8.21964
▁start	-8.22588
,"	-8.22993
▁using	-8.23064
J	-8.23109
ip	-8.23128
▁service	-8.23161
ite	-8.23227
▁site	-8.23267
▁water	-8.23333
all	-8.23421
▁What	-8.23463
▁dis	-8.23469
▁process	-8.23538
act	-8.23644
▁order	-8.23681
▁next	-8.23682
ous	-8.24106
▁company	-8.2431
lu	-8.24438
ving	-8.24799
ard	-8.25038
▁state	-8.25199
▁project	-8.25233
▁during	-8.25372
▁Al	-8.2558
▁between	-8.25699
▁Mar	-8.2576
mb	-8.26477
da	-8.26636
▁full	-8.26855
ations	-8.26864
▁plan	-8.26927
tion	-8.26973
bo	-8.27001
ions	-8.27689
line	-8.27846
▁Lo	-8.27983
ake	-8.28356
▁allow	-8.28569
the	-8.28804
di	-8.29054
▁Ar	-8.29067
lic	-8.29316
▁book	-8.29925
▁did	-8.3015
▁things	-8.3033
cent	-8.30421
ical	-8.30603
▁Ha	-8.30724
ight	-8.31146
ea	-8.31318
▁small	-8.31354
▁got	-8.31438
ap	-8.31505
▁since	-8.31666
dy	-8.31729
▁call	-8.31734
▁second	-8.31822
ful	-8.31981
▁better	-8.32331
▁When	-8.32583
ect	-8.32637
▁Se	-8.32688
ual	-8.32998
▁run	-8.33041
▁always	-8.33533
▁la	-8.3386
▁change	-8.34131
▁Vi	-8.34166
▁something	-8.34177
▁Po	-8.34193
▁online	-8.34248
▁care	-8.34305
▁sure	-8.34333
▁say	-8.34497
do	-8.34551
ten	-8.34574
led	-8.34631
ther	-8.34895
▁list	-8.35007
▁app	-8.35056
ph	-8.35406
▁provide	-8.35673
▁line	-8.35776
▁gr	-8.35811
old	-8.36047
ba	-8.36326
we	-8.36413
▁season	-8.36424
▁Sa	-8.36711
ang	-8.3682
▁group	-8.37071
▁special	-8.37072
str	-8.37403
▁top	-8.3748
▁today	-8.37597
▁head	-8.37671
qu	-8.37779
▁Pro	-8.37917
▁With	-8.38041
ally	-8.3817
▁read	-8.38171
▁cr	-8.38224
▁another	-8.38262
les	-8.38613
ny	-8.38729
con	-8.38819
▁win	-8.38903
ring	-8.39672
▁local	-8.39702
▁does	-8.39998
go	-8.403
io	-8.40452
ber	-8.4051
wi	-8.40723
▁report	-8.40874
ex	-8.40926
▁—	-8.40957
fi	-8.40973
rs	-8.40982
ay	-8.41048
▁days	-8.41168
ors	-8.41456
▁add	-8.41457
▁case	-8.41564
▁Ho	-8.41836
ran	-8.42015
▁feel	-8.42052
bu	-8.42251
ability	-8.42367
▁sign	-8.42603
ug	-8.42632
▁without	-8.42716
ger	-8.42861
▁students	-8.42929
ft	-8.42945
▁share	-8.43085
tra	-8.43118
▁name	-8.43211
king	-8.4322
ain	-8.43343
▁area	-8.43432
▁close	-8.43494
ach	-8.43891
cu	-8.43984
▁page	-8.4411
▁i	-8.44274
▁must	-8.44584
▁Our	-8.44658
▁On	-8.44833
▁Sp	-8.44871
os	-8.45011
▁My	-8.45227
▁Z	-8.45319
▁lo	-8.45426
▁Li	-8.45569
▁public	-8.45708
▁light	-8.45803
▁never	-8.46205
▁market	-8.46331
ator	-8.46487
ep	-8.46487
▁Th	-8.46497
▁Mi	-8.46523
▁level	-8.46588
cl	-8.46638
int	-8.46794
▁put	-8.46923
mer	-8.47111
ga	-8.47146
We	-8.47192
▁sh	-8.47215
▁Or	-8.47237
mm	-8.47247
ative	-8.47374
log	-8.47377
▁website	-8.47405
▁test	-8.47598
▁real	-8.47663
▁old	-8.48045
▁video	-8.48065
▁hard	-8.4817
ee	-8.48392
ew	-8.48684
▁price	-8.48765
▁product	-8.48768
▁visit	-8.48851
ide	-8.49266
au	-8.49638
▁might	-8.49667
day	-8.49741
▁That	-8.49753
▁important	-8.49817
▁Di	-8.49902
ron	-8.50085
▁ho	-8.50089
▁working	-8.50149
ER	-8.50893
▁check	-8.51039
▁form	-8.51205
▁please	-8.51451
▁fun	-8.51592
wa	-8.51693
▁health	-8.51803
▁Dr	-8.51854
▁enjoy	-8.51958
▁data	-8.51994
▁past	-8.52324
▁night	-8.52386
ack	-8.52433
▁University	-8.52631
ient	-8.52689
▁cost	-8.52699
gu	-8.5292
▁job	-8.53115
lar	-8.5312
ose	-8.5321
▁bo	-8.53318
▁course	-8.536
ue	-8.53673
▁At	-8.53717
ct	-8.53757
▁music	-8.54279
▁making	-8.54292
if	-8.54299
ud	-8.54484
fa	-8.54607
hy	-8.54711
▁research	-8.54873
▁tr	-8.54874
gan	-8.55074
tri	-8.55084
time	-8.5527
▁until	-8.55435
av	-8.55621
▁services	-8.56286
▁against	-8.5643
▁access	-8.56529
▁food	-8.56611
▁Y	-8.56629
▁looking	-8.56753
ward	-8.57142
side	-8.57326
▁personal	-8.57544
uck	-8.57575
▁children	-8.57613
▁email	-8.57713
▁view	-8.57807
▁continue	-8.57874
tro	-8.58033
low	-8.5838
▁products	-8.5848
X	-8.58597
▁Ex	-8.58822
▁include	-8.58823
▁offer	-8.58866
aw	-8.5887
ven	-8.59022
▁within	-8.59202
▁able	-8.59295
ize	-8.59394
▁community	-8.59754
vo	-8.59927
▁four	-8.60102
▁side	-8.60183
lin	-8.60257
ign	-8.60262
▁big	-8.60355
by	-8.6046
▁contact	-8.60725
▁Ta	-8.60865
▁again	-8.6087
▁Ne	-8.61015
▁bring	-8.61182
gen	-8.612
▁together	-8.61215
▁person	-8.61285
▁become	-8.61403
ture	-8.61451
ible	-8.61572
▁Car	-8.61755
ore	-8.6178
od	-8.62029
ult	-8.6211
▁record	-8.62449
ka	-8.62547
ized	-8.62563
▁away	-8.62603
▁j	-8.62617
▁create	-8.62625
▁en	-8.62774
ities	-8.62827
▁cut	-8.62995
▁learn	-8.63032
ley	-8.63139
▁says	-8.63303
▁Da	-8.63332
ens	-8.6343
▁million	-8.63839
▁Ch	-8.63857
gg	-8.63971
▁room	-8.63999
▁move	-8.64012
oc	-8.64095
ev	-8.641
lf	-8.64244
qui	-8.64334
▁law	-8.64602
ome	-8.64721
▁American	-8.64737
▁buy	-8.64907
nt	-8.65028
ash	-8.65213
▁thing	-8.65234
art	-8.65241
ace	-8.65273
▁idea	-8.65294
▁talk	-8.6539
que	-8.6552
cur	-8.65778
▁quality	-8.65925
▁event	-8.65929
▁consider	-8.6613
▁point	-8.66172
▁let	-8.66301
oo	-8.66504
▁month	-8.66615
▁Su	-8.66617
ink	-8.66833
ile	-8.66845
▁pay	-8.66888
ise	-8.66955
ious	-8.66959
▁One	-8.67105
▁large	-8.67138
▁house	-8.67166
▁May	-8.67351
▁easy	-8.67388
form	-8.67471
▁power	-8.67822
▁inter	-8.67983
RE	-8.67991
▁control	-8.68024
▁short	-8.68028
fe	-8.68164
▁money	-8.68498
▁Jo	-8.68546
ler	-8.68593
▁How	-8.69149
ase	-8.69518
▁deal	-8.69587
row	-8.69637
ki	-8.69683
▁left	-8.6973
▁along	-8.69824
bb	-8.69903
▁air	-8.7047
▁Bu	-8.70511
▁bar	-8.70666
tal	-8.70858
▁sc	-8.71012
▁account	-8.71066
▁type	-8.71302
▁why	-8.71419
▁happen	-8.7153
▁Fa	-8.71571
▁perfect	-8.71608
▁Pre	-8.71637
▁color	-8.71654
▁link	-8.71933
▁join	-8.72087
cor	-8.72171
▁turn	-8.72264
ound	-8.72435
▁hope	-8.72467
▁thought	-8.72763
AN	-8.72795
ade	-8.72799
▁US	-8.72872
▁cover	-8.7304
mission	-8.73055
▁space	-8.7317
(	-8.73419
ever	-8.73728
ng	-8.74042
▁Please	-8.74165
▁After	-8.74326
▁mean	-8.74428
▁bit	-8.74531
ress	-8.74575
▁Ad	-8.7467
▁return	-8.74805
rk	-8.74833
▁These	-8.7493
▁professional	-8.75084
▁follow	-8.7514
▁following	-8.75152
▁below	-8.75303
▁Sha	-8.75315
tu	-8.7545
ments	-8.75602
pic	-8.75692
ism	-8.75695
▁Tra	-8.75743
▁enough	-8.75913
▁already	-8.76056
▁kind	-8.76133
▁won	-8.76143
▁card	-8.76287
ld	-8.76338
▁file	-8.76366
▁art	-8.76458
▁review	-8.76604
▁getting	-8.76689
iv	-8.76704
▁image	-8.76882
▁Na	-8.77142
amp	-8.77226
val	-8.77491
▁...	-8.7753
▁face	-8.77696
▁present	-8.77898
ear	-8.77923
ding	-8.78031
ries	-8.78207
rt	-8.78345
▁tell	-8.78545
ory	-8.78606
rate	-8.78741
▁having	-8.78775
▁State	-8.78843
▁far	-8.78864
▁development	-8.7895
▁key	-8.7906
▁believe	-8.79156
▁Your	-8.79183
▁comment	-8.79472
—	-8.79543
▁reason	-8.79654
▁ever	-8.79662
rew	-8.79708
lit	-8.79776
▁didn	-8.798
▁Ka	-8.79915
▁pass	-8.8011
hu	-8.80238
j	-8.80393
tter	-8.80404
ney	-8.80565
▁develop	-8.80573
▁less	-8.80836
▁country	-8.80847
▁percent	-8.80886
▁application	-8.80924
▁non	-8.80968
▁story	-8.80998
▁sl	-8.81246
▁based	-8.8133
▁North	-8.81621
▁across	-8.81781
▁city	-8.81961
▁size	-8.82019
▁minutes	-8.82064
▁possible	-8.82254
▁material	-8.82427
▁lead	-8.82559
nn	-8.82618
und	-8.82753
▁women	-8.82948
▁goal	-8.83087
▁members	-8.83115
▁School	-8.83118
bi	-8.83134
▁try	-8.83142
▁several	-8.8321
den	-8.8325
▁understand	-8.83526
ze	-8.83724
▁Can	-8.83977
▁focus	-8.84087
sa	-8.84155
▁done	-8.84256
ough	-8.84258
▁single	-8.84421
▁watch	-8.8451
▁came	-8.84553
han	-8.84701
ric	-8.8471
▁individual	-8.84792
▁range	-8.84939
▁imp	-8.85141
▁class	-8.85231
▁hours	-8.85692
▁store	-8.85861
▁fo	-8.85956
▁doesn	-8.86021
▁Here	-8.8616
OR	-8.86186
serv	-8.86252
AR	-8.86392
▁needs	-8.86404
▁clean	-8.86405
lie	-8.86431
▁film	-8.8645
▁model	-8.86586
▁Un	-8.86747
ah	-8.86801
▁du	-8.86885
▁count	-8.86912
▁took	-8.86938
▁Service	-8.86987
rn	-8.86997
▁friends	-8.87104
▁Bar	-8.87196
▁--	-8.8731
▁body	-8.87424
▁future	-8.87442
▁City	-8.87493
rain	-8.87693
▁Pe	-8.87818
▁hit	-8.87832
har	-8.87878
▁Go	-8.87918
▁doing	-8.8818
▁York	-8.88264
▁social	-8.88542
▁often	-8.88589
▁rest	-8.88594
ier	-8.8867
▁X	-8.88718
▁clear	-8.8896
▁building	-8.89347
▁least	-8.89424
lock	-8.89551
ple	-8.89563
▁called	-8.8967
▁five	-8.9003
▁early	-8.90038
▁cause	-8.90155
▁hold	-8.90257
▁charge	-8.90353
▁Ja	-8.90421
▁En	-8.90458
▁told	-8.90494
fully	-8.90545
pos	-8.90553
▁fact	-8.90601
▁government	-8.90652
▁value	-8.90821
▁started	-8.90822
▁though	-8.90849
▁yet	-8.90869
▁young	-8.91217
year	-8.91282
▁travel	-8.91292
▁went	-8.91616
press	-8.91626
▁war	-8.91651
▁step	-8.91733
ray	-8.91823
vis	-8.9192
▁sur	-8.92132
ban	-8.92159
▁fit	-8.92194
▁search	-8.92387
ham	-8.92627
▁walk	-8.92631
▁mind	-8.9266
▁Man	-8.92939
let	-8.93101
▁months	-8.9311
▁Day	-8.9314
▁industry	-8.93201
▁Gu	-8.93366
▁act	-8.93461
▁comes	-8.93542
▁condition	-8.93636
▁Cr	-8.93641
▁stay	-8.93659
▁ago	-8.93848
▁piece	-8.93951
par	-8.94028
▁series	-8.94031
lan	-8.94092
ush	-8.94096
▁media	-8.94234
▁Je	-8.94293
ren	-8.94304
▁content	-8.94319
▁article	-8.94805
▁South	-8.94903
▁remain	-8.95003
fo	-8.95018
qua	-8.95217
▁fire	-8.95438
▁ca	-8.95452
▁date	-8.955
▁pick	-8.95518
It	-8.95583
▁benefit	-8.9574
▁office	-8.95752
▁Not	-8.95827
▁purchase	-8.95987
own	-8.96044
▁rate	-8.96067
▁eye	-8.96215
▁meet	-8.96297
▁performance	-8.96321
▁blog	-8.9657
vent	-8.96712
light	-8.96938
▁term	-8.96999
▁issue	-8.97152
▁National	-8.97186
▁once	-8.97195
ition	-8.97336
▁picture	-8.97336
ets	-8.9737
gi	-8.97377
vel	-8.97419
▁heart	-8.97469
gra	-8.97485
▁Dis	-8.97494
lay	-8.97524
In	-8.97529
▁problem	-8.9755
▁Gra	-8.97647
▁However	-8.97709
▁makes	-8.9772
▁low	-8.97852
▁means	-8.97856
ox	-8.97878
▁Now	-8.97912
▁Center	-8.97996
▁leave	-8.98048
▁More	-8.98158
ec	-8.98199
ky	-8.98217
▁receive	-8.98229
▁member	-8.98406
▁games	-8.98494
ium	-8.98514
spec	-8.98595
▁tax	-8.98624
▁Har	-8.98712
▁sub	-8.98729
air	-8.98845
▁fund	-8.98913
ey	-8.99085
▁County	-8.99109
▁contain	-8.9911
▁main	-8.99113
▁High	-8.99256
▁strong	-8.99315
▁field	-8.99373
mail	-8.99428
▁Some	-8.99436
▁Pri	-8.9954
://	-8.99677
▁result	-8.99756
▁features	-8.99775
▁six	-8.9982
use	-9.00066
get	-9.00142
rr	-9.00185
▁United	-9.00397
▁God	-9.00443
cho	-9.00476
cul	-9.00506
▁John	-9.00514
net	-9.00525
▁War	-9.00529
ail	-9.00548
▁fan	-9.00604
▁times	-9.00634
▁half	-9.00709
ES	-9.00751
▁character	-9.00759
▁Cha	-9.00875
ock	-9.0101
▁whole	-9.01022
ble	-9.01025
IN	-9.01078
▁everything	-9.01337
my	-9.01389
▁San	-9.01412
rac	-9.01561
ON	-9.01577
▁official	-9.01594
▁human	-9.01596
▁Park	-9.01644
▁child	-9.01791
work	-9.01873
▁version	-9.01971
▁current	-9.02158
▁address	-9.02204
▁added	-9.02308
▁solution	-9.02323
▁oil	-9.02325
uc	-9.02399
▁study	-9.0249
▁style	-9.02575
▁By	-9.02651
▁El	-9.0272
▁super	-9.02811
▁complete	-9.02812
▁Just	-9.02814
▁near	-9.03479
▁taking	-9.03611
▁Post	-9.03653
▁front	-9.03662
lk	-9.03703
vers	-9.03712
▁recommend	-9.03713
▁update	-9.03798
▁actually	-9.03864
▁offers	-9.03867
vision	-9.03922
rry	-9.04182
lip	-9.04231
▁fast	-9.04237
▁technology	-9.04304
▁practice	-9.04412
▁Friday	-9.04421
▁/	-9.04458
▁beautiful	-9.04466
▁organization	-9.0452
▁staff	-9.04628
▁wide	-9.04737
▁ask	-9.04776
load	-9.04854
▁appear	-9.04889
▁Ri	-9.0504
her	-9.05051
▁Thank	-9.05279
fer	-9.05375
mark	-9.05486
▁break	-9.05565
▁Sc	-9.05805
▁World	-9.05824
▁host	-9.05838
▁original	-9.05906
▁Si	-9.06015
▁track	-9.06039
▁simple	-9.06153
▁x	-9.06288
▁phone	-9.06373
ants	-9.0639
ef	-9.06496
▁stand	-9.06503
▁March	-9.06519
ong	-9.06553
▁reach	-9.0656
nu	-9.06565
▁network	-9.06648
▁brand	-9.06652
▁known	-9.06662
for	-9.06723
▁Saturday	-9.06924
▁customers	-9.06988
▁Wi	-9.06994
▁education	-9.0709
▁match	-9.07104
org	-9.07116
▁questions	-9.0715
▁later	-9.07162
▁training	-9.07328
▁example	-9.07478
▁sound	-9.07491
▁unique	-9.07613
▁final	-9.07886
▁wait	-9.07933
▁print	-9.08017
pro	-9.08086
▁movie	-9.08093
▁click	-9.08095
▁Fe	-9.0815
▁general	-9.08207
▁question	-9.08366
▁Cor	-9.08378
▁total	-9.08433
▁feature	-9.08485
▁Ph	-9.0849
▁couple	-9.0871
ai	-9.09046
▁favorite	-9.09223
▁web	-9.09499
▁fall	-9.09548
▁require	-9.09602
▁everyone	-9.09652
▁standard	-9.09699
▁author	-9.09709
▁device	-9.09899
Re	-9.09936
▁Du	-9.09976
▁Mu	-9.1001
▁While	-9.10241
kin	-9.10287
▁history	-9.10357
▁due	-9.10413
ology	-9.10431
▁Of	-9.1055
ja	-9.10576
▁someone	-9.10577
▁cook	-9.10583
▁meeting	-9.10786
▁star	-9.10984
▁answer	-9.10996
rap	-9.11195
atch	-9.11288
▁Ke	-9.11491
ix	-9.11548
▁extra	-9.11574
nce	-9.11606
▁seen	-9.11619
▁mix	-9.11717
▁Don	-9.11728
▁results	-9.11829
▁source	-9.11853
▁effort	-9.1197
ood	-9.12041
▁anything	-9.12213
put	-9.12272
lor	-9.12366
umb	-9.12391
van	-9.1244
ED	-9.12505
▁release	-9.12523
▁according	-9.1267
▁Ru	-9.12759
pl	-9.12766
▁companies	-9.12788
▁na	-9.12982
▁improve	-9.13212
▁matter	-9.13309
▁paper	-9.13325
▁given	-9.13351
▁leg	-9.13547
▁protect	-9.13711
▁increase	-9.13767
▁Ga	-9.13782
▁text	-9.13796
▁Part	-9.13866
▁build	-9.13871
▁challenge	-9.13908
cast	-9.13979
▁http	-9.14019
▁decision	-9.14026
▁pretty	-9.14027
▁stop	-9.14066
▁major	-9.14149
▁role	-9.14198
▁addition	-9.14205
▁perform	-9.14208
▁third	-9.14324
▁hear	-9.14347
▁sell	-9.14394
▁deliver	-9.14507
▁interest	-9.14548
▁among	-9.14551
▁black	-9.14623
▁above	-9.14626
▁designed	-9.14774
▁risk	-9.14867
▁ensure	-9.14987
▁men	-9.15056
wer	-9.15064
▁expect	-9.15067
▁choice	-9.15162
tur	-9.15213
▁natural	-9.15281
IT	-9.15358
▁cap	-9.15444
▁speak	-9.15523
of	-9.15549
▁girl	-9.15585
▁June	-9.15587
▁position	-9.15787
late	-9.15861
▁action	-9.15928
itch	-9.15974
fin	-9.16007
▁points	-9.16025
cc	-9.16202
▁engine	-9.16369
back	-9.16412
▁Art	-9.16625
▁July	-9.16726
▁popular	-9.16739
pping	-9.16838
cal	-9.16846
ify	-9.17039
▁bad	-9.1704
▁Inc	-9.17148
ified	-9.17196
eg	-9.17214
▁His	-9.17272
aging	-9.17423
gin	-9.17474
▁events	-9.17487
▁fill	-9.17593
br	-9.176
▁latest	-9.17603
▁skin	-9.17607
ju	-9.17628
len	-9.17674
▁via	-9.17713
▁others	-9.17729
whi	-9.17774
ature	-9.17775
but	-9.17827
gar	-9.1787
▁Read	-9.17879
This	-9.17897
▁Monday	-9.17918
▁base	-9.17947
▁issues	-9.17961
▁bi	-9.17984
▁management	-9.18519
▁guy	-9.18612
▁function	-9.18656
▁white	-9.18774
▁safe	-9.18845
▁property	-9.19017
▁select	-9.19062
▁Mr	-9.19163
ware	-9.19272
read	-9.19276
ration	-9.19342
over	-9.19351
hop	-9.19373
▁living	-9.194
▁save	-9.19581
▁location	-9.19644
ense	-9.19662
▁claim	-9.19772
off	-9.19908
▁provides	-9.20055
▁Am	-9.20056
▁specific	-9.20141
▁Sunday	-9.20157
room	-9.20226
Q	-9.20271
▁thank	-9.20274
▁amount	-9.20282
▁Ni	-9.20391
▁April	-9.20463
lea	-9.20475
duc	-9.20712
▁energy	-9.20716
▁happy	-9.20716
ST	-9.20722
▁details	-9.20733
▁soon	-9.20872
▁Q	-9.20905
▁Time	-9.20979
▁table	-9.21052
▁held	-9.21063
▁Gi	-9.21116
▁coming	-9.21183
▁entire	-9.21228
▁friend	-9.21231
og	-9.21298
▁From	-9.21359
▁currently	-9.21434
▁send	-9.21473
▁items	-9.2152
▁drive	-9.21531
▁kids	-9.21539
▁software	-9.21615
▁owner	-9.21633
dom	-9.21704
▁age	-9.21801
▁score	-9.21838
▁career	-9.22018
mor	-9.2202
ball	-9.22045
▁forward	-9.22091
bl	-9.22107
▁spend	-9.22214
Z	-9.22258
▁West	-9.22317
▁trans	-9.22397
▁Home	-9.22477
▁bus	-9.2255
▁either	-9.22574
▁document	-9.22574
▁board	-9.22613
▁computer	-9.22641
▁region	-9.22811
▁morning	-9.23094
▁court	-9.23102
▁moment	-9.23159
bra	-9.23243
▁areas	-9.23285
▁whether	-9.23288
▁credit	-9.23355
▁chance	-9.23426
▁taken	-9.23537
▁effect	-9.23537
▁almost	-9.23745
▁nice	-9.23873
▁Free	-9.23917
yn	-9.24192
▁summer	-9.24335
ute	-9.24336
▁vote	-9.24338
▁opportunity	-9.24467
▁seem	-9.24626
▁artist	-9.24657
mal	-9.24658
▁Ver	-9.24662
▁ball	-9.24758
▁further	-9.24797
ville	-9.24809
▁attend	-9.24881
nch	-9.24883
AT	-9.24916
▁trip	-9.25121
▁mini	-9.25143
ope	-9.25347
▁previous	-9.25527
men	-9.25535
▁red	-9.25538
IS	-9.25623
▁running	-9.25741
▁Health	-9.25797
▁rec	-9.25805
▁download	-9.25839
▁House	-9.25895
▁begin	-9.2595
▁period	-9.25995
▁trying	-9.25998
▁quite	-9.26
▁enter	-9.26035
▁includes	-9.26073
part	-9.26095
▁President	-9.26128
▁recently	-9.26237
ency	-9.26254
▁Her	-9.26326
▁door	-9.26364
ification	-9.26369
▁paint	-9.26442
▁Ti	-9.26457
▁connect	-9.26606
round	-9.26663
▁Comp	-9.26687
▁required	-9.26724
▁Ki	-9.26943
LE	-9.26985
▁Fi	-9.27095
▁especially	-9.27138
▁Pi	-9.27208
istic	-9.27255
mic	-9.27323
▁partner	-9.27335
▁various	-9.27477
▁invest	-9.2758
▁treatment	-9.27604
▁players	-9.27605
▁provided	-9.27618
▁else	-9.27716
▁medical	-9.27754
▁plant	-9.27819
▁custom	-9.27964
▁wanted	-9.2798
▁common	-9.28135
CA	-9.28204
▁suggest	-9.28227
▁regular	-9.28227
eek	-9.28347
▁late	-9.28476
pm	-9.28506
▁effective	-9.28582
▁screen	-9.28992
▁mar	-9.29077
▁potential	-9.2912
ica	-9.29151
▁yourself	-9.2919
▁ready	-9.29343
▁needed	-9.29371
▁dog	-9.29395
▁national	-9.29486
▁received	-9.29486
▁users	-9.29502
ana	-9.29567
ina	-9.29594
▁Black	-9.29606
▁PM	-9.29611
▁concern	-9.29675
▁road	-9.29681
▁writing	-9.29744
▁created	-9.29745
▁center	-9.29764
▁throughout	-9.29822
▁em	-9.29846
▁draw	-9.29885
app	-9.29909
fu	-9.29931
pir	-9.29979
▁wear	-9.30108
AS	-9.30247
pon	-9.30329
▁probably	-9.30371
▁Ju	-9.30461
▁Per	-9.3047
▁reading	-9.30477
▁sport	-9.30525
▁App	-9.3059
▁box	-9.30632
bin	-9.30744
▁sun	-9.30823
IC	-9.30855
cept	-9.30877
▁anyone	-9.3095
▁Even	-9.30955
▁vehicle	-9.31002
▁title	-9.31005
▁hot	-9.31174
tern	-9.31179
▁private	-9.31213
▁note	-9.31281
▁suit	-9.31293
▁touch	-9.31396
▁choose	-9.31426
pp	-9.31554
▁fresh	-9.31709
pi	-9.31771
ender	-9.31918
uch	-9.31921
▁asked	-9.31964
▁TV	-9.32038
▁measure	-9.32063
▁land	-9.32087
▁behind	-9.32135
▁cool	-9.32145
▁Act	-9.32154
▁success	-9.322
▁Win	-9.32248
▁approach	-9.32277
▁inside	-9.32347
▁employee	-9.32376
▁Bi	-9.32412
▁message	-9.32421
▁America	-9.32528
▁cup	-9.32552
▁Department	-9.32562
▁ten	-9.32581
ker	-9.32584
▁Get	-9.3265
▁disc	-9.32653
▁kill	-9.32726
▁weeks	-9.32783
ped	-9.32786
like	-9.328
▁park	-9.32854
ional	-9.32868
▁Che	-9.32961
▁fine	-9.32974
▁display	-9.33009
▁Bro	-9.3309
▁student	-9.33143
▁recent	-9.33237
▁financial	-9.33279
▁options	-9.33315
▁Tuesday	-9.33351
▁police	-9.33423
▁grow	-9.33501
af	-9.33537
▁Office	-9.33568
▁etc	-9.33595
▁code	-9.33605
▁Web	-9.33905
▁weekend	-9.33973
▁auto	-9.33998
mate	-9.34001
▁Air	-9.34057
craft	-9.34089
▁tour	-9.3417
▁Wa	-9.34196
▁customer	-9.34197
▁accept	-9.34222
win	-9.34279
▁eat	-9.34284
St	-9.34302
▁flow	-9.34362
▁collection	-9.3439
▁song	-9.34472
▁award	-9.34634
book	-9.34684
▁spa	-9.34692
▁serve	-9.34703
▁outside	-9.34727
▁heat	-9.34812
▁ground	-9.34857
▁install	-9.34906
bit	-9.34988
▁option	-9.35233
▁relationship	-9.35324
RA	-9.35355
▁sea	-9.35399
▁included	-9.35677
▁resident	-9.35756
cha	-9.35924
ax	-9.36036
▁international	-9.36126
▁books	-9.36217
▁schedule	-9.36274
cy	-9.36337
AC	-9.36384
▁reduce	-9.36402
▁environment	-9.36629
ular	-9.36689
ette	-9.3671
▁leader	-9.36752
▁Mon	-9.36793
vin	-9.36855
based	-9.36947
▁launch	-9.3697
▁nothing	-9.36983
chi	-9.36989
▁assist	-9.37008
▁Thursday	-9.37093
▁hair	-9.37188
▁unit	-9.37218
▁finish	-9.37327
iz	-9.37327
pt	-9.37346
▁sales	-9.37445
▁simply	-9.37618
unch	-9.37636
▁request	-9.37694
▁pack	-9.37744
▁race	-9.37756
▁floor	-9.37847
▁spot	-9.37853
▁prevent	-9.37893
▁manage	-9.37902
▁write	-9.38056
▁difficult	-9.3807
▁successful	-9.38151
cle	-9.38221
▁town	-9.38224
▁Add	-9.3826
vol	-9.38295
▁August	-9.38297
▁States	-9.38336
MA	-9.38378
example	-9.38383
▁fr	-9.38515
▁gift	-9.38527
▁pen	-9.38621
ole	-9.38676
board	-9.38704
▁October	-9.38752
ok	-9.38778
▁photograph	-9.38832
▁production	-9.38838
▁true	-9.38877
AL	-9.39042
tan	-9.39069
▁shot	-9.39185
▁wish	-9.39273
▁September	-9.39285
lat	-9.39362
verse	-9.39579
▁firm	-9.39594
▁rule	-9.39634
▁impact	-9.39638
▁Also	-9.39695
▁rep	-9.39721
ization	-9.39773
▁produce	-9.39806
▁Tri	-9.39894
▁user	-9.39943
▁self	-9.40137
igh	-9.40141
▁photo	-9.40158
▁deep	-9.40178
RI	-9.40202
▁Inter	-9.4021
▁bank	-9.4024
uff	-9.40242
car	-9.4029
▁Reg	-9.40309
du	-9.40313
▁problems	-9.40326
▁stock	-9.40386
▁likely	-9.40405
▁worth	-9.40408
▁fight	-9.40458
▁method	-9.40516
▁former	-9.40544
▁wall	-9.40551
exp	-9.40639
night	-9.4068
▁director	-9.40694
▁security	-9.40748
pla	-9.40783
▁however	-9.40788
▁playing	-9.40899
▁knowledge	-9.40903
▁Com	-9.40979
▁Every	-9.41061
▁represent	-9.41115
elect	-9.41179
▁additional	-9.41249
▁First	-9.41372
▁treat	-9.41409
▁longer	-9.4147
▁Work	-9.41537
▁clients	-9.41547
ko	-9.41568
fl	-9.41607
▁party	-9.41702
ung	-9.41743
▁Facebook	-9.41761
▁January	-9.41918
cer	-9.41932
ane	-9.41943
rack	-9.41957
▁collect	-9.42126
▁activities	-9.42232
▁Pat	-9.42241
dic	-9.42304
NE	-9.42356
▁Min	-9.42388
pped	-9.42507
▁Bra	-9.42711
▁Col	-9.42721
▁shop	-9.42865
▁pain	-9.42869
▁force	-9.43048
dia	-9.43057
▁Street	-9.43104
▁isn	-9.43107
CO	-9.43226
▁achieve	-9.4342
▁contract	-9.43421
▁College	-9.435
▁Hu	-9.43529
▁Mc	-9.43552
▁coach	-9.43572
born	-9.4369
tric	-9.43759
rant	-9.43806
▁trade	-9.43855
▁death	-9.43904
cr	-9.44152
▁discuss	-9.44199
▁similar	-9.4422
▁cell	-9.44289
cycle	-9.44345
field	-9.44461
EN	-9.44591
▁regard	-9.44626
▁Use	-9.44652
▁round	-9.44653
▁mark	-9.44693
▁Wednesday	-9.44703
arch	-9.44745
az	-9.4475
za	-9.44777
▁variety	-9.44864
NA	-9.44891
▁built	-9.44945
▁block	-9.45101
▁advance	-9.45107
▁global	-9.45107
▁employ	-9.45237
▁guest	-9.4528
▁UK	-9.45338
▁Australia	-9.45431
ING	-9.4546
▁band	-9.45485
▁located	-9.45594
izing	-9.45787
▁mu	-9.45911
▁words	-9.46108
▁earn	-9.46184
▁photos	-9.46214
▁operation	-9.46248
ov	-9.46425
die	-9.46439
top	-9.46444
name	-9.46454
▁skills	-9.4646
▁rather	-9.46503
▁leading	-9.46577
dr	-9.46598
▁Exp	-9.46789
▁warm	-9.46865
▁Out	-9.46878
▁digital	-9.46988
reg	-9.47032
▁learning	-9.47032
SE	-9.47049
▁expert	-9.47054
▁subject	-9.4707
cel	-9.47081
▁prior	-9.47164
▁amazing	-9.47236
tail	-9.47239
TO	-9.4724
▁discover	-9.47349
iff	-9.47355
▁worked	-9.47433
▁Design	-9.4749
▁word	-9.47532
▁lost	-9.47579
▁Most	-9.47581
▁remember	-9.4765
col	-9.47735
www	-9.47809
▁woman	-9.47818
▁Plan	-9.47845
▁Law	-9.47852
▁changes	-9.47887
$	-9.47926
▁loss	-9.48022
▁International	-9.48066
▁David	-9.48068
▁affect	-9.48068
▁direct	-9.48126
hen	-9.48262
DA	-9.4833
▁Shi	-9.48381
▁fee	-9.48449
▁Va	-9.48481
OS	-9.48554
▁released	-9.48612
roll	-9.4862
▁Bre	-9.48625
▁East	-9.48722
meter	-9.4873
▁providing	-9.48736
nel	-9.48787
▁attack	-9.48825
yard	-9.48829
▁statement	-9.48842
▁certain	-9.4891
▁Ben	-9.48954
▁Lu	-9.48964
▁president	-9.48988
TM	-9.49022
▁dress	-9.49112
▁seems	-9.49146
▁seven	-9.49167
▁Sho	-9.49205
▁explain	-9.49241
▁Click	-9.49328
▁expected	-9.49374
▁purpose	-9.4941
script	-9.49429
▁Tre	-9.49435
▁raise	-9.49436
▁green	-9.495
matic	-9.4956
▁saw	-9.4957
▁involved	-9.4965
pri	-9.49683
▁sent	-9.49689
ya	-9.49719
▁tip	-9.49797
▁Fo	-9.4981
▁shoot	-9.49837
AP	-9.49849
▁myself	-9.49919
▁bat	-9.49945
▁December	-9.50004
▁Group	-9.50004
▁higher	-9.50011
▁Sch	-9.5004
▁maintain	-9.5009
ement	-9.50159
▁February	-9.50174
▁multi	-9.5025
well	-9.50288
▁November	-9.50345
▁decided	-9.50438
LA	-9.50506
duct	-9.50514
US	-9.50617
▁Any	-9.50618
▁section	-9.50618
▁sense	-9.50662
ude	-9.50681
▁Up	-9.5079
▁Bri	-9.50875
ire	-9.50899
▁easily	-9.50944
▁respect	-9.50947
▁growth	-9.50988
▁AM	-9.50996
▁detail	-9.51094
ino	-9.51191
RO	-9.51251
▁situation	-9.51288
▁stage	-9.51354
▁serious	-9.51376
ural	-9.51388
▁establish	-9.51461
▁apply	-9.51497
▁bag	-9.51515
▁Green	-9.51551
▁Play	-9.51563
▁cannot	-9.51572
ib	-9.51579
▁goes	-9.51582
ically	-9.51585
▁remove	-9.51638
▁anti	-9.51734
Ma	-9.51739
▁platform	-9.51893
▁setting	-9.51906
▁hotel	-9.51939
ably	-9.51997
▁parents	-9.52123
▁replace	-9.52173
view	-9.52216
▁reported	-9.52298
▁Mor	-9.52303
▁daily	-9.52328
gue	-9.52359
ford	-9.52399
▁Google	-9.52415
▁roll	-9.52423
▁Over	-9.52474
▁mobile	-9.52502
PS	-9.5269
▁safety	-9.52731
▁significant	-9.52764
▁bill	-9.52792
▁legal	-9.52794
upp	-9.52796
body	-9.52801
▁boy	-9.52804
▁quickly	-9.52817
▁difference	-9.53027
house	-9.53067
▁session	-9.53379
▁usually	-9.53379
olution	-9.53397
▁degree	-9.53466
ties	-9.53497
▁comm	-9.53503
▁figure	-9.53642
▁English	-9.53731
&	-9.53792
▁feeling	-9.53897
▁language	-9.53907
▁tree	-9.53914
wo	-9.53926
▁California	-9.53996
▁damage	-9.53996
▁guide	-9.53998
▁ticket	-9.54085
▁train	-9.5411
rank	-9.5419
SA	-9.54214
down	-9.54253
▁arm	-9.54541
▁cat	-9.54546
▁announced	-9.54604
UR	-9.54778
▁related	-9.54829
He	-9.55045
oke	-9.55218
▁weight	-9.55226
▁tools	-9.55256
teen	-9.55334
▁opt	-9.55443
▁played	-9.55507
je	-9.55621
long	-9.55639
▁notice	-9.5567
▁college	-9.55692
▁lower	-9.55782
ged	-9.55791
▁register	-9.55873
▁Red	-9.55947
▁Director	-9.55963
▁para	-9.56187
▁fix	-9.56243
▁Then	-9.56644
wood	-9.56815
▁double	-9.56963
▁club	-9.56965
where	-9.57056
▁drop	-9.57124
▁published	-9.57144
▁mother	-9.57154
▁Book	-9.57215
town	-9.57296
▁Well	-9.57535
▁normal	-9.57602
▁gain	-9.57616
▁quick	-9.57645
▁huge	-9.57697
▁item	-9.5772
stitution	-9.57877
illa	-9.57885
▁THE	-9.57989
PA	-9.5814
▁gas	-9.58173
▁physical	-9.58246
▁drink	-9.58247
▁restaurant	-9.58338
▁prepare	-9.58474
▁Association	-9.58524
▁White	-9.58617
rick	-9.58644
▁Let	-9.58773
▁interview	-9.58821
▁player	-9.58899
more	-9.58972
Co	-9.59089
▁See	-9.59106
▁Ste	-9.59145
burg	-9.59247
rating	-9.59274
▁pull	-9.59311
▁factor	-9.59333
▁Business	-9.59641
TH	-9.59717
▁wine	-9.59744
▁annual	-9.59837
▁trust	-9.60022
east	-9.6004
not	-9.6007
▁dead	-9.60117
▁marketing	-9.60129
▁Make	-9.60204
▁object	-9.60205
▁giving	-9.60208
▁teacher	-9.60334
▁stuff	-9.60383
source	-9.60503
▁Check	-9.60629
▁package	-9.60665
▁def	-9.60766
lam	-9.60799
▁instead	-9.60867
▁sold	-9.60961
▁window	-9.60962
▁mid	-9.60988
▁eight	-9.6102
▁Port	-9.61049
▁target	-9.61057
▁Texas	-9.61057
▁Program	-9.61072
unk	-9.61086
fra	-9.61131
▁investment	-9.61253
BC	-9.61475
▁policy	-9.61533
▁traditional	-9.61598
▁scene	-9.61635
▁speed	-9.61648
▁written	-9.61724
▁basic	-9.61733
▁letter	-9.61735
▁quarter	-9.6181
point	-9.61814
▁cancer	-9.61819
rum	-9.61866
▁Other	-9.6196
▁Em	-9.62015
▁frame	-9.62027
▁sale	-9.62208
▁prefer	-9.6226
▁agree	-9.62315
ME	-9.62408
▁campaign	-9.62588
▁drug	-9.62687
▁sex	-9.62708
▁began	-9.62717
ett	-9.62722
▁patients	-9.62725
▁Last	-9.62748
▁disease	-9.62782
▁Super	-9.62807
▁Ab	-9.62868
▁demand	-9.62885
▁cross	-9.62893
▁payment	-9.62912
▁dry	-9.6295
▁Great	-9.6298
▁average	-9.62981
▁wrong	-9.63266
pen	-9.63399
▁tea	-9.63515
▁slow	-9.63528
▁foot	-9.63578
▁Ac	-9.63653
▁Star	-9.63773
acy	-9.63786
▁animal	-9.63858
▁highly	-9.63971
profit	-9.64072
▁driver	-9.64189
▁Washington	-9.6434
▁shape	-9.64363
rop	-9.64384
▁soft	-9.64631
▁fish	-9.64633
▁hospital	-9.64635
▁stories	-9.64637
▁gold	-9.64731
▁completely	-9.64756
▁equipment	-9.64832
▁Twitter	-9.64931
▁sweet	-9.64932
▁Michael	-9.6503
▁hour	-9.65394
▁themselves	-9.65426
▁machine	-9.65426
▁except	-9.6547
You	-9.65575
▁interesting	-9.65653
▁Pu	-9.65661
parent	-9.65689
EC	-9.65738
▁Award	-9.65744
▁modern	-9.65839
▁Class	-9.65848
▁interested	-9.65895
ook	-9.65906
▁London	-9.65924
▁correct	-9.66024
graduate	-9.66025
UN	-9.66032
▁multiple	-9.6604
▁Will	-9.66097
▁Best	-9.66099
bri	-9.66145
No	-9.66176
▁attention	-9.66224
tech	-9.66228
▁Each	-9.6629
▁directly	-9.66323
▁determine	-9.66324
▁particular	-9.66394
▁adult	-9.66457
▁billion	-9.66583
▁opportunities	-9.66624
▁fair	-9.66645
▁upon	-9.66687
▁listen	-9.66753
ET	-9.66834
▁wonderful	-9.66842
▁gave	-9.6685
rated	-9.66878
▁itself	-9.66928
CH	-9.66967
▁blood	-9.67028
▁starting	-9.67129
▁limit	-9.67322
▁avoid	-9.67333
▁resources	-9.67437
▁www	-9.67459
▁Sea	-9.67517
▁Hol	-9.67526
▁ob	-9.67534
▁Hi	-9.67568
▁Research	-9.67634
stream	-9.67675
▁manager	-9.6773
CE	-9.67749
stone	-9.67761
▁Tu	-9.67848
NY	-9.67865
▁express	-9.67899
▁describe	-9.67939
key	-9.6799
jo	-9.68135
▁consumer	-9.68143
ez	-9.68305
▁welcome	-9.68348
▁consult	-9.68354
▁encourage	-9.68449
ility	-9.68516
▁farm	-9.68524
▁According	-9.68551
gate	-9.68637
▁dream	-9.68655
▁Road	-9.68714
cap	-9.68731
▁mention	-9.68861
▁push	-9.68866
▁wood	-9.68944
▁commercial	-9.68962
▁strength	-9.68962
▁offering	-9.6897
▁Open	-9.69034
▁exam	-9.69044
▁Obama	-9.69065
cro	-9.69094
▁sit	-9.69145
▁holiday	-9.69168
▁seat	-9.69173
▁planning	-9.69197
▁India	-9.69232
▁businesses	-9.69252
gl	-9.69289
▁implement	-9.69374
▁families	-9.69477
▁Paul	-9.69581
▁dark	-9.69588
▁Cla	-9.69662
TA	-9.69787
▁economic	-9.69892
place	-9.69966
▁advice	-9.69995
▁positive	-9.69996
▁temp	-9.70094
▁Once	-9.7012
▁Year	-9.70154
▁indicat	-9.70162
▁budget	-9.70308
▁conference	-9.70308
▁attempt	-9.70413
▁refer	-9.7044
▁Game	-9.70506
▁active	-9.70593
▁Life	-9.70691
▁nation	-9.70782
▁combine	-9.70833
Ch	-9.70935
▁baby	-9.7094
▁doctor	-9.71041
▁Court	-9.71057
▁countries	-9.71077
▁Lake	-9.71175
▁Why	-9.71264
▁confirm	-9.71355
▁engage	-9.71461
▁creating	-9.71567
▁brought	-9.71672
lum	-9.71689
espite	-9.71714
▁Mac	-9.7174
▁seek	-9.71748
▁limited	-9.71787
▁Since	-9.71801
BA	-9.71875
▁connection	-9.71977
▁Ko	-9.71986
▁Africa	-9.71991
▁Comm	-9.71996
▁Ken	-9.72103
▁pet	-9.72155
▁Fu	-9.72169
▁occur	-9.72203
▁street	-9.72207
▁blue	-9.72211
lon	-9.72369
▁Public	-9.72414
▁spent	-9.72447
▁Christmas	-9.72523
▁response	-9.72627
▁reflect	-9.72627
▁attract	-9.7268
▁depend	-9.72739
▁conduct	-9.72909
▁became	-9.72949
▁healthy	-9.73052
▁excellent	-9.73055
▁Board	-9.73096
▁prop	-9.73159
▁sometimes	-9.73175
▁saying	-9.73267
▁submit	-9.7327
▁Blue	-9.73279
▁loan	-9.73323
▁rock	-9.7339
▁Dur	-9.73395
▁thinking	-9.73511
▁recipe	-9.73593
LO	-9.7361
rib	-9.73797
▁fail	-9.738
▁sleep	-9.73917
To	-9.73944
right	-9.73958
box	-9.74082
▁necessary	-9.74132
▁glass	-9.74133
▁Jan	-9.74156
▁carry	-9.74159
▁Many	-9.74267
EL	-9.74281
:||	-9.74286
▁Apple	-9.74295
▁wonder	-9.74536
▁camera	-9.74779
▁broke	-9.74854
▁button	-9.74918
▁miles	-9.74989
▁Gen	-9.74994
▁German	-9.75005
gle	-9.75126
▁Indian	-9.75221
▁reveal	-9.75228
stat	-9.7529
▁handle	-9.75359
rupt	-9.75523
–	-9.75706
▁culture	-9.75991
▁progress	-9.761
▁Today	-9.76169
▁element	-9.7622
▁Chi	-9.76265
▁China	-9.76294
▁spoke	-9.76363
list	-9.76405
▁Good	-9.76432
▁Have	-9.76502
▁delivery	-9.76536
▁Learn	-9.76558
MS	-9.76638
▁expand	-9.76656
erson	-9.76709
▁developed	-9.7676
▁complex	-9.76766
▁church	-9.76766
▁felt	-9.76773
▁Bur	-9.76776
▁River	-9.76808
▁honor	-9.76882
▁garden	-9.76989
can	-9.77014
mination	-9.77134
style	-9.77138
▁construction	-9.77369
▁beginning	-9.77376
▁Council	-9.77434
▁mode	-9.7746
▁growing	-9.77509
▁finished	-9.77536
▁pair	-9.77537
▁kitchen	-9.77658
DI	-9.77692
▁colour	-9.77773
▁feet	-9.77803
▁wrote	-9.77883
▁Canada	-9.77884
▁nearly	-9.77903
▁Top	-9.77917
friendly	-9.77922
▁Mark	-9.77958
▁voice	-9.78
▁heard	-9.78109
▁Team	-9.78188
atory	-9.7819
▁surface	-9.78221
▁stick	-9.7827
q	-9.78338
▁political	-9.78447
▁Hill	-9.78599
▁Review	-9.78655
▁album	-9.78674
▁weather	-9.78788
!!	-9.78799
▁straight	-9.789
avi	-9.78935
▁ski	-9.79029
▁About	-9.79049
▁pattern	-9.79241
▁daughter	-9.79355
▁gene	-9.79424
▁Windows	-9.79469
▁respond	-9.79469
arian	-9.79513
▁Gar	-9.79538
▁senior	-9.79584
▁Science	-9.79584
▁wedding	-9.7959
▁winner	-9.79612
head	-9.79633
▁station	-9.79671
▁finally	-9.79806
▁Market	-9.79822
▁ride	-9.79986
▁provider	-9.80108
▁advantage	-9.80157
▁secure	-9.80159
ulation	-9.80204
hood	-9.80328
▁wife	-9.8039
MP	-9.80416
▁taste	-9.80478
ttle	-9.805
▁System	-9.80618
▁cream	-9.80624
IL	-9.80629
▁Show	-9.80674
▁repair	-9.80753
▁Power	-9.80787
lash	-9.80796
▁science	-9.8085
▁Who	-9.80916
▁trail	-9.81023
urge	-9.81052
▁throw	-9.81219
▁Product	-9.81233
▁European	-9.81307
▁fat	-9.81363
play	-9.81441
▁selection	-9.81474
▁Christ	-9.81538
▁insurance	-9.81547
▁James	-9.81556
▁knew	-9.81663
▁south	-9.81731
▁separate	-9.81897
▁map	-9.81931
▁tried	-9.82243
▁Char	-9.82381
▁exhibit	-9.82484
▁task	-9.82486
▁paid	-9.82504
▁essential	-9.82602
▁William	-9.82602
ancing	-9.82826
▁Music	-9.82832
▁electric	-9.82839
▁maybe	-9.82943
▁spirit	-9.82957
▁requirements	-9.83115
bro	-9.83276
ux	-9.83372
▁client	-9.83404
AM	-9.83419
▁Hall	-9.83438
▁Club	-9.83673
▁recover	-9.83688
Mo	-9.83724
▁Find	-9.83793
▁Step	-9.84157
▁father	-9.84163
▁Care	-9.84206
▁retail	-9.84213
▁cold	-9.84213
▁tend	-9.84257
▁federal	-9.84266
▁path	-9.84269
▁immediately	-9.84272
▁pop	-9.84282
▁Rock	-9.84294
▁grant	-9.84344
▁Wal	-9.84387
oph	-9.84491
▁mod	-9.84503
▁technique	-9.84506
▁moving	-9.84526
ological	-9.8457
▁thousand	-9.84626
▁fabric	-9.84626
▁ahead	-9.84644
lb	-9.8478
fri	-9.84794
▁Take	-9.8484
wan	-9.84914
bound	-9.84952
▁enable	-9.85227
▁definitely	-9.85229
grad	-9.85368
▁Love	-9.85401
▁classic	-9.85441
TE	-9.85482
▁Real	-9.85628
▁turned	-9.85702
▁communication	-9.85836
▁activity	-9.85849
free	-9.85914
▁served	-9.8594
▁spring	-9.85968
▁department	-9.8608
▁surprise	-9.8608
▁balance	-9.86082
▁guarantee	-9.86201
▁structure	-9.86201
▁arrive	-9.86205
▁Two	-9.86212
▁transfer	-9.86225
▁bottom	-9.86324
▁creative	-9.86325
▁north	-9.86385
▁Bill	-9.86387
▁reserve	-9.8646
▁Dan	-9.86487
▁sort	-9.86508
▁exactly	-9.86569
▁largest	-9.86665
▁Community	-9.86691
▁extend	-9.86695
▁Yes	-9.86695
▁Spring	-9.86796
▁introduce	-9.86938
▁writer	-9.86961
▁overall	-9.86981
▁Water	-9.87007
▁Nor	-9.87032
▁competition	-9.8706
▁Gold	-9.87138
▁earlier	-9.87184
▁nature	-9.87374
▁Police	-9.87432
appropriate	-9.87555
▁storage	-9.87557
▁shipping	-9.87679
▁plus	-9.87679
▁background	-9.87716
HO	-9.87798
▁offered	-9.8784
last	-9.8792
phone	-9.8792
▁Florida	-9.87927
▁cash	-9.88147
▁explore	-9.88176
▁sugar	-9.88179
▁Internet	-9.88197
▁named	-9.88222
▁towards	-9.88317
nish	-9.88339
▁exercise	-9.88425
▁inspire	-9.885
▁Bank	-9.88574
▁Student	-9.88675
▁Sam	-9.88844
If	-9.88884
▁Dec	-9.88887
▁adjust	-9.88926
▁Education	-9.88926
▁estate	-9.88958
▁husband	-9.89052
▁Media	-9.89082
uk	-9.89118
▁Robert	-9.89219
▁Big	-9.89295
▁General	-9.89309
cover	-9.89431
▁format	-9.89457
bar	-9.89465
MO	-9.89513
▁Mill	-9.89543
▁occasion	-9.89556
▁smooth	-9.89556
▁People	-9.89556
▁pressure	-9.89686
▁Company	-9.89937
▁Right	-9.89983
▁Management	-9.90063
▁desire	-9.90219
▁temperature	-9.90317
▁threat	-9.90318
▁Fri	-9.90331
▁stress	-9.90423
▁easier	-9.90444
▁license	-9.90448
▁USA	-9.9048
▁Christian	-9.90613
▁Sun	-9.90624
CC	-9.90735
▁concept	-9.90793
Edit	-9.90838
bert	-9.90932
▁suffer	-9.90957
▁micro	-9.91063
▁Note	-9.91125
▁Men	-9.91135
UT	-9.91405
▁Custom	-9.91469
▁traffic	-9.91469
▁length	-9.91469
▁driving	-9.9147
cultural	-9.91472
▁officer	-9.91734
▁Project	-9.91857
▁Call	-9.91924
TS	-9.92019
▁Camp	-9.92133
▁Church	-9.92245
▁Bay	-9.92349
ivity	-9.9241
▁direction	-9.92468
▁fashion	-9.92505
LI	-9.92515
bird	-9.92524
wel	-9.92727
▁Contact	-9.92897
▁heavy	-9.92898
▁Europe	-9.92904
▁Under	-9.92995
▁jump	-9.93031
▁Island	-9.93042
▁completed	-9.93118
▁prove	-9.93147
▁Brown	-9.93298
▁Phil	-9.93358
maker	-9.93396
▁transport	-9.93484
▁Information	-9.93552
▁middle	-9.93576
▁comfort	-9.93596
aries	-9.93624
▁Qui	-9.93683
▁audience	-9.93815
▁monitor	-9.93815
▁highlight	-9.94035
▁journey	-9.94211
▁British	-9.94211
▁master	-9.94322
▁Smith	-9.94346
▁promote	-9.94351
▁Back	-9.94439
ike	-9.94467
▁responsible	-9.94609
▁beyond	-9.94609
▁internet	-9.94659
▁winter	-9.94661
under	-9.94693
▁excited	-9.94742
▁Week	-9.94748
▁Card	-9.94795
▁Special	-9.94875
▁highest	-9.95046
how	-9.95061
▁camp	-9.95115
▁solid	-9.95165
▁Ya	-9.95247
▁coffee	-9.95409
▁gun	-9.95693
▁tap	-9.95719
▁emotion	-9.95814
▁Institute	-9.95947
▁Although	-9.95947
▁Tom	-9.95966
▁server	-9.95999
▁Like	-9.96023
▁celebrate	-9.96081
▁recognize	-9.96081
▁afford	-9.96084
▁truly	-9.96084
▁edge	-9.96089
▁component	-9.96217
▁decade	-9.96218
▁catch	-9.96323
▁particularly	-9.96392
▁patient	-9.96566
▁hundred	-9.96622
▁discussion	-9.96664
HA	-9.96699
▁candidate	-9.96758
▁chair	-9.96845
ison	-9.96853
▁trend	-9.96892
!!!	-9.96989
▁supply	-9.97031
▁brother	-9.97031
▁fruit	-9.97038
▁increased	-9.97354
▁Date	-9.97482
▁Because	-9.97576
▁enhance	-9.97576
▁copy	-9.97717
▁gone	-9.97775
▁lack	-9.97798
▁technical	-9.9785
▁passion	-9.97871
▁critical	-9.97887
Con	-9.9791
scale	-9.97945
▁Vo	-9.97962
▁profile	-9.9799
▁Den	-9.97992
▁Mont	-9.98068
vic	-9.98136
▁salt	-9.98143
▁himself	-9.98263
▁existing	-9.98344
▁District	-9.98401
▁shopping	-9.98403
▁dollar	-9.98404
▁pool	-9.98429
▁comfortable	-9.98492
▁decor	-9.98496
▁Follow	-9.98539
▁talent	-9.98688
▁dance	-9.98777
▁grand	-9.98904
▁Report	-9.98906
vy	-9.98913
uzz	-9.99003
cum	-9.99075
▁analysis	-9.99093
▁announce	-9.99115
▁exist	-9.99149
itive	-9.99224
▁estimate	-9.99233
▁feed	-9.99286
▁PC	-9.99312
▁Press	-9.99316
▁butter	-9.99329
▁flat	-9.9933
▁Light	-9.99393
▁beach	-9.99406
▁Cap	-9.99464
▁powerful	-9.9957
What	-9.99677
▁movement	-9.99695
▁egg	-9.99727
▁military	-9.99791
▁dinner	-9.99792
ibility	-9.99801
▁Wood	-9.99814
▁proud	-9.99851
▁sustain	-9.99931
▁panel	-9.99939
▁Join	-10.0001
ought	-10.0025
▁edit	-10.0027
▁opinion	-10.0035
▁realize	-10.0039
▁independent	-10.0043
▁battle	-10.005
HI	-10.0054
▁truck	-10.0057
▁trial	-10.0067
▁protection	-10.0082
mouth	-10.0095
▁Pan	-10.0101
cut	-10.0113
▁whose	-10.0128
▁sector	-10.0134
SC	-10.0146
▁teaching	-10.0149
position	-10.015
TION	-10.015
▁couldn	-10.0152
▁George	-10.0163
▁obtain	-10.0177
▁Scott	-10.0191
▁spread	-10.0197
PR	-10.0199
▁bright	-10.0203
▁historic	-10.0211
DC	-10.0218
OL	-10.0224
▁extremely	-10.0233
▁Tour	-10.0236
shirt	-10.0238
▁Fire	-10.0239
love	-10.0245
▁participate	-10.0249
▁League	-10.0249
▁Valley	-10.0249
▁French	-10.0249
▁initial	-10.025
▁fear	-10.0258
▁Food	-10.0268
▁guess	-10.0279
▁poll	-10.0292
▁corner	-10.0293
▁Commission	-10.0295
berg	-10.0301
▁Foundation	-10.0306
life	-10.0335
▁increasing	-10.0335
▁Russia	-10.0339
▁secret	-10.035
▁ideal	-10.035
ken	-10.0363
▁volunteer	-10.0364
▁biggest	-10.0364
▁snow	-10.0365
▁route	-10.0366
▁menu	-10.0378
▁although	-10.0379
▁outdoor	-10.0379
fil	-10.0384
▁metal	-10.0385
▁arrest	-10.0394
suit	-10.0396
▁boot	-10.0396
▁breath	-10.0408
▁peace	-10.0409
SU	-10.0414
word	-10.0416
Whether	-10.0423
▁agent	-10.0438
▁generation	-10.0453
▁Vol	-10.0459
graph	-10.0462
ique	-10.0465
▁dedicated	-10.0467
▁invite	-10.0481
▁conversation	-10.0481
▁demonstrat	-10.0496
▁Peter	-10.0497
▁exchange	-10.054
empt	-10.0542
▁alone	-10.0551
EM	-10.0558
ridge	-10.0568
▁kick	-10.0573
▁capture	-10.0576
▁victim	-10.0585
▁survey	-10.0585
minate	-10.0604
defin	-10.0612
▁magazine	-10.0615
migr	-10.0623
ella	-10.0629
▁journal	-10.063
▁basis	-10.063
▁population	-10.063
gram	-10.0635
▁Development	-10.0645
▁communities	-10.0645
stand	-10.0652
NC	-10.0659
nova	-10.0659
▁flight	-10.0663
▁wire	-10.0669
SO	-10.0669
▁operate	-10.0677
▁aspect	-10.0678
▁luck	-10.0678
▁pitch	-10.0681
▁income	-10.0684
▁Mag	-10.0684
▁Steve	-10.0688
▁wild	-10.0691
▁Data	-10.0696
▁Chicago	-10.0705
▁Member	-10.0705
▁error	-10.0705
▁motor	-10.0709
road	-10.0717
▁brain	-10.0736
▁influence	-10.075
▁kid	-10.0751
▁Sale	-10.0756
▁election	-10.0767
mount	-10.0769
OW	-10.0786
▁poor	-10.0788
▁novel	-10.0805
▁desk	-10.0806
▁chocolate	-10.081
▁football	-10.0812
▁tie	-10.0819
▁certainly	-10.0825
▁appreciate	-10.0826
force	-10.0829
▁combination	-10.0841
▁typical	-10.0841
▁Online	-10.0854
▁clinic	-10.0858
▁Sign	-10.086
▁minute	-10.0863
▁compared	-10.0872
bridge	-10.0877
ENT	-10.088
▁label	-10.0887
▁OF	-10.0889
▁mental	-10.0907
▁Price	-10.0909
▁Live	-10.091
▁plastic	-10.0918
▁beauty	-10.0918
▁relax	-10.0918
▁editor	-10.0918
▁Town	-10.0933
▁Society	-10.0933
▁awesome	-10.0933
▁Family	-10.0933
▁dish	-10.0933
▁serving	-10.0944
▁Full	-10.0948
▁England	-10.0964
▁capital	-10.0964
▁defense	-10.0965
▁associated	-10.0972
▁Grand	-10.0977
▁manufacturer	-10.0986
▁facility	-10.101
▁Long	-10.1022
▁gather	-10.1026
▁bowl	-10.1026
▁Final	-10.1036
▁Chinese	-10.1041
▁electronic	-10.1057
▁Nov	-10.1061
▁rise	-10.1071
▁Central	-10.1072
▁Start	-10.1078
▁Matt	-10.1079
▁bought	-10.1084
▁architect	-10.1088
▁procedure	-10.1088
ancy	-10.1091
▁environmental	-10.1107
▁Beach	-10.1111
▁Union	-10.1112
▁iPhone	-10.1119
▁entry	-10.1123
▁Look	-10.1124
▁produced	-10.1131
RT	-10.1131
▁switch	-10.1135
▁classes	-10.1141
▁Auto	-10.1145
▁episode	-10.1151
▁evidence	-10.1151
▁Qua	-10.1151
▁quote	-10.1151
▁fuel	-10.1152
▁burn	-10.1156
▁famous	-10.1167
▁plenty	-10.1182
▁remind	-10.1185
▁sister	-10.1185
▁skill	-10.1188
FA	-10.1204
▁studies	-10.1246
▁Network	-10.1246
▁equal	-10.1246
▁admit	-10.1246
▁kept	-10.1246
▁Visit	-10.1249
▁crowd	-10.1262
▁promise	-10.1262
▁organize	-10.1263
▁bike	-10.1275
▁Congress	-10.1277
▁Another	-10.1278
▁plate	-10.1281
▁champion	-10.1293
▁Jim	-10.1301
izz	-10.1324
▁trouble	-10.1325
▁medium	-10.1326
▁Support	-10.1358
▁missing	-10.1359
print	-10.1359
▁Champion	-10.1374
▁transform	-10.1378
▁Download	-10.139
▁lose	-10.139
look	-10.1392
▁executive	-10.1406
▁Drive	-10.1411
▁lesson	-10.143
▁faith	-10.1438
▁broad	-10.1447
▁List	-10.1451
▁layer	-10.1456
ddle	-10.1457
▁grade	-10.147
▁alternative	-10.1471
▁Hotel	-10.1471
▁audio	-10.148
▁investigation	-10.1487
▁Way	-10.1496
▁economy	-10.1503
▁reference	-10.1508
▁exciting	-10.1519
▁dig	-10.1542
▁drama	-10.1544
NS	-10.156
▁icon	-10.1565
▁wheel	-10.1569
▁useful	-10.157
▁tough	-10.1572
▁nine	-10.1585
▁judge	-10.1601
▁fourth	-10.1605
wide	-10.1609
ounce	-10.1614
▁decide	-10.1617
▁tele	-10.1626
▁appearance	-10.1631
▁constant	-10.1634
▁Land	-10.1647
▁larger	-10.1651
▁hang	-10.1662
OP	-10.1668
▁Video	-10.1675
▁contribute	-10.1684
▁leaving	-10.1684
▁agency	-10.1685
▁Place	-10.1685
▁Chris	-10.1699
▁adapt	-10.1701
▁sharing	-10.1702
▁boat	-10.1708
▁identify	-10.1717
▁relative	-10.1717
▁Louis	-10.1718
▁Dev	-10.1724
▁dating	-10.1725
▁central	-10.1734
▁memory	-10.1734
▁Frank	-10.1758
▁centre	-10.1761
▁facilities	-10.1767
▁Women	-10.1801
▁cheap	-10.1802
▁lunch	-10.1802
▁changing	-10.1818
▁exclusive	-10.1835
▁afternoon	-10.1835
▁surgery	-10.1835
shire	-10.1839
▁radio	-10.1843
▁library	-10.1868
▁injury	-10.1868
astname	-10.1882
▁arrange	-10.1885
▁agreement	-10.1892
▁Martin	-10.1894
▁attach	-10.1904
▁shall	-10.1915
NO	-10.1917
▁accident	-10.1953
▁saving	-10.1955
▁generate	-10.1962
▁slightly	-10.197
water	-10.1972
▁harm	-10.1974
▁improvement	-10.1984
▁perhaps	-10.1987
▁strategy	-10.1987
▁sample	-10.1988
▁Coll	-10.199
▁shut	-10.1997
▁Wall	-10.1999
▁smart	-10.2004
▁visual	-10.2005
▁Where	-10.2005
▁channel	-10.2022
▁Conference	-10.2039
▁status	-10.2039
▁Mike	-10.2049
▁attorney	-10.2056
▁chat	-10.2059
▁spin	-10.2064
azz	-10.2073
▁Amazon	-10.2073
▁academic	-10.2073
▁Social	-10.2073
▁discount	-10.2076
▁sexual	-10.2078
▁yesterday	-10.2091
▁commitment	-10.2091
▁operating	-10.2091
▁whatever	-10.2108
▁Jesus	-10.2109
▁tag	-10.2116
▁corporate	-10.2125
▁appeal	-10.2126
▁helpful	-10.2142
▁cloud	-10.2143
▁civil	-10.2143
▁obvious	-10.216
▁Master	-10.2182
▁settle	-10.2187
▁Technology	-10.2195
▁assistance	-10.2205
▁district	-10.2212
▁ultimate	-10.223
▁Hand	-10.223
▁NOT	-10.2238
▁essay	-10.2248
BO	-10.2264
▁worry	-10.2265
▁France	-10.2265
▁involve	-10.2268
▁putting	-10.2273
▁Human	-10.2276
▁behavior	-10.2282
▁presentation	-10.2287
▁Before	-10.23
▁becoming	-10.2306
New	-10.2317
▁apartment	-10.2318
Adv	-10.233
▁Jack	-10.2343
▁Copyright	-10.2353
▁bottle	-10.2356
▁Alex	-10.236
▁campus	-10.2366
▁cake	-10.2369
▁graphic	-10.2376
▁Jeff	-10.2381
▁Republican	-10.2389
▁YOU	-10.2391
▁consist	-10.2403
▁semi	-10.2408
▁female	-10.2424
▁primary	-10.2424
▁Keep	-10.2431
▁properties	-10.2442
▁rare	-10.2454
▁flavor	-10.246
▁Plus	-10.2465
ground	-10.2473
▁Watch	-10.2482
▁revenue	-10.2496
▁cheese	-10.2496
▁reality	-10.2511
▁committed	-10.2514
▁adopt	-10.2515
PE	-10.2518
▁command	-10.2523
▁bull	-10.2531
▁kit	-10.2533
▁Guide	-10.2542
▁scar	-10.2542
▁detect	-10.2561
▁installation	-10.2581
▁accurate	-10.2587
▁studio	-10.2587
▁Manager	-10.2587
▁blend	-10.259
▁virtual	-10.2605
▁volume	-10.2605
▁teach	-10.2607
▁Series	-10.2618
▁leadership	-10.2631
berry	-10.2633
▁citizen	-10.2641
▁square	-10.2641
▁actual	-10.2655
▁fellow	-10.266
▁mountain	-10.266
▁Medical	-10.266
▁CEO	-10.2697
▁diet	-10.2707
▁Microsoft	-10.2715
▁minor	-10.2723
EX	-10.273
▁numerous	-10.2733
▁visitors	-10.2733
▁strike	-10.2735
▁neck	-10.2736
▁Opera	-10.2736
▁anywhere	-10.2747
▁brown	-10.2752
▁Jul	-10.2766
▁century	-10.277
▁Next	-10.277
▁creation	-10.2772
▁coverage	-10.278
▁absolutely	-10.28
▁tight	-10.2806
▁scan	-10.2808
▁workshop	-10.2808
▁Lord	-10.281
▁bio	-10.2811
therapy	-10.2812
▁contest	-10.2826
▁Security	-10.2844
▁Western	-10.2846
ALL	-10.286
Welcome	-10.2863
▁extensive	-10.2882
▁hunt	-10.2882
▁Android	-10.29
▁doubt	-10.2901
▁upcoming	-10.2902
▁Israel	-10.2919
▁upgrade	-10.2924
▁Angeles	-10.2938
▁Cook	-10.2947
▁Feb	-10.2958
▁programme	-10.2968
▁Old	-10.299
▁pocket	-10.2995
ji	-10.3037
▁instrument	-10.3051
▁basket	-10.3051
▁pump	-10.3052
▁steel	-10.3053
▁tire	-10.3053
▁finger	-10.3056
EST	-10.3063
▁stretch	-10.307
▁Library	-10.309
▁protein	-10.3109
UC	-10.3116
▁Japan	-10.3128
▁crime	-10.3129
▁Centre	-10.3148
▁chain	-10.3151
▁expertise	-10.3151
▁commission	-10.3167
claim	-10.3168
▁Colorado	-10.3185
▁pepper	-10.3186
front	-10.319
▁league	-10.3205
▁maintenance	-10.3224
▁browser	-10.3224
known	-10.3226
▁initiative	-10.3244
▁society	-10.3244
▁Children	-10.3263
▁frequent	-10.3263
▁Museum	-10.3263
▁earth	-10.3267
▁marriage	-10.3282
▁Invest	-10.3283
▁defend	-10.3295
▁integrate	-10.3302
▁Image	-10.3306
“	-10.3306
▁Know	-10.3311
▁Digital	-10.3321
▁Hospital	-10.3321
▁Access	-10.3321
▁Type	-10.3323
▁Comment	-10.3333
▁wrap	-10.3351
▁milk	-10.3352
▁database	-10.3361
▁Boston	-10.3363
wise	-10.3365
▁Chief	-10.3402
▁Help	-10.3402
OK	-10.3409
▁Fair	-10.3416
▁Government	-10.342
▁approved	-10.342
▁Federal	-10.342
▁shift	-10.342
▁Johnson	-10.3436
▁innovative	-10.3439
▁edition	-10.3456
▁restrict	-10.3463
▁Connect	-10.3464
▁chip	-10.3485
▁adventure	-10.3499
▁participant	-10.3499
▁advise	-10.3505
▁Search	-10.3505
▁truth	-10.3519
proof	-10.3523
ographic	-10.3525
virus	-10.3536
▁Committee	-10.3539
▁competitive	-10.3539
▁victory	-10.3539
▁Thomas	-10.3539
▁Wild	-10.355
▁Room	-10.3552
▁laugh	-10.3561
▁joy	-10.3562
▁chart	-10.3563
▁Journal	-10.3579
▁approximately	-10.3579
▁Through	-10.3579
▁cities	-10.3579
▁administration	-10.3599
▁familiar	-10.3599
▁convert	-10.3601
When	-10.3605
▁sauce	-10.3619
▁prize	-10.3621
▁Oct	-10.3621
bilities	-10.3623
▁plug	-10.3623
▁wave	-10.3653
▁abuse	-10.3654
▁Additional	-10.366
▁honest	-10.366
▁properly	-10.366
▁root	-10.3664
▁Ohio	-10.368
▁Link	-10.3691
▁intended	-10.37
▁Earth	-10.3701
▁foreign	-10.3701
▁thick	-10.3706
weight	-10.3716
▁muscle	-10.372
▁Walk	-10.3726
▁Control	-10.3741
▁Global	-10.3761
▁advertising	-10.3761
▁Trump	-10.3761
▁bedroom	-10.3762
▁Middle	-10.3764
▁consistent	-10.377
▁Carolina	-10.3781
▁Secret	-10.3802
▁description	-10.3802
▁chief	-10.3802
▁expensive	-10.3823
▁medicine	-10.3823
▁Record	-10.3823
▁horse	-10.3823
▁resolution	-10.3824
▁sitting	-10.3852
▁Richard	-10.3864
▁delicious	-10.3864
▁Standard	-10.3864
▁suspect	-10.3884
▁committee	-10.3884
▁relevant	-10.3884
▁thread	-10.3886
▁Jackson	-10.3889
▁Luc	-10.3895
▁zone	-10.3908
▁Young	-10.3917
▁gear	-10.3921
▁McC	-10.3926
▁Academy	-10.3926
▁imagine	-10.3947
▁lawyer	-10.395
▁Update	-10.395
ATE	-10.3952
▁practical	-10.3967
▁capacity	-10.3967
▁chicken	-10.3967
▁regulation	-10.3968
▁presence	-10.3969
▁struggle	-10.3988
▁tournament	-10.3988
▁prison	-10.3989
▁entertainment	-10.3994
▁Festival	-10.403
▁accomplish	-10.403
▁responsibility	-10.403
▁breast	-10.403
▁brief	-10.403
▁repeat	-10.4036
▁mistake	-10.4051
▁logo	-10.4059
▁partnership	-10.4062
▁technologies	-10.4072
▁eventually	-10.4072
▁therefore	-10.4072
▁distance	-10.4073
Current	-10.4093
▁interior	-10.4094
▁television	-10.4095
▁coast	-10.4119
▁acid	-10.4122
▁policies	-10.4136
▁village	-10.4136
▁labor	-10.4136
▁caught	-10.4137
▁Opt	-10.415
▁hire	-10.4153
holder	-10.4154
▁appointment	-10.4157
▁predict	-10.4159
▁magic	-10.4164
▁Brand	-10.417
you	-10.4172
related	-10.4174
count	-10.4188
▁majority	-10.4198
▁internal	-10.4204
break	-10.4216
▁university	-10.4221
▁strip	-10.4222
▁fantastic	-10.4242
▁feedback	-10.4244
▁Maybe	-10.4252
▁negative	-10.4264
▁category	-10.4285
▁inspiration	-10.4285
▁Daniel	-10.4285
▁species	-10.4286
▁birthday	-10.4309
▁Virginia	-10.435
▁incident	-10.435
▁brush	-10.435
▁debt	-10.4355
▁crash	-10.4365
▁Travel	-10.4379
▁Santa	-10.4391
▁minimum	-10.4394
▁housing	-10.4394
▁quiet	-10.4395
▁Word	-10.4397
▁emergency	-10.4437
▁innovation	-10.4437
▁instant	-10.444
▁failure	-10.4445
▁confidence	-10.4459
▁Jones	-10.4463
ography	-10.448
▁contribution	-10.4481
▁ourselves	-10.4481
▁Japanese	-10.4481
▁birth	-10.4502
▁Mountain	-10.4503
▁concert	-10.4503
▁accus	-10.4504
▁experiment	-10.4525
▁festival	-10.4525
▁bonus	-10.4526
▁importance	-10.4528
▁Engineer	-10.4569
▁Georgia	-10.4569
▁confident	-10.4569
▁battery	-10.4569
▁filter	-10.457
▁sentence	-10.4577
▁chapter	-10.4591
▁FREE	-10.4592
▁guard	-10.4592
▁otherwise	-10.4601
▁murder	-10.4614
▁chemical	-10.4614
▁proposal	-10.4614
ologist	-10.4645
nnie	-10.4646
▁comprehensive	-10.4658
▁transaction	-10.4658
▁boost	-10.466
quality	-10.4671
▁climate	-10.4703
▁DVD	-10.4703
▁tank	-10.4705
▁twice	-10.4725
▁Canadian	-10.4748
▁worldwide	-10.4753
▁bigger	-10.4763
▁remote	-10.4771
▁prospect	-10.4771
▁weapon	-10.4771
▁Little	-10.4775
▁Hunt	-10.4791
▁married	-10.4793
▁tradition	-10.48
▁broadcast	-10.4817
▁valid	-10.4817
▁domestic	-10.4839
▁draft	-10.4839
▁hurt	-10.4839
▁proceed	-10.4839
▁Executive	-10.4861
▁featuring	-10.4861
▁perspective	-10.4861
▁habit	-10.4862
▁planned	-10.4864
▁Paris	-10.4876
▁interface	-10.4884
▁powder	-10.4884
▁proposed	-10.4884
▁Associate	-10.4907
▁Energy	-10.4907
▁registration	-10.4907
▁representative	-10.4913
▁automatically	-10.493
▁solve	-10.4947
▁criminal	-10.4953
▁favourite	-10.4976
▁vegetable	-10.4976
▁neighborhood	-10.4977
▁Farm	-10.4982
▁Division	-10.4985
▁compete	-10.5029
▁possess	-10.5045
▁possibly	-10.5045
▁shock	-10.5056
▁council	-10.5069
▁agencies	-10.5069
▁recruit	-10.5092
▁Garden	-10.5096
▁Korea	-10.5109
▁neighbor	-10.5115
▁Origin	-10.5115
▁alter	-10.5116
▁tune	-10.5117
▁Local	-10.5149
▁industrial	-10.5162
▁speech	-10.5162
▁instance	-10.5165
▁rapid	-10.5211
▁subscribe	-10.5233
▁smile	-10.5259
▁Audi	-10.5259
▁Reserve	-10.5279
▁maximum	-10.528
▁chosen	-10.5281
▁password	-10.5283
▁breakfast	-10.5328
▁premium	-10.5328
▁climb	-10.5328
▁Second	-10.5328
▁Credit	-10.5329
▁Coast	-10.533
assi	-10.5343
▁critic	-10.5346
▁specifically	-10.5361
▁hook	-10.5362
▁Print	-10.5365
▁promotion	-10.54
▁premier	-10.54
▁destination	-10.5424
▁distribution	-10.5424
▁Minister	-10.5424
▁Clean	-10.5426
scope	-10.5429
▁dynamic	-10.5448
▁symptoms	-10.5448
▁landscape	-10.5448
▁Italian	-10.5449
▁worse	-10.5451
▁bathroom	-10.5473
▁manufacturing	-10.5473
▁Francisco	-10.5497
▁disappoint	-10.5497
▁faculty	-10.5497
▁casino	-10.5497
▁reliable	-10.5497
▁authorities	-10.5504
▁alcohol	-10.5521
▁History	-10.5521
▁Three	-10.5522
▁hardware	-10.5529
▁collaboration	-10.5546
▁Instead	-10.5546
▁applied	-10.5546
▁Cross	-10.5547
▁deposit	-10.5561
▁routine	-10.557
▁Studio	-10.557
▁transition	-10.5575
▁Mexico	-10.5594
▁Pacific	-10.5594
▁border	-10.5595
▁govern	-10.5612
▁Michigan	-10.5619
▁Trust	-10.5619
▁formula	-10.5641
▁impressive	-10.5644
▁decline	-10.5644
▁venue	-10.5644
▁Protect	-10.5654
▁Question	-10.5693
▁strategies	-10.5693
▁tomorrow	-10.5693
▁Charles	-10.57
▁Enjoy	-10.5718
▁expense	-10.5743
▁oven	-10.5749
▁healthcare	-10.5768
▁silver	-10.5768
▁guitar	-10.5793
▁stopped	-10.5797
▁pipe	-10.5805
▁furniture	-10.5818
▁approval	-10.5818
▁distinct	-10.5818
▁leather	-10.5818
▁incredible	-10.5843
▁infrastructure	-10.5843
▁medication	-10.5843
▁Ryan	-10.5844
▁newspaper	-10.5868
▁vacation	-10.5868
▁permit	-10.5894
▁native	-10.5902
▁alleged	-10.5919
▁Turn	-10.5935
▁scheme	-10.597
▁identified	-10.5995
athlete	-10.5996
worth	-10.6007
▁favor	-10.6018
▁psycho	-10.6023
western	-10.603
▁principle	-10.6046
▁injuries	-10.6046
▁violat	-10.6049
▁Environment	-10.6072
▁violence	-10.6072
▁Harris	-10.6083
▁Create	-10.6094
▁receiving	-10.6098
▁supplies	-10.6098
▁Queen	-10.6098
▁survive	-10.6098
▁awareness	-10.6098
▁juice	-10.6098
▁organisation	-10.6124
▁Senior	-10.6124
▁crazy	-10.615
▁Miami	-10.615
▁severe	-10.6156
▁Summer	-10.6176
▁debate	-10.6178
▁Which	-10.6202
▁Communication	-10.6228
▁extension	-10.6228
▁Range	-10.6271
▁calendar	-10.628
▁massive	-10.628
▁branch	-10.628
▁Film	-10.6282
ught	-10.6303
▁nurse	-10.6333
▁Senate	-10.6334
▁shoes	-10.6334
▁roof	-10.6334
▁baking	-10.6335
▁celebration	-10.6359
▁eligible	-10.6359
▁enterprise	-10.6359
▁Avenue	-10.6359
▁Building	-10.6361
▁dropped	-10.6362
▁supplier	-10.6386
▁permanent	-10.6386
▁smartphone	-10.6386
▁dangerous	-10.6388
▁Small	-10.6388
▁Available	-10.6412
▁veteran	-10.6412
▁Daily	-10.6413
▁Royal	-10.6414
▁construct	-10.6428
▁valuable	-10.6439
▁acquire	-10.6439
▁crisis	-10.6439
▁Number	-10.6439
▁strange	-10.6442
▁observe	-10.6443
▁Professional	-10.6466
▁supplement	-10.6466
▁column	-10.6466
▁divide	-10.6466
▁deserve	-10.6477
encies	-10.6489
▁yellow	-10.6493
augh	-10.6514
▁taught	-10.652
▁random	-10.652
▁finance	-10.652
▁defeat	-10.6523
▁ongoing	-10.6523
▁Model	-10.6524
▁convenient	-10.6573
▁LLC	-10.6574
▁trading	-10.6575
▁outcome	-10.6581
▁Arizona	-10.66
▁cotton	-10.6601
▁Training	-10.6602
▁sharp	-10.6631
▁tiny	-10.6684
▁Jersey	-10.671
▁Field	-10.6738
crypt	-10.674
▁Safety	-10.6765
▁Catholic	-10.6792
▁thrill	-10.6792
▁relation	-10.6793
▁vital	-10.6794
▁dozen	-10.6821
▁garage	-10.6821
▁assume	-10.6831
▁import	-10.6845
▁Iraq	-10.6848
▁vendor	-10.6848
▁domain	-10.6849
▁witness	-10.6876
▁hung	-10.6878
▁Minnesota	-10.6932
▁Mobile	-10.6932
▁disorder	-10.6932
▁challenging	-10.696
▁carried	-10.6961
▁Change	-10.6964
▁interpret	-10.6988
▁certificate	-10.6988
▁contemporary	-10.6988
▁excess	-10.6988
▁garlic	-10.6988
▁counsel	-10.7016
▁accessories	-10.7016
▁Sometimes	-10.7017
▁Professor	-10.7044
▁destroy	-10.7044
▁outfit	-10.7046
▁exposure	-10.7073
▁liquid	-10.7073
▁smoke	-10.7074
▁Country	-10.7101
▁efficiency	-10.7101
▁identity	-10.7101
▁Personal	-10.7102
▁teeth	-10.713
▁tackle	-10.713
▁Account	-10.7131
▁Radio	-10.7138
▁guidance	-10.7158
▁origin	-10.7174
▁symbol	-10.7188
▁smell	-10.7188
▁mortgage	-10.7216
▁professor	-10.7216
▁Collection	-10.7216
▁Photograph	-10.7216
▁copyright	-10.7217
