<pad>	0
<s>	0
</s>	0
<unk>	0
<0x00>	0
<0x01>	0
<0x02>	0
<0x03>	0
<0x04>	0
<0x05>	0
<0x06>	0
<0x07>	0
<0x08>	0
<0x09>	0
<0x0A>	0
<0x0B>	0
<0x0C>	0
<0x0D>	0
<0x0E>	0
<0x0F>	0
<0x10>	0
<0x11>	0
<0x12>	0
<0x13>	0
<0x14>	0
<0x15>	0
<0x16>	0
<0x17>	0
<0x18>	0
<0x19>	0
<0x1A>	0
<0x1B>	0
<0x1C>	0
<0x1D>	0
<0x1E>	0
<0x1F>	0
<0x20>	0
<0x21>	0
<0x22>	0
<0x23>	0
<0x24>	0
<0x25>	0
<0x26>	0
<0x27>	0
<0x28>	0
<0x29>	0
<0x2A>	0
<0x2B>	0
<0x2C>	0
<0x2D>	0
<0x2E>	0
<0x2F>	0
<0x30>	0
<0x31>	0
<0x32>	0
<0x33>	0
<0x34>	0
<0x35>	0
<0x36>	0
<0x37>	0
<0x38>	0
<0x39>	0
<0x3A>	0
<0x3B>	0
<0x3C>	0
<0x3D>	0
<0x3E>	0
<0x3F>	0
<0x40>	0
<0x41>	0
<0x42>	0
<0x43>	0
<0x44>	0
<0x45>	0
<0x46>	0
<0x47>	0
<0x48>	0
<0x49>	0
<0x4A>	0
<0x4B>	0
<0x4C>	0
<0x4D>	0
<0x4E>	0
<0x4F>	0
<0x50>	0
<0x51>	0
<0x52>	0
<0x53>	0
<0x54>	0
<0x55>	0
<0x56>	0
<0x57>	0
<0x58>	0
<0x59>	0
<0x5A>	0
<0x5B>	0
<0x5C>	0
<0x5D>	0
<0x5E>	0
<0x5F>	0
<0x60>	0
<0x61>	0
<0x62>	0
<0x63>	0
<0x64>	0
<0x65>	0
<0x66>	0
<0x67>	0
<0x68>	0
<0x69>	0
<0x6A>	0
<0x6B>	0
<0x6C>	0
<0x6D>	0
<0x6E>	0
<0x6F>	0
<0x70>	0
<0x71>	0
<0x72>	0
<0x73>	0
<0x74>	0
<0x75>	0
<0x76>	0
<0x77>	0
<0x78>	0
<0x79>	0
<0x7A>	0
<0x7B>	0
<0x7C>	0
<0x7D>	0
<0x7E>	0
<0x7F>	0
<0x80>	0
<0x81>	0
<0x82>	0
<0x83>	0
<0x84>	0
<0x85>	0
<0x86>	0
<0x87>	0
<0x88>	0
<0x89>	0
<0x8A>	0
<0x8B>	0
<0x8C>	0
<0x8D>	0
<0x8E>	0
<0x8F>	0
<0x90>	0
<0x91>	0
<0x92>	0
<0x93>	0
<0x94>	0
<0x95>	0
<0x96>	0
<0x97>	0
<0x98>	0
<0x99>	0
<0x9A>	0
<0x9B>	0
<0x9C>	0
<0x9D>	0
<0x9E>	0
<0x9F>	0
<0xA0>	0
<0xA1>	0
<0xA2>	0
<0xA3>	0
<0xA4>	0
<0xA5>	0
<0xA6>	0
<0xA7>	0
<0xA8>	0
<0xA9>	0
<0xAA>	0
<0xAB>	0
<0xAC>	0
<0xAD>	0
<0xAE>	0
<0xAF>	0
<0xB0>	0
<0xB1>	0
<0xB2>	0
<0xB3>	0
<0xB4>	0
<0xB5>	0
<0xB6>	0
<0xB7>	0
<0xB8>	0
<0xB9>	0
<0xBA>	0
<0xBB>	0
<0xBC>	0
<0xBD>	0
<0xBE>	0
<0xBF>	0
<0xC0>	0
<0xC1>	0
<0xC2>	0
<0xC3>	0
<0xC4>	0
<0xC5>	0
<0xC6>	0
<0xC7>	0
<0xC8>	0
<0xC9>	0
<0xCA>	0
<0xCB>	0
<0xCC>	0
<0xCD>	0
<0xCE>	0
<0xCF>	0
<0xD0>	0
<0xD1>	0
<0xD2>	0
<0xD3>	0
<0xD4>	0
<0xD5>	0
<0xD6>	0
<0xD7>	0
<0xD8>	0
<0xD9>	0
<0xDA>	0
<0xDB>	0
<0xDC>	0
<0xDD>	0
<0xDE>	0
<0xDF>	0
<0xE0>	0
<0xE1>	0
<0xE2>	0
<0xE3>	0
<0xE4>	0
<0xE5>	0
<0xE6>	0
<0xE7>	0
<0xE8>	0
<0xE9>	0
<0xEA>	0
<0xEB>	0
<0xEC>	0
<0xED>	0
<0xEE>	0
<0xEF>	0
<0xF0>	0
<0xF1>	0
<0xF2>	0
<0xF3>	0
<0xF4>	0
<0xF5>	0
<0xF6>	0
<0xF7>	0
<0xF8>	0
<0xF9>	0
<0xFA>	0
<0xFB>	0
<0xFC>	0
<0xFD>	0
<0xFE>	0
<0xFF>	0
s	-3.11287
▁	-3.40476
.	-3.47623
,	-3.57747
▁the	-3.64839
▁and	-4.09692
▁to	-4.12173
▁a	-4.25419
▁of	-4.28758
▁in	-4.57205
0	-4.80273
ing	-4.83961
1	-4.94064
ed	-4.96622
-	-4.99728
▁is	-5.01107
▁for	-5.04146
t	-5.05216
d	-5.08868
2	-5.12844
▁I	-5.25331
▁that	-5.30653
’	-5.36107
▁with	-5.3785
▁you	-5.37986
▁on	-5.40707
'	-5.56728
er	-5.5881
▁it	-5.60152
y	-5.62363
▁be	-5.6278
▁The	-5.64665
:	-5.65396
▁are	-5.69658
ly	-5.70854
3	-5.84785
e	-5.86255
5	-5.87667
▁(	-5.89335
▁your	-5.92722
▁at	-5.93187
▁-	-5.94727
▁have	-5.95928
▁as	-5.96847
▁was	-5.99226
▁or	-6.00868
▁this	-6.01205
m	-6.01247
▁from	-6.01396
n	-6.0343
4	-6.04295
▁will	-6.07941
▁by	-6.09068
al	-6.10104
re	-6.10156
9	-6.10385
)	-6.105
▁can	-6.13233
▁an	-6.18957
▁A	-6.19733
r	-6.21906
8	-6.2572
6	-6.25759
▁S	-6.2818
a	-6.28604
▁we	-6.29334
in	-6.29567
▁not	-6.29958
o	-6.31053
7	-6.32036
▁has	-6.34709
es	-6.3937
▁all	-6.46698
th	-6.47107
!	-6.50885
or	-6.52816
?	-6.53764
S	-6.54905
▁“	-6.55168
▁more	-6.55901
▁but	-6.56068
/	-6.58224
▁our	-6.59417
▁their	-6.60204
▁so	-6.62102
▁one	-6.63634
▁out	-6.63882
▁my	-6.64805
▁he	-6.65217
▁up	-6.67442
▁about	-6.69152
c	-6.71781
on	-6.73668
▁they	-6.7405
I	-6.74162
i	-6.7468
p	-6.74804
▁C	-6.74844
ve	-6.76224
▁re	-6.77035
b	-6.79197
▁his	-6.79306
le	-6.80402
▁In	-6.80851
▁time	-6.81958
▁B	-6.8214
ll	-6.82991
l	-6.83478
▁"	-6.83797
▁p	-6.85966
▁F	-6.86338
g	-6.86869
▁who	-6.86887
▁also	-6.88157
▁which	-6.88366
▁It	-6.88505
an	-6.8948
ers	-6.89899
▁We	-6.90634
en	-6.93862
A	-6.94276
k	-6.94325
▁like	-6.94691
ar	-6.94781
▁do	-6.95303
▁new	-6.95806
D	-6.96023
▁me	-6.97256
ation	-6.97383
▁been	-6.9751
P	-6.98268
ur	-6.98699
il	-6.98998
el	-7.00668
▁This	-7.01206
h	-7.02194
ra	-7.02306
u	-7.02417
▁when	-7.03872
▁some	-7.04074
▁get	-7.04658
▁her	-7.05956
it	-7.06741
▁E	-7.06939
▁over	-7.07299
et	-7.076
▁just	-7.10087
f	-7.10452
ic	-7.10577
▁said	-7.10577
▁other	-7.10613
ri	-7.10766
▁what	-7.12689
at	-7.13167
▁T	-7.14141
▁if	-7.14499
C	-7.15225
B	-7.15385
▁P	-7.15482
▁would	-7.15767
▁had	-7.16407
▁no	-7.16842
▁–	-7.18126
▁were	-7.18354
"	-7.18373
M	-7.1894
li	-7.22274
”	-7.22319
▁there	-7.22487
ion	-7.22579
▁them	-7.23056
▁make	-7.23059
▁into	-7.23391
▁G	-7.23439
▁de	-7.24003
▁any	-7.24982
able	-7.25135
▁Re	-7.25244
T	-7.26104
;	-7.26476
▁work	-7.27183
▁D	-7.27206
ne	-7.27791
w	-7.28359
▁M	-7.28408
▁than	-7.29326
L	-7.29568
▁people	-7.3012
▁first	-7.31955
la	-7.32309
ate	-7.3283
lo	-7.33009
ive	-7.33356
▁He	-7.3449
▁how	-7.34896
ment	-7.35748
▁You	-7.36126
▁she	-7.36195
est	-7.36227
ro	-7.37703
id	-7.38181
F	-7.38269
▁help	-7.38272
st	-7.39788
▁us	-7.39914
▁only	-7.41373
N	-7.41788
▁W	-7.41849
▁most	-7.42432
ity	-7.43361
▁well	-7.43466
▁two	-7.44139
▁use	-7.44289
ir	-7.44338
...	-7.44576
ent	-7.45714
▁see	-7.45876
com	-7.46237
▁year	-7.46616
▁If	-7.46625
▁For	-7.46747
▁know	-7.47093
ce	-7.47748
ol	-7.47985
▁back	-7.48083
de	-7.48319
▁H	-7.48539
▁O	-7.4899
O	-7.49819
▁home	-7.50328
na	-7.5038
age	-7.51018
G	-7.51081
us	-7.511
▁may	-7.51122
z	-7.51325
▁need	-7.51484
ter	-7.51857
▁R	-7.52521
▁&	-7.52907
▁its	-7.53476
▁after	-7.53593
im	-7.53699
▁un	-7.55229
▁N	-7.55941
is	-7.56541
ist	-7.56596
x	-7.56597
H	-7.56625
te	-7.56681
▁|	-7.56997
▁through	-7.57197
▁these	-7.57318
um	-7.5732
▁good	-7.57473
▁$	-7.57476
▁St	-7.57608
▁want	-7.57903
un	-7.58066
▁way	-7.58315
▁st	-7.58324
R	-7.58412
W	-7.58453
▁many	-7.58972
▁very	-7.5916
E	-7.59321
▁years	-7.59451
up	-7.59938
se	-7.60156
ul	-7.61153
▁So	-7.61507
▁now	-7.61774
ry	-7.61858
▁day	-7.62031
▁To	-7.62056
▁K	-7.64085
to	-7.64192
▁c	-7.6567
ma	-7.6609
▁don	-7.66706
▁where	-7.66731
▁go	-7.67783
man	-7.68075
▁part	-7.68409
▁con	-7.68439
am	-7.69035
ta	-7.69223
▁should	-7.69367
co	-7.69551
▁here	-7.69603
▁b	-7.70135
▁take	-7.70435
▁great	-7.70688
▁Ma	-7.7072
ia	-7.70929
▁co	-7.71308
▁best	-7.71464
▁right	-7.72632
mo	-7.73685
▁U	-7.74023
▁could	-7.7446
ck	-7.74623
ut	-7.74765
ine	-7.75025
me	-7.75878
||	-7.76077
▁place	-7.76334
▁much	-7.76371
▁And	-7.76535
▁even	-7.7752
as	-7.77615
The	-7.7784
ch	-7.77953
ant	-7.78491
▁made	-7.78854
▁last	-7.79004
▁off	-7.79543
▁information	-7.79961
▁because	-7.8039
ary	-7.80854
▁love	-7.80888
ies	-7.80993
).	-7.81345
▁life	-7.8149
U	-7.81863
▁e	-7.82129
.”	-7.82406
K	-7.82634
ie	-7.82791
▁then	-7.82813
▁L	-7.83026
▁find	-7.83126
▁before	-7.83167
pe	-7.8352
▁g	-7.83718
▁team	-7.84486
ad	-7.84701
ge	-7.85993
V	-7.86123
▁But	-7.86128
ver	-7.86371
▁Le	-7.87155
|	-7.87157
ting	-7.87274
▁such	-7.88601
▁De	-7.88875
▁support	-7.89287
▁As	-7.89545
%	-7.89869
▁free	-7.90019
op	-7.90312
▁New	-7.90343
ian	-7.90692
min	-7.90816
ty	-7.91013
ton	-7.9109
▁those	-7.91212
▁show	-7.91235
▁own	-7.91603
sh	-7.91634
▁being	-7.91963
ca	-7.92932
and	-7.93021
▁end	-7.93246
▁while	-7.93769
▁down	-7.94331
▁world	-7.94759
▁business	-7.94826
▁around	-7.95401
ance	-7.95427
hi	-7.95464
ated	-7.9641
▁under	-7.96475
▁think	-7.96742
▁used	-7.9686
▁every	-7.97268
▁each	-7.97402
ling	-7.97925
▁La	-7.97943
▁him	-7.98018
▁Mo	-7.98133
▁Be	-7.98364
son	-7.98426
▁Co	-7.98429
▁am	-7.98716
▁really	-7.99116
▁Ba	-7.99615
▁high	-8.00053
▁look	-8.00091
▁long	-8.00767
em	-8.01199
▁car	-8.0159
),	-8.03279
ill	-8.03729
▁experience	-8.04132
▁going	-8.04237
▁V	-8.04288
▁still	-8.04462
Y	-8.04707
be	-8.04829
no	-8.04892
▁Ro	-8.04911
ci	-8.05387
▁Me	-8.05468
ence	-8.05548
▁There	-8.05896
▁available	-8.0607
▁both	-8.0626
▁set	-8.0691
ha	-8.07264
▁She	-8.07508
▁different	-8.07724
▁week	-8.07804
va	-8.07839
▁few	-8.08111
ating	-8.08414
▁give	-8.08602
▁three	-8.08807
▁All	-8.08943
▁game	-8.08982
▁They	-8.09655
nd	-8.09715
▁come	-8.09809
v	-8.10629
less	-8.11548
▁Ra	-8.11722
,”	-8.11793
▁lot	-8.1223
▁Do	-8.12643
▁found	-8.13092
▁pre	-8.13113
▁school	-8.13203
tra	-8.13605
mp	-8.13983
▁post	-8.13996
ot	-8.13997
▁keep	-8.13998
ster	-8.14366
▁little	-8.14572
▁start	-8.14654
red	-8.14708
ice	-8.14757
▁What	-8.15082
▁No	-8.15118
ber	-8.15408
ba	-8.15427
▁number	-8.15503
tic	-8.15691
ted	-8.15799
our	-8.15825
▁too	-8.15826
▁company	-8.1603
▁water	-8.16149
po	-8.16226
▁w	-8.16241
ni	-8.16463
he	-8.16575
ness	-8.1677
▁ma	-8.16962
▁same	-8.17241
ke	-8.17275
▁per	-8.17325
▁family	-8.1745
ction	-8.17561
dy	-8.17755
▁service	-8.17951
▁mo	-8.1815
▁site	-8.1852
▁play	-8.18807
tion	-8.19062
ure	-8.19078
▁between	-8.19104
▁including	-8.19172
ish	-8.19246
ho	-8.19275
▁Po	-8.19922
▁next	-8.20342
▁during	-8.20412
▁using	-8.20459
▁Con	-8.2056
mb	-8.21073
lu	-8.21303
▁design	-8.21941
▁J	-8.22055
▁di	-8.22101
land	-8.22213
▁state	-8.22228
do	-8.22315
ak	-8.22493
ful	-8.22914
▁f	-8.23836
line	-8.23985
▁things	-8.24258
ite	-8.24458
▁comp	-8.24534
▁order	-8.24643
▁always	-8.24762
▁Ca	-8.24994
▁call	-8.25153
▁Pro	-8.25206
▁system	-8.25308
▁full	-8.25534
."	-8.25599
way	-8.25872
J	-8.259
ship	-8.2601
▁since	-8.26747
▁small	-8.26836
ous	-8.26848
ard	-8.26938
▁book	-8.2695
▁better	-8.27391
▁When	-8.27625
der	-8.27636
▁online	-8.28144
▁sure	-8.28343
ring	-8.28351
mon	-8.28418
vi	-8.28479
rs	-8.28518
▁pro	-8.28653
the	-8.28794
wa	-8.2888
ip	-8.29043
ru	-8.29136
out	-8.29242
▁something	-8.29311
▁did	-8.29316
ner	-8.29525
ther	-8.29695
▁Bo	-8.29861
ning	-8.30099
▁group	-8.30201
▁got	-8.30302
▁feel	-8.30317
end	-8.30448
bo	-8.30714
port	-8.30732
▁hand	-8.30768
▁process	-8.31014
▁provide	-8.31162
▁second	-8.31171
▁dis	-8.31181
▁With	-8.31194
one	-8.3175
▁head	-8.31812
ac	-8.31873
di	-8.32014
ki	-8.32119
▁i	-8.32215
ial	-8.32441
▁case	-8.32629
▁Pa	-8.32681
▁top	-8.32961
▁today	-8.33254
ga	-8.34337
▁another	-8.34413
per	-8.34973
▁read	-8.35251
go	-8.35283
▁say	-8.35422
pa	-8.35629
▁Al	-8.35691
▁Ha	-8.35752
▁Mar	-8.35799
▁video	-8.35856
▁local	-8.36057
om	-8.36067
▁without	-8.36313
ten	-8.36465
ow	-8.36491
ell	-8.36588
ab	-8.36686
ub	-8.36704
ex	-8.36732
▁season	-8.36751
▁must	-8.36821
▁does	-8.37223
▁run	-8.37332
▁v	-8.37579
con	-8.37667
che	-8.37734
▁area	-8.38473
tor	-8.38475
wi	-8.38486
▁line	-8.38498
▁light	-8.38742
▁days	-8.38884
▁On	-8.39013
▁important	-8.39796
▁Car	-8.3982
▁market	-8.40045
▁report	-8.40129
▁Lo	-8.40214
▁Our	-8.40265
▁—	-8.40433
ical	-8.40443
▁care	-8.40558
ig	-8.40579
▁app	-8.40702
ti	-8.40987
ee	-8.40988
tro	-8.41189
▁open	-8.41375
▁website	-8.4148
▁name	-8.41597
▁real	-8.41754
▁services	-8.41777
▁might	-8.41825
▁An	-8.42194
cent	-8.4231
▁never	-8.4241
sion	-8.42717
▁Dr	-8.42762
▁My	-8.43525
▁Li	-8.43839
▁hard	-8.43927
▁course	-8.44315
king	-8.4439
▁put	-8.44738
▁live	-8.44789
▁visit	-8.44984
▁data	-8.45379
▁Ho	-8.45479
▁working	-8.4562
▁That	-8.45707
ap	-8.4573
▁children	-8.45762
▁until	-8.46074
▁Z	-8.46341
▁page	-8.46474
We	-8.46657
▁food	-8.46717
▁price	-8.46818
▁health	-8.46827
▁list	-8.47082
,"	-8.47415
da	-8.47442
▁night	-8.47579
▁looking	-8.47948
ions	-8.48253
log	-8.48414
▁students	-8.48852
▁man	-8.48953
ue	-8.49072
▁enjoy	-8.49196
▁check	-8.49278
▁making	-8.49469
▁form	-8.49516
▁research	-8.4995
qui	-8.50184
▁music	-8.50302
vo	-8.50333
▁project	-8.50375
gu	-8.50476
▁able	-8.50488
▁Se	-8.50634
ations	-8.50668
ally	-8.50721
mm	-8.50826
▁person	-8.50921
▁view	-8.51023
▁job	-8.51036
mi	-8.51116
▁please	-8.51133
▁room	-8.5117
ran	-8.51388
tu	-8.51497
▁past	-8.51643
▁plan	-8.51826
side	-8.52064
▁community	-8.52065
▁At	-8.5223
▁personal	-8.53036
▁offer	-8.5328
▁side	-8.53288
▁against	-8.53342
▁Sa	-8.53378
▁program	-8.53457
und	-8.53641
lic	-8.53882
▁ex	-8.53979
▁ch	-8.54127
od	-8.54148
ven	-8.54169
old	-8.54682
▁email	-8.54707
les	-8.54908
▁change	-8.55383
▁again	-8.55479
▁million	-8.55495
j	-8.55999
▁become	-8.56001
▁within	-8.56054
ft	-8.56192
▁special	-8.56221
▁public	-8.56299
time	-8.56305
▁bring	-8.5641
tain	-8.56651
▁la	-8.56761
X	-8.56918
▁share	-8.56921
▁together	-8.57525
ach	-8.57568
ka	-8.57701
▁Ne	-8.57706
▁let	-8.57959
we	-8.58079
▁record	-8.58187
▁University	-8.58379
▁include	-8.58519
ide	-8.58522
▁en	-8.58603
ick	-8.5862
▁less	-8.58734
▁point	-8.58746
ny	-8.58767
▁product	-8.58776
▁quality	-8.58787
▁away	-8.58831
▁contact	-8.58888
ep	-8.58905
▁Ta	-8.59006
▁big	-8.59099
ise	-8.59523
▁products	-8.59676
▁Di	-8.59757
▁How	-8.59791
ag	-8.59863
▁easy	-8.60022
▁create	-8.6043
os	-8.60554
ture	-8.60723
▁event	-8.60877
▁sh	-8.61266
ving	-8.61268
ative	-8.61349
▁Ar	-8.61372
bu	-8.61505
ley	-8.61656
▁One	-8.61723
▁money	-8.61784
▁add	-8.61815
▁close	-8.61888
▁along	-8.61911
▁thing	-8.61918
▁fun	-8.61969
▁Vi	-8.62079
tch	-8.62286
▁large	-8.62352
▁old	-8.62525
▁sc	-8.62623
▁month	-8.62645
ay	-8.62691
act	-8.62694
ized	-8.62895
▁four	-8.63136
▁pay	-8.63217
ries	-8.63237
▁art	-8.63297
ph	-8.6363
ger	-8.63898
▁why	-8.64017
pos	-8.64066
▁power	-8.64303
▁perfect	-8.64308
ities	-8.64553
▁win	-8.64726
oo	-8.65181
▁buy	-8.65374
▁bit	-8.65514
▁says	-8.6558
ition	-8.65593
▁access	-8.65669
▁left	-8.65723
▁short	-8.65875
que	-8.66024
▁house	-8.66115
ult	-8.66682
ja	-8.66796
▁May	-8.67102
▁American	-8.67192
tter	-8.67233
▁Su	-8.67319
by	-8.67406
▁Te	-8.67411
▁deal	-8.67423
sa	-8.67534
▁story	-8.67741
lin	-8.67995
int	-8.68236
▁control	-8.68454
ize	-8.68737
▁review	-8.68969
▁thought	-8.69019
▁having	-8.69047
▁professional	-8.69128
▁kind	-8.69161
▁Ex	-8.69426
▁bo	-8.69595
cur	-8.696
▁sp	-8.69666
▁development	-8.69778
▁return	-8.69954
▁women	-8.70073
▁face	-8.70208
▁following	-8.70221
▁sign	-8.70304
▁color	-8.704
▁account	-8.70507
ator	-8.70517
▁below	-8.70583
▁enough	-8.70915
▁du	-8.71068
ple	-8.71112
au	-8.71131
▁After	-8.71163
▁card	-8.71222
▁test	-8.71402
▁These	-8.7153
▁across	-8.71641
▁hope	-8.71663
▁needs	-8.71721
▁US	-8.71863
▁Na	-8.72071
▁getting	-8.72196
▁film	-8.72226
▁done	-8.72235
ient	-8.72792
▁space	-8.72867
▁minutes	-8.729
▁already	-8.72908
ake	-8.73008
▁country	-8.7302
▁believe	-8.73055
fi	-8.73154
▁reason	-8.73315
qu	-8.73513
ability	-8.73586
ism	-8.73609
ual	-8.73865
▁ever	-8.74073
io	-8.74289
▁won	-8.74315
▁several	-8.74399
ud	-8.74419
▁law	-8.74531
▁far	-8.74564
ile	-8.75016
ors	-8.75038
led	-8.75164
▁turn	-8.75198
▁Th	-8.75403
▁possible	-8.75452
▁non	-8.76296
day	-8.76329
▁Pre	-8.76429
▁Your	-8.76434
▁link	-8.76518
(	-8.76547
▁gr	-8.76667
▁social	-8.76823
▁often	-8.77006
▁individual	-8.77065
▁single	-8.77186
▁store	-8.77225
ear	-8.77422
▁tell	-8.77595
▁hours	-8.77697
ever	-8.77945
▁Or	-8.78017
fa	-8.78302
bi	-8.7831
▁Ja	-8.78365
▁file	-8.78391
ric	-8.78581
ang	-8.78717
tal	-8.79098
ward	-8.79144
▁based	-8.79222
▁didn	-8.79269
▁Can	-8.79608
▁continue	-8.79871
▁Please	-8.80066
▁try	-8.80112
▁Ka	-8.80143
▁Here	-8.80587
▁members	-8.80796
▁step	-8.81189
▁young	-8.81367
▁value	-8.81404
▁Ad	-8.81827
ens	-8.82026
ah	-8.82029
row	-8.8209
—	-8.82135
▁learn	-8.82147
▁key	-8.82255
▁walk	-8.82293
▁comes	-8.82562
ler	-8.82676
▁building	-8.82723
▁city	-8.82835
▁doesn	-8.82852
ome	-8.83154
ron	-8.83155
▁called	-8.8316
▁clean	-8.83209
▁fo	-8.83237
tri	-8.83251
▁body	-8.83334
▁came	-8.83512
▁fact	-8.83619
ct	-8.83647
▁cost	-8.83671
ign	-8.83722
bb	-8.83731
ect	-8.83788
ER	-8.83822
▁En	-8.83844
gra	-8.83845
▁hold	-8.8385
▁size	-8.83881
▁level	-8.83883
▁Jo	-8.84084
▁started	-8.84113
▁search	-8.84181
▁model	-8.84808
av	-8.84992
nk	-8.8502
▁range	-8.85322
▁State	-8.85323
▁blog	-8.85339
nt	-8.85556
ze	-8.85718
▁application	-8.85729
▁stay	-8.85759
pp	-8.85784
▁air	-8.85796
▁City	-8.85902
▁However	-8.85911
▁future	-8.86052
▁industry	-8.86121
▁took	-8.86282
▁Gu	-8.86288
▁bar	-8.86439
▁travel	-8.86516
▁lead	-8.86672
▁cut	-8.86855
▁yet	-8.86911
▁friends	-8.86977
cre	-8.87083
▁though	-8.8712
▁Mi	-8.87138
ble	-8.87178
▁strong	-8.87285
▁office	-8.87299
▁government	-8.87513
▁doing	-8.87529
ious	-8.87657
all	-8.87682
ight	-8.87719
▁mind	-8.87783
ants	-8.87943
tle	-8.8803
▁Go	-8.88191
▁inter	-8.88322
ments	-8.88425
rit	-8.88427
gi	-8.88536
▁Du	-8.8856
▁child	-8.88641
tin	-8.88681
▁months	-8.88887
▁cr	-8.88965
▁Fa	-8.88982
▁main	-8.88995
ng	-8.89097
if	-8.89099
▁date	-8.89323
▁five	-8.89377
▁remain	-8.89508
gg	-8.89534
▁early	-8.89809
ped	-8.8982
AR	-8.89869
cu	-8.90011
▁went	-8.90106
▁heart	-8.90171
fe	-8.90301
▁Now	-8.90365
▁sub	-8.90486
▁consider	-8.90582
▁phone	-8.90604
▁hit	-8.90858
▁mis	-8.91048
▁leave	-8.91102
▁makes	-8.9119
gen	-8.91248
▁ago	-8.91341
▁least	-8.91351
▁...	-8.91514
▁Some	-8.91545
▁Not	-8.91568
▁content	-8.91612
▁X	-8.91615
▁once	-8.91696
cal	-8.91712
▁media	-8.91787
▁School	-8.91853
▁God	-8.91967
▁issue	-8.9207
▁Da	-8.92121
▁Un	-8.92123
lock	-8.92129
▁series	-8.92266
▁percent	-8.92344
▁El	-8.92474
mic	-8.92508
▁move	-8.92509
ible	-8.92559
▁low	-8.92572
▁means	-8.92588
ory	-8.92718
In	-8.92771
ration	-8.92996
▁United	-8.93012
▁join	-8.93059
://	-8.9319
▁cover	-8.93332
▁meet	-8.93516
ase	-8.93534
▁follow	-8.93602
rry	-8.93618
▁brand	-8.93701
mer	-8.93712
▁talk	-8.93777
lar	-8.93859
▁York	-8.9386
pi	-8.93923
work	-8.94095
▁pick	-8.94097
▁games	-8.94649
ea	-8.94655
▁vi	-8.94702
▁result	-8.94729
▁article	-8.94736
ging	-8.94798
▁character	-8.94861
ral	-8.94864
▁*	-8.94976
▁rest	-8.94987
▁paper	-8.95318
▁charge	-8.95324
▁piece	-8.9533
den	-8.95361
▁More	-8.9544
▁performance	-8.95498
rk	-8.95643
▁Bar	-8.95646
ier	-8.95653
▁rate	-8.95673
▁problem	-8.95675
▁Ga	-8.95675
iv	-8.95683
▁actually	-8.95694
ai	-8.95879
ON	-8.95937
ff	-8.96008
nch	-8.96051
▁current	-8.96055
▁whole	-8.96126
uck	-8.96255
ham	-8.96281
▁told	-8.96307
▁style	-8.96487
▁happen	-8.96576
ale	-8.96657
▁practice	-8.96669
*	-8.96681
▁half	-8.96833
use	-8.96843
▁class	-8.96908
It	-8.96956
oc	-8.97136
▁wide	-8.9719
low	-8.97214
▁South	-8.97469
gar	-8.97526
▁stand	-8.97543
▁example	-8.97594
ress	-8.97727
▁customers	-8.97851
▁simple	-8.97962
pr	-8.98128
▁beautiful	-8.98222
amp	-8.98256
▁offers	-8.98318
▁times	-8.98456
art	-8.98526
▁receive	-8.98635
▁everything	-8.98644
▁technology	-8.98693
Re	-8.98706
▁purchase	-8.98719
▁host	-8.9877
▁study	-8.98851
▁companies	-8.98877
▁focus	-8.99037
ack	-8.99067
▁added	-8.99096
▁Bu	-8.99273
▁reach	-8.99305
▁training	-8.9965
▁features	-8.9972
▁taking	-8.99751
val	-8.99836
ink	-9.00008
▁fire	-9.00062
▁field	-9.0016
▁By	-9.00205
▁fl	-9.00218
ney	-9.00271
▁later	-9.00332
▁couple	-9.00359
▁Center	-9.00362
▁unique	-9.00512
par	-9.00552
▁Park	-9.00602
spec	-9.00624
▁Man	-9.00637
IN	-9.00648
▁oil	-9.00724
▁someone	-9.00882
▁appear	-9.00915
▁ho	-9.00957
nn	-9.00979
▁Day	-9.0109
▁movie	-9.01136
ey	-9.01223
▁questions	-9.01305
year	-9.01352
▁Sha	-9.01375
▁mean	-9.01389
▁/	-9.01567
▁contain	-9.01612
clo	-9.01619
▁fast	-9.01766
▁ask	-9.01817
▁staff	-9.01941
▁network	-9.02025
▁Je	-9.02251
▁complete	-9.02336
▁address	-9.02451
▁sound	-9.02469
▁due	-9.02498
clu	-9.02552
▁match	-9.02562
▁everyone	-9.02585
▁age	-9.02648
▁Ri	-9.02704
▁recommend	-9.02732
▁bi	-9.02779
▁human	-9.02845
fo	-9.0289
ef	-9.02904
▁While	-9.03061
over	-9.03071
▁John	-9.03076
▁known	-9.03225
▁break	-9.03264
▁organization	-9.0328
▁track	-9.03322
▁pa	-9.03368
dic	-9.03373
ology	-9.03491
ray	-9.03545
▁action	-9.03655
▁National	-9.03721
▁Art	-9.03773
▁present	-9.03834
my	-9.03975
▁official	-9.04079
▁seen	-9.04147
▁men	-9.04161
rap	-9.04164
▁High	-9.04278
her	-9.04333
▁Lu	-9.04347
▁fit	-9.04444
▁tax	-9.04626
▁North	-9.04718
▁se	-9.04783
▁print	-9.04927
▁white	-9.04929
▁location	-9.05363
▁results	-9.05571
▁original	-9.05584
▁--	-9.05645
▁War	-9.05812
▁version	-9.06013
▁decision	-9.06091
▁stop	-9.06107
rent	-9.06133
▁standard	-9.06177
▁answer	-9.06182
▁County	-9.06206
ong	-9.06244
▁Har	-9.06309
▁final	-9.06342
▁Just	-9.06385
▁type	-9.06407
▁front	-9.06484
▁Per	-9.06489
fer	-9.06536
▁six	-9.06621
▁energy	-9.06685
▁http	-9.06734
▁black	-9.06742
▁drive	-9.06786
▁given	-9.06843
▁device	-9.06999
▁role	-9.07007
▁fi	-9.07081
▁natural	-9.07169
▁position	-9.07199
let	-9.07352
cor	-9.07486
▁improve	-9.07521
lk	-9.07638
▁click	-9.07644
▁question	-9.07647
set	-9.07675
gre	-9.07679
▁imp	-9.07848
▁addition	-9.07892
▁increase	-9.0791
▁interest	-9.07954
net	-9.08052
▁web	-9.0822
lan	-9.08257
▁deliver	-9.08279
▁others	-9.08323
▁safe	-9.08329
▁table	-9.08344
▁feature	-9.08405
▁World	-9.08491
▁fall	-9.08563
ash	-9.08641
▁idea	-9.08651
▁matter	-9.08652
▁history	-9.08666
▁Sp	-9.08753
▁friend	-9.08775
▁anything	-9.08817
rate	-9.09009
▁management	-9.09013
orn	-9.09057
RE	-9.0908
▁near	-9.0913
▁engine	-9.09159
▁From	-9.0916
ware	-9.09263
▁fa	-9.09315
▁property	-9.09344
▁Friday	-9.09367
▁choice	-9.0945
▁major	-9.09682
▁latest	-9.0976
qua	-9.09778
▁clear	-9.09971
mark	-9.10148
cle	-9.10173
▁above	-9.10362
▁Cha	-9.10426
van	-9.10473
pm	-9.10499
han	-9.10525
▁understand	-9.1056
ace	-9.10634
▁author	-9.10696
▁Free	-9.10776
ium	-9.10848
rt	-9.10988
mal	-9.11026
▁require	-9.11096
▁ensure	-9.11102
▁effort	-9.11127
▁watch	-9.11235
ug	-9.11259
for	-9.11267
ES	-9.11512
▁challenge	-9.11872
▁Si	-9.11895
▁super	-9.11935
je	-9.12308
▁ha	-9.12321
▁claim	-9.12425
▁star	-9.12535
▁favorite	-9.12599
▁forward	-9.12615
▁among	-9.1273
▁Ch	-9.12743
▁protect	-9.12889
▁meeting	-9.1289
▁Gra	-9.12911
hor	-9.1294
▁details	-9.13016
This	-9.13069
▁source	-9.13074
▁further	-9.13083
hu	-9.1331
istic	-9.13375
▁x	-9.13512
org	-9.13524
ore	-9.13615
▁issues	-9.13749
▁Ed	-9.1383
▁pretty	-9.13867
ify	-9.13883
pic	-9.13888
▁opportunity	-9.13896
serv	-9.14054
▁trying	-9.14084
sta	-9.14248
▁Ju	-9.14322
▁soon	-9.14428
▁perform	-9.1444
▁chance	-9.14459
▁thank	-9.14584
▁according	-9.14634
▁Saturday	-9.14816
▁various	-9.14909
▁risk	-9.14911
kin	-9.14946
▁attend	-9.15005
▁Pi	-9.15082
▁almost	-9.15159
▁member	-9.15246
▁skin	-9.15271
▁su	-9.15275
▁center	-9.15301
▁dr	-9.15388
ified	-9.15467
▁popular	-9.155
▁release	-9.15508
▁amount	-9.15585
of	-9.15646
▁build	-9.15659
▁Mu	-9.15692
▁March	-9.15753
▁treatment	-9.15842
▁moment	-9.15975
▁provides	-9.16122
▁cap	-9.16174
vel	-9.16183
▁Bi	-9.16293
▁summer	-9.16311
mit	-9.16354
graph	-9.16355
ED	-9.16359
▁designed	-9.1636
▁whether	-9.164
▁coming	-9.16522
▁taken	-9.16549
▁via	-9.16719
ld	-9.16788
▁Y	-9.16833
▁effect	-9.16868
▁document	-9.1687
▁send	-9.16944
ix	-9.17135
▁writing	-9.17249
▁trans	-9.17267
▁pass	-9.17323
▁kids	-9.17334
OR	-9.17382
▁suggest	-9.17406
▁cause	-9.17496
▁third	-9.17533
▁bad	-9.17555
▁Am	-9.17797
▁living	-9.17822
▁Health	-9.18106
▁Cor	-9.18122
mail	-9.18141
▁plant	-9.18153
▁land	-9.18198
▁board	-9.18205
uc	-9.1822
▁Mr	-9.1825
▁door	-9.18463
▁quite	-9.18555
▁allow	-9.1857
▁ten	-9.18596
▁events	-9.18612
▁Sunday	-9.18719
▁nice	-9.18864
▁yourself	-9.18903
▁currently	-9.18935
▁June	-9.19045
▁artist	-9.19059
ina	-9.19063
▁either	-9.19128
▁ready	-9.19161
▁April	-9.19193
▁Don	-9.19267
tan	-9.19298
ox	-9.19417
ev	-9.19432
▁guy	-9.19443
▁potential	-9.1945
▁San	-9.19501
▁message	-9.1958
▁specific	-9.19617
▁entire	-9.19723
▁especially	-9.19773
▁required	-9.19822
▁mi	-9.19872
lf	-9.19905
▁areas	-9.19906
▁cup	-9.19977
▁court	-9.20007
▁road	-9.20101
▁seem	-9.20221
▁song	-9.20257
MA	-9.20336
▁Pe	-9.20406
▁approach	-9.20455
tern	-9.20477
▁owner	-9.2053
gan	-9.20581
▁effective	-9.20588
Q	-9.20627
▁Com	-9.20656
air	-9.2074
har	-9.21001
▁common	-9.21024
▁Comp	-9.21065
▁box	-9.21103
form	-9.21125
▁morning	-9.21142
▁happy	-9.21175
light	-9.21217
▁begin	-9.21229
IS	-9.2124
▁wanted	-9.21323
nu	-9.21387
▁recently	-9.21408
▁partner	-9.21447
▁region	-9.21509
▁connect	-9.21524
▁financial	-9.21569
▁points	-9.21593
pl	-9.21648
▁recent	-9.21701
▁running	-9.2173
▁hair	-9.21737
▁App	-9.21841
▁relationship	-9.21972
▁grow	-9.22039
lip	-9.22049
▁behind	-9.22065
ste	-9.22144
▁held	-9.22153
▁da	-9.22155
▁Home	-9.2218
▁needed	-9.22274
▁choose	-9.22297
▁park	-9.22372
br	-9.2238
▁reading	-9.22407
▁includes	-9.22577
▁news	-9.22771
▁Of	-9.22843
▁red	-9.22869
▁else	-9.22882
▁July	-9.22989
▁career	-9.23011
▁weeks	-9.23016
▁extra	-9.23022
▁House	-9.23028
▁Wi	-9.23042
▁credit	-9.23064
▁act	-9.23074
▁Ki	-9.23173
▁Read	-9.23225
▁count	-9.23309
▁fresh	-9.23366
▁fr	-9.23404
▁security	-9.23466
▁regular	-9.23466
▁Get	-9.23489
▁self	-9.23582
▁period	-9.23702
▁gift	-9.23837
AL	-9.239
▁save	-9.23934
▁download	-9.23961
▁software	-9.24012
▁draw	-9.24134
lie	-9.24179
▁touch	-9.24219
▁provided	-9.24222
▁environment	-9.24337
ST	-9.24455
uch	-9.2454
▁vehicle	-9.24546
▁concern	-9.24615
Z	-9.24657
cla	-9.2466
eg	-9.24791
▁West	-9.24791
▁Tra	-9.24821
▁trip	-9.2486
▁success	-9.2516
▁hot	-9.25221
hy	-9.25224
▁throughout	-9.25329
▁l	-9.25358
gin	-9.25382
ification	-9.25399
▁Wa	-9.25408
▁screen	-9.25415
part	-9.25449
▁works	-9.25451
▁Monday	-9.25482
rr	-9.25537
ky	-9.25658
▁President	-9.25776
▁Che	-9.25851
▁Fi	-9.25921
men	-9.26065
fin	-9.26238
▁clients	-9.26263
▁items	-9.2628
▁impact	-9.26354
▁Time	-9.26383
▁fund	-9.26399
vis	-9.26539
▁His	-9.26592
▁education	-9.26692
▁received	-9.26751
▁probably	-9.26778
▁sales	-9.26792
▁Act	-9.26838
▁mar	-9.26912
▁late	-9.26927
▁private	-9.26951
▁outside	-9.26984
▁cool	-9.26998
▁asked	-9.27109
▁international	-9.27789
▁party	-9.27796
▁goal	-9.27827
ding	-9.27907
▁inside	-9.27913
▁leg	-9.27921
ker	-9.27936
▁request	-9.28113
lit	-9.28148
▁created	-9.2815
▁Add	-9.28183
▁award	-9.28184
off	-9.2822
ew	-9.28314
▁simply	-9.28493
▁Ti	-9.28568
▁options	-9.28584
Ma	-9.28622
▁police	-9.28671
book	-9.28672
▁additional	-9.28695
▁anyone	-9.2872
▁method	-9.28742
▁Dis	-9.28772
▁enter	-9.28824
win	-9.28859
back	-9.29045
▁wear	-9.29134
zz	-9.29287
▁firm	-9.29448
▁however	-9.29456
put	-9.29459
▁mix	-9.29464
▁difficult	-9.29487
▁computer	-9.2956
▁Win	-9.29601
▁players	-9.29671
▁Ver	-9.2975
▁fine	-9.29759
▁rule	-9.29863
ising	-9.29879
▁skills	-9.30001
bit	-9.30176
pro	-9.30235
▁leader	-9.30253
ization	-9.30286
ec	-9.30332
▁title	-9.30385
▁note	-9.30446
board	-9.30537
▁Her	-9.30539
▁score	-9.30662
▁cook	-9.3071
▁customer	-9.30739
▁deep	-9.30888
ute	-9.30951
▁Office	-9.30954
▁etc	-9.31089
based	-9.31129
▁ball	-9.31146
▁likely	-9.31146
lor	-9.31235
▁Hu	-9.31241
▁function	-9.31342
▁problems	-9.31388
▁collection	-9.31451
▁cat	-9.31463
▁users	-9.31526
za	-9.31643
ville	-9.31658
cast	-9.31749
▁TV	-9.31842
▁medical	-9.31875
▁Inc	-9.3189
ose	-9.3194
▁stock	-9.31995
▁knowledge	-9.32016
▁force	-9.32113
▁Fe	-9.32133
late	-9.32138
▁heat	-9.32171
▁learning	-9.32248
own	-9.32259
▁Bri	-9.32409
str	-9.32432
▁ground	-9.32558
af	-9.32653
▁national	-9.32686
▁shop	-9.32737
▁August	-9.32787
▁mu	-9.32795
▁production	-9.33076
▁trade	-9.33077
IC	-9.33119
▁sur	-9.3312
▁tour	-9.33128
▁Air	-9.33129
▁image	-9.33149
▁successful	-9.33155
▁spot	-9.33156
▁floor	-9.33158
pping	-9.33224
▁Red	-9.33249
▁activities	-9.33416
nic	-9.33427
ridge	-9.33443
▁green	-9.3346
ya	-9.33489
▁write	-9.33496
▁operation	-9.33533
▁America	-9.33575
▁words	-9.33625
ping	-9.33709
ump	-9.33762
▁located	-9.33788
▁Mon	-9.3389
▁wall	-9.33949
▁photo	-9.34001
▁worth	-9.3413
ame	-9.34246
▁finish	-9.34369
▁auto	-9.34377
▁contract	-9.34386
▁cu	-9.3457
▁remember	-9.34618
▁custom	-9.34624
▁achieve	-9.34648
▁former	-9.34695
▁UK	-9.34703
▁dog	-9.34964
▁Pat	-9.35048
▁code	-9.35067
pir	-9.35085
night	-9.35287
▁schedule	-9.35364
▁discover	-9.35373
▁accept	-9.35442
▁serve	-9.35524
▁Work	-9.35561
ged	-9.35688
▁Black	-9.35819
▁Ye	-9.35827
▁reduce	-9.35982
▁represent	-9.36067
rd	-9.36132
▁First	-9.362
▁na	-9.36258
▁vote	-9.36269
▁earn	-9.36381
▁similar	-9.36467
raw	-9.365
▁measure	-9.36544
LE	-9.36555
ana	-9.36602
▁unit	-9.36617
▁Thursday	-9.3662
uff	-9.36675
ook	-9.36779
▁Use	-9.36795
▁total	-9.36805
cess	-9.36845
▁install	-9.36885
▁discuss	-9.36909
▁significant	-9.36927
▁growth	-9.3703
▁isn	-9.37186
▁tri	-9.37244
▁town	-9.3726
▁playing	-9.3727
▁States	-9.3729
▁expect	-9.37305
▁rather	-9.37359
▁January	-9.37389
▁display	-9.37406
▁amazing	-9.37466
RA	-9.37473
ford	-9.37506
▁nothing	-9.37531
▁term	-9.37608
ock	-9.37795
▁director	-9.37849
▁death	-9.37896
▁met	-9.37904
▁Department	-9.37931
▁fight	-9.3798
$	-9.37987
▁comment	-9.38156
▁sun	-9.38234
▁treat	-9.38294
▁Street	-9.38477
▁lives	-9.3853
▁student	-9.38537
▁update	-9.38538
▁weekend	-9.38542
▁round	-9.38594
ING	-9.38639
▁Tri	-9.38844
▁Bre	-9.38974
mission	-9.39036
▁October	-9.39063
▁wish	-9.39208
yn	-9.39233
▁prevent	-9.39252
▁longer	-9.39345
ane	-9.39456
lea	-9.39476
▁shot	-9.39487
▁September	-9.39496
▁loss	-9.3955
LA	-9.39645
ough	-9.3981
▁included	-9.39834
▁true	-9.39971
▁bank	-9.40031
tim	-9.40055
▁sea	-9.40059
AT	-9.40073
▁band	-9.40116
▁block	-9.40122
vision	-9.40213
▁general	-9.40234
rus	-9.40475
▁eye	-9.40498
▁variety	-9.40606
▁club	-9.40616
▁photograph	-9.40617
vers	-9.40687
▁expert	-9.40709
▁situation	-9.40845
SE	-9.40859
ren	-9.40986
▁war	-9.41024
fu	-9.41109
gene	-9.41113
▁quickly	-9.41226
▁global	-9.41245
▁degree	-9.41247
chi	-9.41261
▁Tuesday	-9.41366
▁window	-9.41422
▁platform	-9.41647
▁subject	-9.41647
▁base	-9.41648
mate	-9.4166
▁Wednesday	-9.41728
ade	-9.4198
▁decided	-9.4199
▁Bra	-9.42017
▁seems	-9.42023
▁leading	-9.42057
▁drink	-9.42069
▁Ni	-9.42211
▁mark	-9.42298
field	-9.42398
▁attack	-9.4246
cept	-9.42461
bin	-9.42493
▁Also	-9.42533
▁shows	-9.42537
▁International	-9.42619
▁train	-9.42683
IT	-9.42835
▁warm	-9.42911
▁collect	-9.42925
top	-9.42927
▁feeling	-9.4295
med	-9.42955
▁direct	-9.42962
▁Group	-9.43005
▁pain	-9.43032
AS	-9.43042
▁respect	-9.43069
▁material	-9.431
pt	-9.43169
▁changes	-9.43274
▁photos	-9.43317
▁text	-9.43354
▁worked	-9.43367
▁guest	-9.43403
▁Plan	-9.43435
▁projects	-9.43462
▁figure	-9.43559
▁providing	-9.436
cer	-9.43619
▁Ru	-9.43693
TO	-9.43738
ung	-9.4383
▁cell	-9.43955
▁easily	-9.4397
▁multi	-9.44045
▁speak	-9.44048
ably	-9.44097
izing	-9.44133
AC	-9.44184
▁Pri	-9.44195
mar	-9.44197
du	-9.44224
▁Mc	-9.44248
▁affect	-9.44427
▁average	-9.44429
▁sell	-9.44624
▁takes	-9.44697
reg	-9.44721
example	-9.44773
ender	-9.44781
ned	-9.44963
▁pack	-9.44982
▁ideas	-9.45044
▁Then	-9.45122
▁cannot	-9.45277
▁usually	-9.45287
vol	-9.45301
cy	-9.45531
▁Google	-9.45633
▁weight	-9.45642
▁East	-9.45671
ette	-9.45686
▁fish	-9.45695
▁higher	-9.45757
▁Facebook	-9.45927
pot	-9.4596
▁setting	-9.45982
ari	-9.46048
ination	-9.4613
▁Business	-9.4618
&	-9.46199
PA	-9.46214
▁difference	-9.46306
cc	-9.46325
▁saw	-9.46371
▁Well	-9.46375
▁hotel	-9.46376
ole	-9.46397
▁books	-9.46403
▁purpose	-9.46433
▁ways	-9.46483
▁woman	-9.46562
▁Any	-9.46638
▁Em	-9.46664
iz	-9.46682
RO	-9.46752
place	-9.46797
▁lost	-9.4684
▁legal	-9.46879
body	-9.46909
▁stage	-9.46977
▁Hi	-9.46985
▁remove	-9.47034
▁parents	-9.47064
▁Q	-9.47081
▁coach	-9.47096
▁race	-9.47153
lon	-9.47202
die	-9.47251
▁damage	-9.47282
▁programs	-9.47342
igh	-9.47475
▁apply	-9.47532
lum	-9.4758
▁mother	-9.47589
▁insurance	-9.47623
▁campaign	-9.47666
▁opt	-9.4781
▁option	-9.47832
▁section	-9.47843
chan	-9.47865
▁Post	-9.47913
▁guide	-9.47967
house	-9.48049
read	-9.4822
▁wood	-9.48402
ense	-9.48414
len	-9.48464
▁word	-9.48499
▁Inter	-9.48533
sha	-9.48617
gn	-9.48762
▁sense	-9.48766
▁built	-9.48784
▁Let	-9.48827
▁bla	-9.48947
▁user	-9.48983
▁PM	-9.49059
▁announced	-9.49066
▁prior	-9.49089
▁sent	-9.49216
▁explain	-9.49261
east	-9.49276
▁maintain	-9.49341
▁goes	-9.49388
▁Out	-9.49415
▁Most	-9.49447
long	-9.49484
▁daily	-9.49524
▁systems	-9.49718
ko	-9.49774
meter	-9.49788
▁session	-9.49788
▁machine	-9.49872
▁involved	-9.50048
▁safety	-9.50063
▁language	-9.50091
▁suit	-9.50102
▁expected	-9.50132
▁exp	-9.50189
roll	-9.50218
▁Port	-9.50222
▁allows	-9.50289
▁develop	-9.50349
tom	-9.50357
▁Star	-9.50443
til	-9.50461
▁Design	-9.50534
room	-9.50587
▁picture	-9.50595
wood	-9.50639
▁released	-9.5069
well	-9.50696
▁pen	-9.5074
▁Green	-9.50753
▁factor	-9.50761
TM	-9.50827
lies	-9.50837
▁certain	-9.5095
▁quick	-9.50954
▁wait	-9.50993
▁serious	-9.51017
www	-9.51027
▁Gi	-9.51043
▁December	-9.5106
▁hear	-9.51088
▁gain	-9.51128
▁teacher	-9.5114
az	-9.51267
DA	-9.5136
▁lower	-9.51366
▁restaurant	-9.51414
▁London	-9.51414
vent	-9.51437
▁myself	-9.51548
▁November	-9.51637
▁See	-9.51683
▁spa	-9.51802
▁pet	-9.51848
▁statement	-9.51849
▁Pu	-9.51849
ica	-9.51929
▁plans	-9.51929
OS	-9.51959
▁notice	-9.52012
▁fill	-9.52101
▁reported	-9.52133
▁investment	-9.52366
▁Play	-9.5239
▁California	-9.52396
▁Over	-9.52443
press	-9.52446
NA	-9.52483
▁sex	-9.52547
▁related	-9.52566
cycle	-9.52595
▁News	-9.52617
▁College	-9.52711
where	-9.52749
like	-9.52777
▁Click	-9.52861
▁fix	-9.52877
▁modern	-9.52892
▁huge	-9.52894
rank	-9.52903
rick	-9.5291
car	-9.52984
▁fe	-9.5304
▁Check	-9.53083
▁player	-9.53126
▁Other	-9.53131
ib	-9.53152
ax	-9.53155
▁giving	-9.53164
▁attention	-9.53207
gue	-9.53242
▁speed	-9.53263
▁cru	-9.53268
▁sale	-9.53327
fect	-9.53328
US	-9.5338
▁anti	-9.53458
▁looks	-9.53556
▁Director	-9.53569
▁families	-9.53615
▁bag	-9.53705
AP	-9.5374
He	-9.5379
▁recipe	-9.53797
▁Up	-9.5391
▁dream	-9.53934
▁para	-9.54034
BC	-9.54107
▁normal	-9.54161
▁rep	-9.54293
wo	-9.54305
▁wine	-9.54325
matic	-9.54487
▁arm	-9.54492
▁condition	-9.54502
▁themselves	-9.54527
▁positive	-9.54527
stone	-9.54545
▁hour	-9.54573
▁planning	-9.546
▁marketing	-9.54657
▁fee	-9.54674
EN	-9.54699
harm	-9.54704
▁benefits	-9.54754
▁Christmas	-9.54758
▁offering	-9.54796
▁instead	-9.54803
profit	-9.54816
view	-9.55003
pon	-9.55006
▁mid	-9.55024
wer	-9.55046
pper	-9.55096
–	-9.55132
get	-9.55148
ific	-9.55192
▁English	-9.55263
ov	-9.55319
eek	-9.55326
▁holiday	-9.55401
▁interview	-9.55601
▁president	-9.55633
▁listen	-9.55639
▁published	-9.55648
▁target	-9.55725
▁digital	-9.55821
▁hands	-9.55894
▁Shi	-9.55945
▁written	-9.55958
▁Service	-9.55998
▁letter	-9.56091
aging	-9.56124
▁India	-9.56163
▁Make	-9.56214
▁played	-9.5623
▁healthy	-9.56276
▁starting	-9.56318
▁solution	-9.56433
struct	-9.56445
▁depend	-9.56555
▁prefer	-9.56568
▁eat	-9.56726
▁Super	-9.56732
fully	-9.56772
▁seven	-9.56784
ties	-9.56803
▁Law	-9.56933
▁Fo	-9.56936
▁roll	-9.57022
ulation	-9.57216
▁patients	-9.57245
▁interested	-9.57365
script	-9.57367
▁baby	-9.57648
▁driver	-9.57724
uk	-9.57732
aw	-9.57969
▁mobile	-9.58024
▁physical	-9.58024
▁trust	-9.58072
▁dry	-9.58128
lay	-9.58191
▁February	-9.58214
jo	-9.58259
▁Since	-9.58372
▁traditional	-9.58411
▁college	-9.58499
acy	-9.58695
hop	-9.58735
▁tools	-9.5874
▁consult	-9.58744
cus	-9.58812
▁bra	-9.58816
▁Ac	-9.58834
▁David	-9.58846
SA	-9.58869
list	-9.58995
▁seek	-9.59018
▁adult	-9.59099
▁quarter	-9.59121
▁drop	-9.59163
▁dress	-9.59309
▁ticket	-9.59313
▁disease	-9.5941
▁completely	-9.59466
▁encourage	-9.59554
illa	-9.59647
down	-9.59652
▁express	-9.59687
▁demand	-9.59752
▁boy	-9.59793
▁annual	-9.59849
▁Even	-9.59885
▁fair	-9.60041
▁Every	-9.60048
▁THE	-9.60052
▁equipment	-9.60182
▁pull	-9.60214
▁Bro	-9.60217
▁policy	-9.60231
▁Book	-9.60331
▁ability	-9.60414
▁foot	-9.60414
▁businesses	-9.60439
▁interesting	-9.60441
▁began	-9.60505
▁Great	-9.60524
ET	-9.60536
▁animal	-9.60576
▁select	-9.60655
▁bill	-9.60684
▁multiple	-9.60688
ency	-9.6069
▁www	-9.60705
▁attract	-9.60729
▁hospital	-9.60766
▁sold	-9.60766
▁slow	-9.608
▁tea	-9.60933
▁highly	-9.60953
▁Program	-9.60981
You	-9.60983
▁stuff	-9.61026
▁particular	-9.61069
▁tree	-9.61075
▁strength	-9.61108
▁payment	-9.61123
▁Ko	-9.61204
▁Cre	-9.61238
▁fans	-9.61335
▁camera	-9.6135
▁sleep	-9.61353
▁response	-9.61402
nce	-9.61437
▁dead	-9.61456
▁wrong	-9.61549
▁blue	-9.61553
bil	-9.61555
lam	-9.61572
▁countries	-9.61575
▁double	-9.616
▁shape	-9.61631
▁mini	-9.61648
▁farm	-9.61677
▁White	-9.61746
▁Ben	-9.61765
▁commercial	-9.61795
load	-9.61805
▁Blue	-9.61808
RI	-9.62052
ular	-9.62254
nc	-9.6229
▁girl	-9.6231
▁avoid	-9.62391
MS	-9.62479
▁culture	-9.62537
▁resources	-9.6273
▁According	-9.62736
▁felt	-9.62739
TH	-9.62758
▁spend	-9.62862
▁Market	-9.62862
▁cross	-9.62944
▁Char	-9.62973
▁refer	-9.63001
▁Why	-9.6303
▁determine	-9.63085
▁manager	-9.63106
▁Year	-9.63138
▁directly	-9.63144
▁Ab	-9.63156
▁Good	-9.63181
▁scene	-9.6319
▁item	-9.63226
▁gave	-9.63305
▁Ke	-9.63307
tire	-9.6335
▁Apple	-9.63375
▁opportunities	-9.63384
VE	-9.6344
▁upon	-9.63448
▁flow	-9.63472
▁stories	-9.63486
▁Trans	-9.63611
▁glass	-9.63686
cho	-9.63724
▁mention	-9.63775
▁essential	-9.63786
▁Tu	-9.63791
▁Once	-9.64047
▁assist	-9.64138
▁miles	-9.64139
▁rock	-9.64161
▁except	-9.64265
tation	-9.64265
CH	-9.64279
▁garden	-9.64341
▁costs	-9.64406
▁agree	-9.64435
▁attempt	-9.64493
▁resident	-9.64772
▁Council	-9.64898
▁correct	-9.64898
▁Best	-9.64955
▁Are	-9.64957
▁Paul	-9.65048
pur	-9.65063
▁materials	-9.65111
▁Services	-9.65159
▁active	-9.65173
dia	-9.65243
▁wonderful	-9.6525
▁itself	-9.65255
▁gold	-9.65295
▁blood	-9.65306
▁drug	-9.65385
can	-9.65543
▁welcome	-9.65561
▁Many	-9.6557
▁dark	-9.65584
arch	-9.65622
right	-9.6564
▁disc	-9.6567
▁soft	-9.65674
▁excellent	-9.65765
▁sweet	-9.65766
▁Mor	-9.65852
burn	-9.65854
▁levels	-9.65871
ement	-9.65935
▁Mac	-9.6595
▁ju	-9.65989
▁element	-9.66027
ID	-9.661
PS	-9.66109
▁necessary	-9.66125
▁Twitter	-9.66125
wn	-9.66201
iti	-9.66211
▁gas	-9.66294
▁wasn	-9.66304
▁structure	-9.66332
▁Ber	-9.66411
▁frame	-9.66459
itch	-9.6648
▁economic	-9.66486
▁saying	-9.66708
▁implement	-9.66744
UN	-9.66827
▁taste	-9.66894
▁describe	-9.66901
▁growing	-9.6699
▁Life	-9.6702
bl	-9.67064
▁creating	-9.67163
▁Game	-9.67182
gent	-9.67222
▁benefit	-9.6737
▁advice	-9.67472
ically	-9.67553
ulate	-9.67603
▁shoot	-9.67631
▁package	-9.67699
▁topic	-9.67702
TA	-9.67705
▁images	-9.67706
▁pop	-9.67835
▁album	-9.67995
▁seat	-9.68051
▁comm	-9.68056
lation	-9.68059
ez	-9.68066
▁Web	-9.68085
▁conduct	-9.68186
▁Photo	-9.68211
▁Last	-9.68322
▁press	-9.68463
▁Association	-9.68468
not	-9.68473
▁pair	-9.68504
▁Each	-9.68516
pen	-9.6854
No	-9.68668
▁wedding	-9.68756
terior	-9.68776
▁mode	-9.68818
▁previous	-9.68822
▁carry	-9.689
▁Road	-9.68934
▁conditions	-9.68972
ino	-9.68981
▁Ph	-9.68998
term	-9.69033
▁types	-9.69109
▁Who	-9.69124
▁thinking	-9.69155
▁doctor	-9.69315
grad	-9.69393
UR	-9.69408
▁invest	-9.69437
▁Award	-9.69556
▁produce	-9.69569
▁Today	-9.696
To	-9.69657
▁reflect	-9.69746
▁pan	-9.69749
q	-9.69842
▁straight	-9.69847
▁Hol	-9.70034
burg	-9.70037
CA	-9.70165
▁William	-9.70168
▁King	-9.70257
▁electric	-9.70329
▁Cr	-9.70331
py	-9.70352
▁Ge	-9.70383
▁fail	-9.70386
rack	-9.70453
▁System	-9.7049
▁fully	-9.7061
▁ob	-9.70627
▁Ste	-9.70691
▁sometimes	-9.70717
▁kitchen	-9.70974
▁became	-9.70976
EC	-9.70979
elect	-9.71018
▁Canada	-9.71029
▁station	-9.71095
▁spent	-9.7113
▁occur	-9.71138
bra	-9.71142
▁button	-9.71147
▁eight	-9.71192
▁cancer	-9.71231
▁Will	-9.71292
▁street	-9.71301
▁confirm	-9.71313
▁Class	-9.7146
▁led	-9.71497
vin	-9.71574
▁Court	-9.71582
▁Board	-9.71678
▁conference	-9.71842
▁complex	-9.71843
▁heard	-9.71857
▁stress	-9.71894
▁sort	-9.71906
▁towards	-9.71969
▁reveal	-9.72011
▁limit	-9.72028
hum	-9.7211
strict	-9.7222
▁Wal	-9.72227
hood	-9.7229
▁Have	-9.72337
▁solutions	-9.72344
bri	-9.72368
▁Hill	-9.72379
uring	-9.72427
▁employees	-9.72435
ush	-9.72472
▁nation	-9.72483
▁voice	-9.72502
atory	-9.72675
▁Research	-9.72718
teen	-9.72763
Ch	-9.72855
▁paint	-9.72928
▁China	-9.7295
TE	-9.73051
▁Ann	-9.73059
▁cha	-9.73085
wel	-9.73091
▁Public	-9.73159
NE	-9.73166
app	-9.73216
▁fat	-9.73409
▁Den	-9.73463
▁comments	-9.7359
▁pictures	-9.73632
▁wonder	-9.73689
cial	-9.73694
▁consumer	-9.73785
▁Reg	-9.73789
▁Indian	-9.73836
▁Min	-9.73843
▁progress	-9.73879
bro	-9.73935
▁weather	-9.73936
▁requirements	-9.73965
▁limited	-9.73973
▁fan	-9.74057
▁Nor	-9.74091
▁respond	-9.74101
▁loved	-9.74397
▁sugar	-9.74405
ME	-9.74442
ili	-9.74549
▁Michael	-9.74604
▁Washington	-9.74604
▁tried	-9.74627
▁Find	-9.74638
▁Science	-9.7466
NY	-9.74697
new	-9.74779
▁Open	-9.74782
▁launch	-9.7481
!!	-9.74828
▁Bur	-9.74853
▁feet	-9.74879
▁colour	-9.74887
▁Gold	-9.75204
▁About	-9.75308
▁finally	-9.75321
▁Vo	-9.75398
▁daughter	-9.75448
▁Internet	-9.7552
▁developed	-9.75601
▁budget	-9.75617
yl	-9.75651
▁stick	-9.75681
▁goals	-9.75707
▁ban	-9.75709
▁aim	-9.75763
▁handle	-9.75817
▁estate	-9.75837
▁Product	-9.75839
ram	-9.75843
ou	-9.75855
▁Bill	-9.75912
▁finding	-9.75948
ending	-9.75963
▁Ken	-9.75973
hol	-9.76005
▁turned	-9.76034
▁maybe	-9.76045
▁moving	-9.76049
▁wrote	-9.76071
ological	-9.76085
▁Sch	-9.76159
▁spoke	-9.76205
▁Sal	-9.76342
▁Bel	-9.76452
▁AM	-9.76458
▁task	-9.76538
▁internet	-9.76558
▁nature	-9.76562
▁bus	-9.76575
▁church	-9.76584
friendly	-9.76775
▁European	-9.76798
▁push	-9.76814
▁connection	-9.76904
▁path	-9.76908
BA	-9.76975
▁communication	-9.76985
▁Club	-9.77043
▁billion	-9.77117
▁officer	-9.7712
▁brought	-9.77157
▁Thank	-9.77167
▁client	-9.77264
▁definitely	-9.77272
cha	-9.7732
▁terms	-9.77329
AND	-9.77332
▁decor	-9.77345
▁pattern	-9.77387
rig	-9.7742
gal	-9.77474
▁arrive	-9.77562
▁Windows	-9.77675
▁expand	-9.77782
▁James	-9.778
▁beginning	-9.77837
▁south	-9.77909
▁Real	-9.77929
▁throw	-9.78038
avi	-9.7807
▁nearly	-9.78104
▁pressure	-9.78115
▁advantage	-9.78138
▁thousand	-9.78138
aff	-9.7822
▁Col	-9.78224
▁Love	-9.78375
▁activity	-9.78497
▁Thanks	-9.7858
▁cold	-9.78609
bound	-9.7862
▁balance	-9.78664
▁Learn	-9.78673
▁Review	-9.78694
vid	-9.78726
▁opening	-9.7878
tech	-9.78834
▁repair	-9.78851
▁secure	-9.78903
▁General	-9.78904
▁concept	-9.78904
wan	-9.78907
▁wife	-9.78956
ball	-9.79008
Mo	-9.79037
▁camp	-9.79041
▁construction	-9.79105
CE	-9.79129
▁spring	-9.79152
▁delivery	-9.79325
▁plus	-9.79375
▁exactly	-9.79384
▁CO	-9.79588
▁eyes	-9.79687
col	-9.79706
▁provider	-9.79723
▁suffer	-9.79726
▁overall	-9.79809
▁classic	-9.79875
▁temperature	-9.79894
▁cash	-9.79895
▁ref	-9.79909
▁trail	-9.79911
MP	-9.80273
▁loan	-9.80289
▁Call	-9.80386
▁political	-9.80427
▁creative	-9.80429
▁Lake	-9.80478
▁promote	-9.80491
▁bat	-9.80493
▁retail	-9.80536
HA	-9.80546
▁prove	-9.80568
▁offered	-9.80611
oper	-9.80722
▁Education	-9.80784
▁transfer	-9.80807
ural	-9.80886
▁Church	-9.80903
hr	-9.81083
pla	-9.81133
▁senior	-9.81142
▁Take	-9.81153
▁RE	-9.8123
▁Exp	-9.81243
▁tend	-9.81283
▁Top	-9.81309
▁Texas	-9.81322
▁talent	-9.81388
▁Europe	-9.8141
▁Cap	-9.81417
▁Water	-9.81446
hel	-9.81454
play	-9.81501
▁basic	-9.81594
zi	-9.8166
▁Power	-9.81842
▁surprise	-9.81862
IP	-9.81866
▁girls	-9.81905
▁Big	-9.81915
iff	-9.81977
urge	-9.82034
▁bottom	-9.82043
▁enable	-9.82089
▁ahead	-9.82192
▁Cal	-9.82206
▁length	-9.82224
▁largest	-9.82271
▁Fla	-9.82278
▁dating	-9.82304
▁CA	-9.82305
▁selection	-9.82513
IA	-9.8255
pre	-9.82579
▁exercise	-9.82709
▁Although	-9.82709
▁coffee	-9.8277
▁excited	-9.8277
▁kill	-9.82843
cultural	-9.82892
▁surface	-9.82896
head	-9.82931
how	-9.83026
▁paid	-9.83109
▁audience	-9.83379
phy	-9.8341
▁father	-9.83509
ivity	-9.83525
▁served	-9.83551
▁technique	-9.83563
gate	-9.83574
▁Show	-9.8363
▁understanding	-9.83724
▁Florida	-9.83747
▁Bank	-9.8379
run	-9.83803
ik	-9.83833
▁earlier	-9.83931
town	-9.84053
▁extend	-9.84058
RS	-9.84076
▁Dan	-9.84196
▁Sam	-9.8421
▁north	-9.84294
▁direction	-9.84302
Th	-9.84393
▁Bay	-9.84486
▁enhance	-9.84486
▁fruit	-9.84491
▁grant	-9.84509
free	-9.84542
An	-9.8457
▁competition	-9.8461
▁sports	-9.84698
▁load	-9.84724
▁husband	-9.84795
▁science	-9.84858
nov	-9.84906
▁ride	-9.84916
▁lack	-9.84939
OL	-9.85067
point	-9.85248
▁desire	-9.85308
box	-9.85367
▁View	-9.85377
mond	-9.85408
▁candidate	-9.85418
▁comfortable	-9.85425
▁dish	-9.85455
oke	-9.856
LO	-9.85641
▁easier	-9.8573
▁movement	-9.85767
▁truly	-9.85793
mmer	-9.85876
▁driving	-9.85918
▁wind	-9.85971
▁Look	-9.85999
AD	-9.86069
▁Jan	-9.86222
▁panel	-9.86232
▁ideal	-9.86443
▁grand	-9.86475
hen	-9.8663
▁named	-9.86709
▁River	-9.86739
▁Va	-9.86787
▁Fire	-9.86818
▁guarantee	-9.86863
▁Management	-9.86863
▁separate	-9.86864
!!!	-9.869
▁fashion	-9.8699
ju	-9.87007
▁comfort	-9.8711
▁knew	-9.8712
▁map	-9.87174
ought	-9.87211
▁sector	-9.87345
▁micro	-9.87348
Co	-9.87366
▁def	-9.87411
▁experienced	-9.87466
bal	-9.87488
▁considered	-9.87524
▁chair	-9.87547
▁pool	-9.87575
▁Camp	-9.8762
▁inform	-9.87675
▁responsible	-9.8769
hole	-9.87755
yard	-9.87768
▁passion	-9.87786
▁Tom	-9.87838
▁dance	-9.87918
ich	-9.87942
▁Care	-9.87991
▁PC	-9.88016
▁Project	-9.88074
rated	-9.88083
ised	-9.8814
▁evening	-9.88166
▁manage	-9.88189
lia	-9.88219
For	-9.88229
▁decade	-9.88331
▁sit	-9.88424
▁initial	-9.88493
▁exist	-9.88585
▁analysis	-9.88587
▁volunteer	-9.88652
▁adjust	-9.88657
▁wild	-9.8866
▁highest	-9.8869
▁alone	-9.88714
▁storage	-9.88717
▁certainly	-9.88749
:||	-9.88756
AM	-9.88762
key	-9.88766
▁Music	-9.88885
▁explore	-9.88914
ken	-9.88952
lish	-9.88966
▁mission	-9.88966
▁Gar	-9.89054
▁talking	-9.89072
▁Part	-9.89101
▁introduce	-9.89169
▁Mill	-9.89198
▁finished	-9.89264
cro	-9.89312
lb	-9.89337
▁immediately	-9.89363
▁Mont	-9.89413
▁helping	-9.89417
▁himself	-9.89493
▁Ya	-9.89546
▁trend	-9.8956
▁Dec	-9.89575
▁Like	-9.89678
▁Team	-9.89708
▁powerful	-9.89735
▁winter	-9.89896
▁completed	-9.89908
▁honor	-9.89952
oon	-9.89976
▁Island	-9.90009
▁smooth	-9.90015
▁department	-9.90211
▁Robert	-9.90288
rum	-9.90293
CC	-9.90301
▁Right	-9.90306
▁patient	-9.90374
aries	-9.90417
▁meaning	-9.90471
▁Community	-9.90473
▁realize	-9.90509
▁Del	-9.90558
▁Mark	-9.90569
▁beat	-9.90627
▁meal	-9.9072
▁traffic	-9.90736
▁Spa	-9.90743
▁background	-9.90779
▁During	-9.9078
▁Christ	-9.9087
▁District	-9.90956
▁Sun	-9.90966
▁allowed	-9.90976
▁posted	-9.91024
▁hat	-9.91039
De	-9.91083
▁People	-9.91198
▁French	-9.91264
Con	-9.91313
▁Rock	-9.91374
maker	-9.9145
▁supply	-9.91463
▁tips	-9.91479
▁Australia	-9.91483
▁proud	-9.91484
▁journey	-9.91595
▁Mary	-9.9161
ctic	-9.91651
▁spread	-9.91687
▁beyond	-9.91728
If	-9.91821
▁master	-9.91856
▁opinion	-9.91861
IL	-9.9189
▁Company	-9.91928
▁Lab	-9.91942
MO	-9.92005
▁looked	-9.92022
▁salt	-9.92026
▁federal	-9.92061
▁middle	-9.9207
▁rain	-9.92111
EL	-9.92155
▁protection	-9.92275
▁obtain	-9.92419
▁rich	-9.92475
▁essay	-9.9253
▁tap	-9.92734
▁Information	-9.92797
▁Cur	-9.92799
tail	-9.92844
▁cream	-9.92877
FA	-9.92959
▁Special	-9.9308
▁Chi	-9.93238
▁Men	-9.93258
but	-9.9326
▁Contact	-9.93269
▁Note	-9.93364
▁couldn	-9.93389
▁changed	-9.93447
▁Qui	-9.93482
▁graduate	-9.93607
▁rid	-9.9367
▁district	-9.93776
gri	-9.93821
publish	-9.93856
▁monitor	-9.93878
▁independent	-9.93999
▁profile	-9.94014
▁replace	-9.94052
▁discussion	-9.94118
▁born	-9.94183
▁writer	-9.94209
▁agent	-9.94281
▁secret	-9.94287
▁appropriate	-9.94304
▁Mil	-9.94314
▁winner	-9.94323
organ	-9.94324
cious	-9.94342
▁Wood	-9.9436
▁Online	-9.94413
▁flu	-9.94478
▁highlight	-9.94561
DE	-9.94656
arian	-9.94689
▁egg	-9.94703
▁Peter	-9.94734
▁Police	-9.94766
▁Light	-9.94823
bird	-9.94883
▁USA	-9.94918
▁corner	-9.94974
ache	-9.94995
▁celebrate	-9.95039
▁iPhone	-9.95039
▁craft	-9.95123
▁mine	-9.9516
ibility	-9.95177
▁metal	-9.9526
▁Hall	-9.95287
PR	-9.9529
▁procedure	-9.95314
gram	-9.95316
▁catch	-9.95368
▁Two	-9.95379
▁occasion	-9.95383
▁League	-9.95383
▁relax	-9.95453
▁Pen	-9.95496
itive	-9.95502
▁accident	-9.95521
mouth	-9.95683
▁moved	-9.95715
ison	-9.95723
acc	-9.95756
▁shopping	-9.95818
BS	-9.9585
▁Spring	-9.95939
▁onto	-9.95973
▁copy	-9.96068
▁peace	-9.96079
bel	-9.96179
▁motor	-9.96229
EA	-9.96255
round	-9.96294
▁increased	-9.96294
▁whose	-9.96369
▁butter	-9.96386
▁invite	-9.96446
▁brother	-9.96494
▁minute	-9.96523
▁reserve	-9.966
active	-9.96661
▁Smith	-9.96774
▁object	-9.96776
▁Food	-9.96809
▁Sho	-9.9681
▁increasing	-9.96842
▁Hotel	-9.96915
▁operate	-9.96985
lev	-9.96996
rist	-9.97023
▁basis	-9.97024
▁Cla	-9.97108
▁Obama	-9.97122
NS	-9.97307
HO	-9.97504
▁hundred	-9.97544
▁generation	-9.97545
▁outdoor	-9.97545
▁Under	-9.97557
▁Phil	-9.9759
▁capital	-9.97614
OW	-9.97725
▁aspect	-9.97852
▁Foundation	-9.97871
▁advance	-9.97924
lig	-9.97959
▁biggest	-9.97968
▁breath	-9.98038
▁edge	-9.98061
▁poor	-9.98075
▁Student	-9.98109
TS	-9.98136
▁Family	-9.9818
▁beauty	-9.9818
▁gone	-9.98256
▁List	-9.98302
▁critical	-9.98309
▁Back	-9.98369
▁communities	-9.98392
▁Set	-9.98515
▁dollar	-9.98537
SO	-9.98645
bar	-9.98711
▁particularly	-9.98804
▁technical	-9.9882
NC	-9.98861
▁dedicated	-9.98891
▁dinner	-9.98892
▁jump	-9.98937
▁Sea	-9.99017
▁Central	-9.99034
▁cheap	-9.9904
vy	-9.99092
zo	-9.99186
▁Brown	-9.99193
▁Custom	-9.99249
▁decide	-9.99286
▁whi	-9.99339
▁prop	-9.99474
▁existing	-9.99482
loc	-9.99484
▁extremely	-9.99529
▁alternative	-9.99608
▁license	-9.9961
SC	-9.99662
What	-9.99682
▁bowl	-9.99684
▁beach	-9.9973
▁journal	-9.99752
▁heavy	-9.99753
▁solid	-9.99769
▁remind	-9.99775
▁server	-9.99802
▁classes	-9.9982
▁format	-9.99836
▁British	-9.99896
life	-9.9993
nie	-10.0001
ique	-10.0002
▁stream	-10.0002
▁conversation	-10.0004
▁Institute	-10.0004
▁election	-10.0012
cap	-10.0015
▁although	-10.0018
shirt	-10.0036
vic	-10.0044
▁happened	-10.0059
▁Because	-10.0062
▁regarding	-10.0074
▁kick	-10.0079
▁fear	-10.0082
▁Follow	-10.0098
▁sister	-10.01
▁teaching	-10.0112
▁error	-10.0113
gle	-10.0119
uction	-10.0122
▁brain	-10.0125
▁Auto	-10.0134
▁Pay	-10.0136
▁diet	-10.0142
▁shared	-10.0151
▁edit	-10.0188
▁skill	-10.0198
▁regard	-10.0212
pan	-10.0214
▁Scott	-10.0218
▁trial	-10.0218
▁fabric	-10.0223
angle	-10.0244
▁switch	-10.0245
▁constant	-10.0245
▁flat	-10.0247
▁Place	-10.026
verse	-10.0261
▁Report	-10.0263
▁compared	-10.0274
▁exchange	-10.0275
▁luck	-10.028
▁strategy	-10.0282
▁followed	-10.0288
▁Nu	-10.0289
▁layer	-10.0298
▁kid	-10.03
▁lose	-10.0305
▁IT	-10.0311
▁bright	-10.0311
▁gather	-10.0313
▁threat	-10.0325
care	-10.0335
radi	-10.0338
▁Data	-10.0339
▁Full	-10.034
CT	-10.034
▁influence	-10.0342
▁Christian	-10.0346
▁shown	-10.0346
▁channel	-10.0349
▁forget	-10.0353
▁participate	-10.0357
▁England	-10.0357
▁Martin	-10.0359
▁gun	-10.036
force	-10.0367
▁continued	-10.0372
▁waiting	-10.0378
duct	-10.0382
▁boat	-10.0391
hill	-10.0392
▁military	-10.0394
range	-10.0403
▁quote	-10.0417
!)	-10.0444
▁feed	-10.0445
▁Download	-10.0448
▁appreciate	-10.0455
▁transform	-10.0472
▁executive	-10.0477
▁Date	-10.0483
▁centre	-10.0491
▁involve	-10.0492
▁Development	-10.0493
▁bedroom	-10.05
ike	-10.0508
take	-10.051
▁smart	-10.0523
▁promise	-10.0523
▁facilities	-10.053
▁income	-10.0531
▁kept	-10.0538
▁learned	-10.0538
▁serving	-10.0545
▁menu	-10.0545
▁visual	-10.0546
ella	-10.056
▁novel	-10.056
▁flavor	-10.0561
▁watching	-10.0572
▁Steve	-10.0575
road	-10.0585
uce	-10.0587
▁Sign	-10.0591
UT	-10.0593
▁improvement	-10.0597
▁larger	-10.0607
▁Watch	-10.0611
▁Pan	-10.0612
▁studies	-10.0615
▁Sub	-10.0622
▁environmental	-10.0623
▁sponsor	-10.063
▁consist	-10.0634
berg	-10.0639
▁equal	-10.0642
▁shipping	-10.0646
▁population	-10.0646
▁famous	-10.0653
▁Week	-10.0657
▁football	-10.0669
▁recognize	-10.067
tribute	-10.0673
▁Tour	-10.0678
ji	-10.0682
▁medium	-10.0684
▁Miss	-10.0685
▁covered	-10.0691
▁relative	-10.0692
Be	-10.0704
▁engage	-10.0722
▁bike	-10.0722
▁sauce	-10.0731
under	-10.0739
▁instruction	-10.0747
▁becoming	-10.0758
▁snow	-10.076
▁exam	-10.0764
▁listed	-10.0764
lab	-10.0775
▁primary	-10.0777
▁survey	-10.0785
▁sample	-10.0785
▁Join	-10.0785
▁useful	-10.0792
▁truck	-10.0793
▁closed	-10.0802
▁rise	-10.0802
psych	-10.0804
There	-10.0804
pho	-10.0811
▁evidence	-10.0816
▁adding	-10.0824
cular	-10.0828
ux	-10.0829
▁Val	-10.083
employ	-10.0834
▁Ven	-10.0837
dding	-10.0838
▁component	-10.084
▁Commission	-10.085
▁bought	-10.0853
ounce	-10.0854
▁Dia	-10.0854
▁exclusive	-10.0855
▁arrest	-10.0856
craft	-10.0863
So	-10.0863
▁developing	-10.087
▁capture	-10.0876
▁Alex	-10.0877
▁chocolate	-10.0879
▁poll	-10.0881
stand	-10.0884
SP	-10.0886
▁passed	-10.0887
▁established	-10.0888
▁blend	-10.089
eng	-10.0891
▁Press	-10.0892
▁hang	-10.0895
▁Beach	-10.0897
▁raise	-10.0899
▁associated	-10.0899
▁exciting	-10.0903
▁older	-10.0906
word	-10.0914
▁Chicago	-10.0919
▁status	-10.0919
Fi	-10.0924
▁George	-10.0927
▁route	-10.0929
▁flight	-10.093
▁Price	-10.0931
▁opened	-10.0931
▁efficient	-10.0942
▁leaving	-10.095
▁Cup	-10.0953
▁Tru	-10.0966
▁identify	-10.0966
▁Grand	-10.0977
▁fly	-10.0989
▁agreement	-10.0994
▁Member	-10.0998
▁Jesus	-10.0999
▁institution	-10.1
ider	-10.1002
▁combination	-10.1006
augh	-10.1007
mount	-10.1011
CO	-10.1027
▁Media	-10.1027
PE	-10.1028
▁pitch	-10.1037
▁Master	-10.1041
▁episode	-10.1054
▁sharing	-10.1071
▁perhaps	-10.1078
▁label	-10.109
▁rare	-10.1095
▁produced	-10.1098
▁broad	-10.1098
shire	-10.1105
▁horse	-10.112
ancy	-10.1124
▁plenty	-10.1126
▁Start	-10.1137
agon	-10.1138
▁whatever	-10.115
▁grade	-10.115
▁presented	-10.1151
▁battle	-10.1153
▁editor	-10.1157
▁CEO	-10.1159
▁sexual	-10.1162
▁Chris	-10.1172
▁obvious	-10.1175
▁yesterday	-10.1175
▁installation	-10.1185
▁shall	-10.1192
▁cheese	-10.12
▁Centre	-10.12
▁entry	-10.1202
▁wheel	-10.1208
▁awesome	-10.1216
▁properties	-10.1216
made	-10.1227
▁Cat	-10.1231
▁Final	-10.1235
▁Keep	-10.1235
look	-10.1235
oma	-10.1239
▁spin	-10.1242
▁testing	-10.1243
▁tough	-10.1272
▁arrange	-10.1274
▁Head	-10.1274
char	-10.1275
▁commitment	-10.1289
▁Network	-10.1289
▁lunch	-10.129
▁mental	-10.1302
▁greater	-10.1311
▁OF	-10.1313
▁appearance	-10.1317
proof	-10.1324
Pro	-10.1325
hur	-10.1327
▁guess	-10.1332
▁Valley	-10.1333
wise	-10.1352
▁numerous	-10.1355
▁defend	-10.1362
▁Social	-10.1363
▁memory	-10.1372
▁Another	-10.138
ffer	-10.1383
source	-10.1388
▁adopt	-10.139
▁reference	-10.1394
ku	-10.1395
▁Support	-10.1397
▁Long	-10.1401
▁Wheth	-10.1408
▁Way	-10.1413
▁radio	-10.1416
▁updated	-10.1419
▁counter	-10.1421
▁saving	-10.1423
▁Gri	-10.1425
cut	-10.1426
Tech	-10.1432
▁kit	-10.1432
▁raised	-10.1445
▁Rob	-10.1455
▁detail	-10.1462
OM	-10.1462
▁facility	-10.1463
ENT	-10.1493
phone	-10.1497
print	-10.1508
▁mom	-10.1512
▁economy	-10.1522
OP	-10.1525
▁pepper	-10.1539
poli	-10.1543
▁workers	-10.1548
ncy	-10.1555
▁appointment	-10.1556
▁admit	-10.1559
▁attorney	-10.1564
▁studio	-10.1564
▁spending	-10.1565
▁contribute	-10.1569
▁trouble	-10.1573
law	-10.1577
GE	-10.1579
▁programme	-10.1579
▁brown	-10.1581
even	-10.1584
▁selected	-10.16
▁Both	-10.1608
now	-10.1626
▁academic	-10.164
▁chicken	-10.164
▁reality	-10.1641
▁desk	-10.1642
▁truth	-10.1649
▁Louis	-10.1649
inch	-10.1672
▁square	-10.1675
▁Next	-10.1675
ddle	-10.1681
▁Pra	-10.1682
hal	-10.1683
▁Trump	-10.1686
▁sport	-10.169
blo	-10.1692
▁Help	-10.1693
GB	-10.1693
gro	-10.1698
▁establish	-10.1699
▁central	-10.1709
▁Africa	-10.1711
▁Chinese	-10.1717
▁injury	-10.1717
▁organize	-10.1725
▁Israel	-10.1726
▁Jack	-10.1731
▁afternoon	-10.1735
▁victim	-10.1752
▁bottle	-10.1752
▁boot	-10.1756
▁actual	-10.1757
strat	-10.1758
▁plastic	-10.1778
▁faith	-10.1786
▁ultimate	-10.1795
therapy	-10.1798
▁Women	-10.1812
▁adapt	-10.1812
▁focused	-10.1814
▁Qua	-10.1816
▁prepare	-10.1821
▁coverage	-10.1822
▁chat	-10.1823
ground	-10.1829
▁Visit	-10.1831
▁Where	-10.1839
ulator	-10.184
▁judge	-10.1847
▁settle	-10.1847
SU	-10.1853
▁Plus	-10.1859
▁scar	-10.1862
▁virtual	-10.1864
▁parties	-10.1865
gel	-10.187
heat	-10.1872
▁funding	-10.1873
TC	-10.1877
▁manufacturer	-10.1883
▁meat	-10.1884
▁crowd	-10.189
▁Wall	-10.1893
hand	-10.1895
▁France	-10.1899
▁prepared	-10.1899
▁painting	-10.1902
IG	-10.1906
▁slightly	-10.1908
▁Land	-10.1912
front	-10.1913
▁discount	-10.1918
▁distance	-10.1925
▁magic	-10.1929
▁fuel	-10.1935
▁female	-10.1943
▁nine	-10.1954
▁Mike	-10.1956
▁bio	-10.1956
lastname	-10.1961
▁Angeles	-10.1972
▁Sand	-10.1974
▁Town	-10.1979
▁Live	-10.198
▁Ly	-10.198
▁Video	-10.1987
mph	-10.1988
▁Matt	-10.1996
crib	-10.1997
▁Amazon	-10.2004
▁capacity	-10.2004
▁Jim	-10.2011
New	-10.2024
▁Pet	-10.2027
▁Lord	-10.2029
▁Page	-10.2034
▁honest	-10.204
▁Manager	-10.204
▁teach	-10.2045
ographic	-10.2045
▁define	-10.2047
▁designer	-10.2056
EM	-10.2062
▁appeal	-10.2067
▁Medical	-10.2067
▁Def	-10.2074
▁hearing	-10.2076
▁leadership	-10.2081
▁roof	-10.2085
▁developer	-10.2089
▁signed	-10.2091
water	-10.2095
▁workshop	-10.2095
▁visitors	-10.2106
▁Microsoft	-10.2111
▁plate	-10.2117
name	-10.2121
▁Minister	-10.2122
▁tight	-10.2128
▁McC	-10.2128
▁Frank	-10.2132
▁partnership	-10.2136
▁previously	-10.2149
▁allowing	-10.2152
▁Conference	-10.2155
▁electronic	-10.2155
▁busy	-10.2159
▁putting	-10.2173
▁Garden	-10.2176
rator	-10.2176
DC	-10.219
BI	-10.2197
▁Form	-10.2203
▁expensive	-10.2209
▁magazine	-10.2209
▁HD	-10.2212
▁Guide	-10.2218
▁cloud	-10.2219
▁selling	-10.2219
▁pump	-10.2224
▁indicate	-10.2235
▁Museum	-10.2236
▁operating	-10.2237
▁advanced	-10.2242
▁wrap	-10.2245
▁adventure	-10.2245
▁fantastic	-10.2245
cit	-10.2254
▁delicious	-10.2263
iness	-10.2265
▁investigation	-10.2273
▁presentation	-10.2273
ALL	-10.228
▁Hand	-10.228
▁revenue	-10.2282
When	-10.2285
▁managed	-10.2286
▁Technology	-10.23
▁fold	-10.2314
▁apartment	-10.2319
▁earth	-10.2321
▁eating	-10.2332
▁Richard	-10.2336
away	-10.2341
▁worry	-10.2345
Qu	-10.2349
▁detect	-10.2349
▁joined	-10.2361
▁tie	-10.2365
▁Key	-10.2369
“	-10.2381
▁neck	-10.2385
known	-10.2388
▁Before	-10.2391
▁milk	-10.2395
Lo	-10.2399
▁Government	-10.24
▁agency	-10.2402
▁Nov	-10.2403
▁library	-10.2419
GA	-10.2422
▁filled	-10.2424
▁mountain	-10.2428
▁caused	-10.243
▁Tim	-10.2437
▁incident	-10.2437
▁Fri	-10.2439
wide	-10.2442
▁Society	-10.2455
▁frequent	-10.2455
▁Children	-10.2456
▁lift	-10.2457
▁Sale	-10.2461
OT	-10.2465
▁volume	-10.2465
▁predict	-10.2476
▁furniture	-10.2483
▁hyp	-10.2484
▁broke	-10.2488
▁bas	-10.2491
▁Invest	-10.2493
▁YOU	-10.2493
▁generate	-10.2495
▁Know	-10.2509
▁bathroom	-10.2512
▁Ku	-10.2513
▁behavior	-10.252
lick	-10.2524
▁emergency	-10.253
▁chart	-10.2531
▁steel	-10.2531
▁root	-10.2531
mile	-10.2533
▁cake	-10.2535
▁Through	-10.2539
▁Union	-10.2545
▁assistance	-10.2545
▁Cook	-10.2548
▁fourth	-10.2552
▁thick	-10.256
▁chain	-10.2565
▁rating	-10.2567
▁boost	-10.2577
▁hire	-10.2577
most	-10.2584
▁changing	-10.2595
▁shift	-10.2604
▁crime	-10.2605
▁coast	-10.2608
▁absolutely	-10.2617
▁finger	-10.2622
▁Han	-10.2624
▁committed	-10.2632
▁corporate	-10.2642
▁extensive	-10.2642
empt	-10.2656
▁educational	-10.2665
▁register	-10.2686
▁society	-10.2689
ATE	-10.2692
▁Journal	-10.2698
▁Van	-10.2717
▁century	-10.2717
▁inspired	-10.2721
BO	-10.2722
▁tag	-10.2725
▁Kar	-10.2726
▁relevant	-10.2727
▁Chief	-10.2729
cm	-10.2732
▁transport	-10.2734
▁defense	-10.2737
▁citizen	-10.2755
▁stretch	-10.2755
▁Pack	-10.2756
▁Hospital	-10.2765
▁negative	-10.2765
▁expertise	-10.2769
▁spirit	-10.2773
▁chip	-10.2776
▁contest	-10.2784
▁Off	-10.2788
VA	-10.2791
▁approximately	-10.2793
▁laugh	-10.2795
▁Posted	-10.2797
▁killed	-10.2797
▁Committee	-10.2803
▁Android	-10.2803
▁Rose	-10.2804
▁presence	-10.2804
▁sat	-10.2807
▁doubt	-10.2813
▁missing	-10.2817
lap	-10.2821
▁shut	-10.2831
▁Security	-10.286
▁helpful	-10.2861
▁fellow	-10.2863
▁Republican	-10.287
▁despite	-10.287
▁chemical	-10.287
ector	-10.2883
▁Old	-10.289
▁lawyer	-10.2901
SH	-10.2905
▁icon	-10.2911
▁parent	-10.2915
▁launched	-10.2921
▁plug	-10.2931
▁surrounding	-10.2934
▁practical	-10.2957
▁initiative	-10.2957
▁Wild	-10.2965
▁upcoming	-10.2968
▁internal	-10.2971
▁submit	-10.2977
war	-10.2985
▁maintenance	-10.2986
▁upgrade	-10.2992
▁competitive	-10.2996
▁registered	-10.2999
▁innovative	-10.3006
▁Australian	-10.3012
member	-10.3032
▁generally	-10.3048
▁Step	-10.3056
▁struggle	-10.3064
▁advise	-10.3067
▁Coll	-10.308
▁experiment	-10.3084
you	-10.3084
▁Series	-10.3105
▁birthday	-10.3105
▁Cho	-10.3107
▁confidence	-10.3123
▁confident	-10.3143
▁proper	-10.3145
▁firstname	-10.3151
▁Test	-10.3151
depth	-10.3152
▁chapter	-10.3153
FC	-10.3162
▁insight	-10.3163
▁climate	-10.3163
▁database	-10.3173
▁brief	-10.3173
▁Thomas	-10.3173
▁Event	-10.3176
LL	-10.3182
▁audio	-10.3184
flow	-10.3188
▁Sports	-10.3189
▁Festival	-10.3193
▁Congress	-10.3196
▁Fall	-10.3202
▁village	-10.3203
▁filter	-10.3203
▁Drive	-10.321
▁Search	-10.3226
▁strip	-10.3227
▁Opera	-10.3228
▁breakfast	-10.3232
▁television	-10.3233
▁Joe	-10.3236
OK	-10.3237
▁Oct	-10.3241
▁Fair	-10.3243
▁Sep	-10.3244
▁Fund	-10.3246
▁Hope	-10.3249
▁strike	-10.3274
▁wave	-10.3275
EST	-10.3278
▁married	-10.3283
▁Update	-10.3286
▁demonstrate	-10.3292
▁Japan	-10.3295
▁responsibility	-10.3303
▁repeat	-10.3309
▁Engineer	-10.3313
▁Buy	-10.3317
▁totally	-10.3319
▁cities	-10.332
lake	-10.3329
▁accurate	-10.3333
▁integrate	-10.3333
▁command	-10.334
▁German	-10.3348
▁NOT	-10.3367
▁promotion	-10.3373
▁clearly	-10.3376
▁chief	-10.3383
Com	-10.3389
▁Western	-10.3395
▁cookie	-10.3413
▁civil	-10.3414
▁Energy	-10.3424
▁Vol	-10.3427
▁consistent	-10.3452
.....	-10.3453
▁Earth	-10.3465
▁Coast	-10.3466
▁Night	-10.3468
stitution	-10.3471
▁detailed	-10.3488
▁Comment	-10.3495
▁Brand	-10.3496
▁feedback	-10.3496
▁speaker	-10.3497
▁Access	-10.3497
▁joy	-10.3498
▁anywhere	-10.3501
▁Run	-10.3504
abilities	-10.3505
▁Low	-10.3506
▁Tro	-10.351
▁Type	-10.3516
▁Farm	-10.352
▁reward	-10.3522
▁dig	-10.3541
▁campus	-10.3542
▁African	-10.3544
▁birth	-10.3545
EE	-10.3546
▁sitting	-10.3554
▁Queen	-10.3565
▁foundation	-10.3567
▁combined	-10.357
▁Share	-10.3571
▁caught	-10.3578
▁majority	-10.3578
▁Link	-10.3584
▁Library	-10.3588
▁Additional	-10.3588
quest	-10.3598
▁suspect	-10.3598
▁Code	-10.3602
▁protein	-10.3609
▁therefore	-10.3609
▁Cru	-10.3612
▁rub	-10.3617
▁habit	-10.3622
▁debt	-10.3632
▁Those	-10.3634
▁marriage	-10.364
▁Mountain	-10.364
▁delight	-10.3642
astic	-10.3651
RC	-10.3653
▁Using	-10.3658
▁Give	-10.3665
▁sad	-10.3667
plan	-10.3678
▁maximum	-10.3681
claim	-10.3689
▁Maybe	-10.3689
▁Paris	-10.3702
ography	-10.3704
▁worldwide	-10.3706
▁Jeff	-10.3711
▁processes	-10.3717
▁alcohol	-10.3723
▁league	-10.3723
▁regulation	-10.3723
▁golf	-10.3729
▁inspiration	-10.3734
pha	-10.3734
▁ourselves	-10.3744
▁scan	-10.3751
▁bond	-10.3753
▁category	-10.3755
▁organisation	-10.3755
▁instance	-10.3756
▁Jones	-10.3757
▁quiet	-10.3767
▁prize	-10.3768
▁Johnson	-10.377
TER	-10.377
▁Global	-10.3776
▁destination	-10.3776
PO	-10.378
▁entertainment	-10.3781
TV	-10.3783
▁instrument	-10.3786
▁minor	-10.3804
▁valid	-10.3808
▁fell	-10.3816
▁emotional	-10.3818
▁vegetable	-10.3818
weight	-10.3823
▁Control	-10.3826
▁edition	-10.3828
▁perspective	-10.3839
▁otherwise	-10.385
▁sand	-10.387
▁minimum	-10.3871
▁convert	-10.3895
Ex	-10.3903
▁imagine	-10.3903
▁intended	-10.3903
▁recruit	-10.3913
Welcome	-10.3924
▁Copyright	-10.3935
▁permit	-10.3935
▁mistake	-10.3937
▁Gene	-10.3942
▁Area	-10.3947
▁actor	-10.3951
TR	-10.3963
▁favourite	-10.3978
▁instant	-10.3979
▁Young	-10.3985
▁casino	-10.3989
▁breast	-10.3989
▁foreign	-10.3989
Stat	-10.3999
media	-10.4004
▁familiar	-10.401
▁teeth	-10.4021
MB	-10.403
▁accomplish	-10.4032
▁gear	-10.4036
▁solve	-10.4036
buck	-10.4042
▁criminal	-10.4042
PD	-10.4044
▁oven	-10.4047
▁publication	-10.4053
▁comprehensive	-10.4053
▁debut	-10.4066
ologist	-10.4071
▁resource	-10.4081
▁muscle	-10.4086
▁Come	-10.4088
▁trick	-10.4093
▁possess	-10.4097
▁Record	-10.4097
GO	-10.4107
▁labor	-10.4109
▁valuable	-10.4118
▁importance	-10.4132
▁Human	-10.4134
▁Academy	-10.414
▁commission	-10.4141
▁compete	-10.4145
▁possibly	-10.4151
▁bread	-10.4152
▁creation	-10.4155
▁hunt	-10.4163
▁powder	-10.4173
▁specialist	-10.4173
▁critic	-10.4175
▁Gro	-10.4179
▁speech	-10.4184
▁draft	-10.4184
▁affordable	-10.419
anda	-10.4191
face	-10.4195
▁battery	-10.4195
▁broken	-10.42
▁victory	-10.4206
▁Dev	-10.4207
▁Party	-10.4212
▁approved	-10.4217
▁Room	-10.422
EX	-10.4226
How	-10.4228
▁Walk	-10.4229
berry	-10.4235
▁contribution	-10.4239
▁featuring	-10.4239
▁advertising	-10.425
▁eventually	-10.425
▁fur	-10.4268
▁Aug	-10.4269
▁Carolina	-10.4272
▁Max	-10.4277
▁species	-10.4284
▁cutting	-10.4305
▁bull	-10.4314
▁distribution	-10.4317
wear	-10.4318
▁Bob	-10.4327
▁Brook	-10.4331
related	-10.4332
▁bigger	-10.4339
▁worse	-10.434
▁Down	-10.4349
▁remote	-10.435
▁alter	-10.4357
▁smile	-10.438
▁Canadian	-10.4384
▁surgery	-10.4395
▁guard	-10.4395
▁browser	-10.4396
▁properly	-10.4421
▁rot	-10.4424
▁producer	-10.4426
▁description	-10.4428
▁planned	-10.4435
▁height	-10.4436
▁Log	-10.4439
▁university	-10.444
▁crash	-10.4445
▁blow	-10.4446
▁cable	-10.445
▁festival	-10.4451
▁Instead	-10.4451
▁Girl	-10.4452
▁phase	-10.4453
▁Hunt	-10.4458
▁strange	-10.4471
▁twice	-10.4473
state	-10.4477
▁Travel	-10.4478
hydr	-10.4481
▁Shop	-10.4481
▁Box	-10.4487
▁Germany	-10.4491
▁Yo	-10.4493
▁administration	-10.4496
holder	-10.4514
▁Boston	-10.452
▁Image	-10.4522
▁tradition	-10.4528
▁Tele	-10.4532
uge	-10.4535
▁outcome	-10.4536
which	-10.454
▁Little	-10.4542
▁distinct	-10.4542
▁Oh	-10.4551
▁Bear	-10.4553
▁finance	-10.4553
▁council	-10.4564
▁Merc	-10.4574
RM	-10.4577
▁reliable	-10.4599
▁Store	-10.4603
▁delay	-10.4606
▁Audi	-10.461
▁Italian	-10.461
▁Korea	-10.4623
▁Executive	-10.4633
▁debate	-10.4634
▁male	-10.4642
▁rental	-10.4648
▁rose	-10.4649
▁Name	-10.4654
▁tomorrow	-10.4667
▁proposal	-10.4667
UP	-10.4677
▁manner	-10.4677
▁Middle	-10.4681
▁medicine	-10.469
▁subscribe	-10.469
style	-10.4691
▁flour	-10.4691
▁vary	-10.4692
▁river	-10.4698
▁warrant	-10.4702
▁typically	-10.4704
▁flowers	-10.4707
▁cancel	-10.4708
▁mixture	-10.4708
worth	-10.4713
▁strategies	-10.4713
▁resolution	-10.4718
▁combine	-10.4722
▁landscape	-10.4725
▁Santa	-10.4727
born	-10.4728
▁Sky	-10.4732
▁juice	-10.4733
▁automatically	-10.4737
▁Royal	-10.4738
▁specifically	-10.4744
▁prospect	-10.4748
▁coat	-10.4756
▁border	-10.476
▁Jersey	-10.4771
quality	-10.4774
▁pipe	-10.4776
ugg	-10.4778
▁hurt	-10.4779
▁employer	-10.4791
path	-10.4795
▁assessment	-10.4795
▁historical	-10.4799
▁crew	-10.4801
▁registration	-10.4806
▁routine	-10.4806
▁housing	-10.4807
▁policies	-10.4818
▁Opti	-10.482
▁govern	-10.4823
▁industrial	-10.483
▁employee	-10.4832
▁thus	-10.4841
▁proceed	-10.4842
▁neighborhood	-10.4842
▁unless	-10.4843
▁tip	-10.4856
▁clinical	-10.4857
▁Line	-10.4858
▁grab	-10.4859
▁tournament	-10.4865
▁representative	-10.4871
▁divide	-10.4882
▁recovery	-10.4889
▁Partner	-10.4894
▁recover	-10.49
▁flag	-10.491
▁collaboration	-10.4912
▁logo	-10.4924
▁abuse	-10.4924
▁Michigan	-10.4936
▁Cross	-10.4937
▁dining	-10.4939
person	-10.4951
▁Studio	-10.4959
▁Second	-10.4959
▁Adam	-10.4968
▁scheme	-10.4983
▁Made	-10.4989
▁incredible	-10.4995
▁tune	-10.5004
▁shock	-10.5013
▁Digital	-10.5019
▁inches	-10.5025
▁manufacturing	-10.5031
▁Japanese	-10.5031
▁Three	-10.5031
▁airport	-10.5033
▁sight	-10.5035
▁suitable	-10.5038
▁observe	-10.5057
▁sustain	-10.506
▁prison	-10.5067
▁exhibit	-10.5074
▁thin	-10.508
▁clip	-10.5082
▁yes	-10.5087
▁transaction	-10.5091
▁nut	-10.5098
▁facing	-10.5103
▁vacation	-10.5115
▁weapon	-10.5115
▁applied	-10.5127
▁thread	-10.5128
▁crack	-10.5133
▁Select	-10.5139
break	-10.5146
▁Number	-10.5151
▁flash	-10.5156
▁witness	-10.5175
▁innovation	-10.5175
▁permanent	-10.5187
▁Daily	-10.5188
▁technologies	-10.5199
▁FREE	-10.5199
▁FOR	-10.5206
▁crazy	-10.5211
▁freedom	-10.5212
▁rapid	-10.5213
▁Standard	-10.5224
▁organic	-10.5235
UC	-10.525
▁usual	-10.5253
▁failure	-10.5254
▁Mexico	-10.526
▁proposed	-10.526
▁manual	-10.5263
▁Though	-10.5289
▁stopped	-10.5291
Arch	-10.5308
▁trading	-10.531
▁defeat	-10.5311
▁chosen	-10.5315
▁sentence	-10.5331
▁acquire	-10.5334
▁iron	-10.5335
▁History	-10.5346
▁Word	-10.5349
▁hall	-10.5352
▁bath	-10.5361
▁Catholic	-10.5371
▁murder	-10.5371
▁Summer	-10.5375
▁lifestyle	-10.5388
▁newspaper	-10.5396
▁deposit	-10.5408
▁pure	-10.5415
LY	-10.5416
▁favor	-10.5418
▁Local	-10.542
▁impressive	-10.542
▁Ohio	-10.5447
▁Federal	-10.5458
▁concert	-10.5458
▁zone	-10.5473
▁Charles	-10.5476
▁committee	-10.5483
▁guitar	-10.5495
count	-10.5496
▁Trust	-10.5502
▁violence	-10.5508
▁investors	-10.5513
▁taught	-10.5533
▁Film	-10.5547
▁injuries	-10.5558
▁premium	-10.5558
▁native	-10.5563
just	-10.5579
▁identified	-10.5583
▁Senior	-10.5583
▁slot	-10.5596
▁hook	-10.5598
▁transition	-10.5603
▁clothes	-10.5608
▁extract	-10.5622
▁expense	-10.5623
▁Ltd	-10.5627
▁semi	-10.5636
▁Prince	-10.5637
▁Environment	-10.5646
▁Ireland	-10.5648
▁Division	-10.5652
▁Financial	-10.5659
▁lens	-10.5665
▁Available	-10.5672
▁leather	-10.5685
▁Instagram	-10.5697
▁smoke	-10.5699
▁portion	-10.5703
▁Sometimes	-10.571
▁Cost	-10.5711
▁relation	-10.5714
▁counsel	-10.5723
▁infrastructure	-10.5723
▁yellow	-10.5723
▁pocket	-10.5723
▁ongoing	-10.5726
▁agencies	-10.5736
▁tomato	-10.5737
▁Turn	-10.5745
▁silver	-10.5749
▁classroom	-10.5752
▁Print	-10.5756
▁Que	-10.5757
▁context	-10.5774
▁climb	-10.5774
▁awareness	-10.5774
▁tank	-10.5779
▁division	-10.5783
▁brush	-10.5787
▁wire	-10.5794
▁baking	-10.5801
▁replacement	-10.5804
▁deserve	-10.5805
▁accessible	-10.5809
▁vital	-10.581
UL	-10.583
▁Order	-10.5833
▁Color	-10.5833
▁Virginia	-10.5839
itude	-10.5853
▁everyday	-10.586
▁protest	-10.5865
▁disappoint	-10.5878
▁Which	-10.5878
▁Spec	-10.588
▁slice	-10.5887
▁conflict	-10.5891
▁hoping	-10.5903
▁massive	-10.5904
▁Southern	-10.5904
▁poly	-10.5907
▁exhibition	-10.5908
scope	-10.5918
▁yards	-10.5922
▁acid	-10.5925
▁objective	-10.5929
▁Enjoy	-10.593
▁bonus	-10.5931
▁domain	-10.5943
▁rough	-10.5958
▁thrill	-10.5969
▁origin	-10.597
▁healthcare	-10.5973
stitut	-10.5976
▁receiving	-10.5982
▁Natural	-10.5982
▁funny	-10.5985
▁tall	-10.599
▁symbol	-10.5996
▁Personal	-10.6009
▁bug	-10.6009
▁bone	-10.6027
▁Nick	-10.6027
▁smartphone	-10.6035
Feature	-10.6036
▁Multi	-10.6043
▁principle	-10.6048
▁Field	-10.6062
▁dangerous	-10.6076
FO	-10.6082
▁celebration	-10.6088
▁decline	-10.6088
▁Training	-10.6088
▁Angel	-10.6091
▁veteran	-10.6101
▁Clean	-10.6102
▁Building	-10.6103
▁household	-10.6137
▁efficiency	-10.6141
▁Small	-10.6143
▁ease	-10.6143
▁Feb	-10.6155
found	-10.6159
▁Andrew	-10.6181
▁luxury	-10.6194
▁diverse	-10.6213
▁expectations	-10.6216
▁supplement	-10.6221
▁premier	-10.6235
▁Jackson	-10.6241
▁Coach	-10.6243
▁extension	-10.6248
▁convenient	-10.6262
▁Russian	-10.6271
▁plain	-10.6276
▁Russia	-10.6279
dependent	-10.6282
▁announce	-10.6283
▁entrepreneur	-10.6302
▁mortgage	-10.6302
▁Francisco	-10.6304
▁severe	-10.6306
foot	-10.6315
▁gorgeous	-10.6316
▁infection	-10.6317
▁excess	-10.6323
▁Italy	-10.6327
▁Ticket	-10.633
▁Professional	-10.6343
▁stunning	-10.6343
▁Heart	-10.6343
▁tiny	-10.6351
wick	-10.6354
▁pleasure	-10.6357
▁Country	-10.6357
ask	-10.6358
▁assess	-10.6362
▁afford	-10.6364
▁motion	-10.6364
▁liquid	-10.637
▁challenging	-10.6384
▁Email	-10.6393
uzz	-10.6394
▁Associate	-10.6398
▁survive	-10.6398
▁outstanding	-10.6398
▁odd	-10.6402
▁calendar	-10.6411
▁supplies	-10.6411
▁herself	-10.6411
▁slide	-10.6422
▁contemporary	-10.6425
▁Daniel	-10.6425
▁Anti	-10.6435
▁carried	-10.644
▁Phone	-10.6445
▁glad	-10.6454
power	-10.6463
▁authentic	-10.648
athlete	-10.6481
▁interface	-10.6482
▁formula	-10.6482
▁Create	-10.6504
▁PDF	-10.6508
▁Despite	-10.6522
▁incorporate	-10.6522
▁prompt	-10.6536
bury	-10.6537
▁teaspoon	-10.6549
▁pounds	-10.6549
▁fitness	-10.655
▁transportation	-10.6563
▁domestic	-10.6563
▁encounter	-10.6563
▁hardware	-10.6574
▁YouTube	-10.6591
▁passenger	-10.6591
▁entertain	-10.6592
▁potato	-10.6619
▁crisis	-10.6619
product	-10.6619
▁hung	-10.662
▁Avenue	-10.6633
▁alleged	-10.6634
▁engagement	-10.6635
charge	-10.6635
▁exposure	-10.6647
▁Spanish	-10.6661
▁Ryan	-10.6662
▁interaction	-10.6675
▁nearby	-10.6698
▁enterprise	-10.6703
▁preparation	-10.6703
▁dental	-10.6704
▁Zealand	-10.6718
▁broadcast	-10.6719
▁atmosphere	-10.6732
▁sharp	-10.6734
▁Change	-10.6734
▁Model	-10.6735
▁losing	-10.6735
▁Experience	-10.6746
▁Having	-10.6751
shore	-10.676
▁exact	-10.6771
▁grew	-10.6782
▁museum	-10.6789
▁random	-10.6789
▁Write	-10.6798
▁branch	-10.6807
▁lend	-10.6817
▁sustainable	-10.6825
▁scientific	-10.6831
▁strategic	-10.6831
▁assume	-10.6842
▁qualified	-10.6846
▁Championship	-10.6847
▁residential	-10.6853
▁Colorado	-10.686
▁Capital	-10.686
metric	-10.6861
▁construct	-10.688
▁affiliate	-10.6889
▁carpet	-10.6889
▁tweet	-10.6903
▁garage	-10.6904
piece	-10.691
▁sudden	-10.6918
▁Credit	-10.6918
plica	-10.6919
▁Trade	-10.693
▁wealth	-10.6935
▁tab	-10.6938
▁carefully	-10.6939
▁Range	-10.6958
▁examine	-10.6959
school	-10.6961
▁Stock	-10.6967
▁snap	-10.697
▁unlike	-10.6978
conscious	-10.6983
unny	-10.6999
▁salad	-10.7005
▁split	-10.7012
▁massage	-10.7019
season	-10.7021
▁column	-10.7048
▁Account	-10.7049
▁bake	-10.7061
▁certified	-10.7063
▁lemon	-10.7067
▁Estate	-10.7074
▁specialize	-10.7085
▁Radio	-10.7087
▁Provide	-10.7087
▁advertise	-10.7092
▁external	-10.7092
▁operator	-10.7092
▁vendor	-10.7092
▁announcement	-10.7106
▁fuck	-10.711
▁Reserve	-10.7111
▁grass	-10.7113
▁audit	-10.7127
cott	-10.7128
With	-10.713
▁portfolio	-10.7136
▁nurse	-10.7136
▁convention	-10.7151
▁medication	-10.7151
▁spiritual	-10.7153
encies	-10.7158
▁Professor	-10.7166
quarter	-10.7166
▁garlic	-10.7166
▁shade	-10.7168
▁dropped	-10.717
▁outfit	-10.7197
▁spark	-10.72
▁Georgia	-10.721
▁Taylor	-10.721
▁restore	-10.7216
▁neighbor	-10.7224
▁identity	-10.7225
▁Victoria	-10.7225
▁DVD	-10.7225
▁worst	-10.7225
ATION	-10.723
▁Paper	-10.7251
▁supplier	-10.7255
▁accessories	-10.7255
▁utilize	-10.7255
▁Mini	-10.7258
▁Safety	-10.727
▁resume	-10.7271
▁smell	-10.7285
▁Kids	-10.729
▁rush	-10.729
▁import	-10.7296
▁reputation	-10.73
▁carbon	-10.73
▁drain	-10.73
▁texture	-10.7315
▁permission	-10.7326
▁improving	-10.733
▁Application	-10.733
▁disorder	-10.733
▁Silver	-10.733
▁employment	-10.733
▁Article	-10.7345
▁Easy	-10.7345
▁nutrition	-10.736
▁urban	-10.736
▁membership	-10.7373
▁professor	-10.7375
▁Prime	-10.7383
TION	-10.7396
▁Unfortunately	-10.7405
▁giant	-10.7408
▁Scr	-10.7432
▁Joseph	-10.7435
▁dirt	-10.744
▁guidance	-10.7451
▁sensor	-10.7452
treat	-10.7455
▁rice	-10.7466
▁Medicine	-10.7466
▁Brazil	-10.7466
build	-10.7471
▁typical	-10.7478
▁association	-10.7481
▁circle	-10.7481
▁Should	-10.7481
▁argue	-10.7501
▁hip	-10.751
▁iPad	-10.7512
▁emerge	-10.7519
▁Continue	-10.7527
▁Season	-10.7536
▁tele	-10.7541
▁authorities	-10.7551
▁leak	-10.7554
▁Olympic	-10.7558
▁Collection	-10.7558
▁chose	-10.756
▁COVID	-10.7588
▁Insurance	-10.7588
▁Hollywood	-10.7604
▁destroy	-10.7604
▁Northern	-10.7604
▁Clark	-10.761
▁Disney	-10.761
activat	-10.7613
▁assistant	-10.7613
▁resort	-10.7635
▁copyright	-10.7636
▁champion	-10.7648
▁manufacture	-10.7648
▁Communication	-10.7666
▁flood	-10.7681
▁downtown	-10.7691
▁definition	-10.7697
▁charm	-10.7701
▁singer	-10.7706
▁eligible	-10.7712
▁snack	-10.7713
▁colleague	-10.7728
▁incredibly	-10.7728
▁ocean	-10.7728
▁Website	-10.7728
▁physician	-10.7744
▁illegal	-10.7744
▁mask	-10.7744
▁Theatre	-10.7762
▁Space	-10.7771
▁faculty	-10.7775
▁injured	-10.7775
▁loose	-10.7777
▁Found	-10.7792
▁managing	-10.7799
▁availability	-10.7807
▁dozen	-10.7807
▁clinic	-10.7818
▁gallery	-10.7822
▁Miami	-10.7822
▁Saint	-10.7824
▁refuse	-10.7836
▁Would	-10.7838
▁tablespoon	-10.787
crypt	-10.7872
▁orange	-10.7873
▁tube	-10.7876
▁knee	-10.7886
▁cabinet	-10.7902
▁religious	-10.7902
▁thorough	-10.7902
▁choosing	-10.7902
▁memories	-10.7902
▁pride	-10.7902
▁compare	-10.7906
cycling	-10.7918
▁communicate	-10.792
stream	-10.7922
▁virus	-10.7924
▁Think	-10.7928
▁peak	-10.7936
▁fifth	-10.795
▁dramatic	-10.7959
▁Palm	-10.7965
▁vitamin	-10.7965
▁guidelines	-10.7966
▁Grant	-10.7994
▁refresh	-10.7998
▁Talk	-10.7999
▁warning	-10.8008
Count	-10.8035
▁template	-10.8046
▁Register	-10.8046
▁olive	-10.8052
▁historic	-10.8057
▁architect	-10.8059
Published	-10.8062
▁Pacific	-10.8062
▁patch	-10.8076
▁alert	-10.808
▁Software	-10.8094
▁submitted	-10.81
▁succeed	-10.8111
▁belief	-10.8111
▁empty	-10.8113
▁Arizona	-10.8143
▁melt	-10.8143
▁bodies	-10.8144
▁Irish	-10.8162
▁Clinic	-10.8165
▁fulfill	-10.8176
▁causing	-10.8176
▁Stephen	-10.8177
▁Gallery	-10.8192
▁jewelry	-10.8192
Build	-10.8201
▁argument	-10.8209
▁signature	-10.8209
▁segment	-10.8209
▁Location	-10.8209
▁password	-10.8211
▁minister	-10.8219
▁Secretary	-10.8225
▁Spirit	-10.8225
▁architecture	-10.8228
▁reduction	-10.8228
▁decrease	-10.8241
▁Single	-10.8257
▁privacy	-10.8258
▁contrast	-10.8258
▁attitude	-10.8258
▁Golf	-10.8266
▁Meanwhile	-10.8274
▁attached	-10.8274
▁Happy	-10.8275
▁LLC	-10.8275
▁loving	-10.8276
▁Samsung	-10.8291
▁certificate	-10.8307
▁impossible	-10.8307
▁chopped	-10.8308
▁casual	-10.8308
▁Again	-10.8308
▁Express	-10.8317
▁Harris	-10.8333
▁immediate	-10.8341
▁drag	-10.835
▁wireless	-10.8361
▁Houston	-10.8374
▁interpret	-10.8374
▁capabilities	-10.8376
▁indoor	-10.8378
▁mirror	-10.8391
▁Choose	-10.8409
▁approval	-10.8424
▁index	-10.8433
▁drama	-10.8448
▁spray	-10.8451
▁fundamental	-10.8458
▁introduction	-10.8458
▁basically	-10.8482
▁Smart	-10.8493
space	-10.8495
▁basketball	-10.8509
▁Magazine	-10.8542
▁flexible	-10.8542
▁subscription	-10.8542
▁Studies	-10.8542
▁provision	-10.8553
▁ceremony	-10.8559
▁intention	-10.856
▁bunch	-10.856
▁crucial	-10.8561
screen	-10.8573
▁circumstances	-10.8576
▁hidden	-10.8576
▁investigate	-10.8576
▁twist	-10.8576
direct	-10.8577
▁categories	-10.8593
▁continuous	-10.8593
▁Economic	-10.861
▁showcase	-10.8611
▁liber	-10.8614
▁resolve	-10.8645
▁surround	-10.8654
▁continuing	-10.8662
▁Dallas	-10.8662
▁swimming	-10.8679
▁ancient	-10.8679
▁closing	-10.8697
▁Child	-10.8698
▁Jewish	-10.8713
▁NFL	-10.8713
▁scholarship	-10.8715
▁module	-10.8731
▁Large	-10.8736
▁associate	-10.8739
▁evaluate	-10.8748
▁legislation	-10.8748
▁Kris	-10.8762
▁expansion	-10.8765
▁possibility	-10.8765
▁escape	-10.8766
▁illness	-10.8767
▁Galaxy	-10.8783
▁extreme	-10.8784
▁eliminate	-10.88
▁Release	-10.88
▁patent	-10.8801
▁narrow	-10.8817
▁baseball	-10.882
▁Short	-10.8824
▁Corporation	-10.8835
▁laptop	-10.8835
▁trigger	-10.8852
▁producing	-10.887
▁recall	-10.8871
▁Kevin	-10.889
▁Illinois	-10.8905
▁grateful	-10.8905
▁Limited	-10.8905
▁tissue	-10.8923
▁refund	-10.8929
▁removal	-10.894
from	-10.8943
firm	-10.8952
▁calm	-10.8953
▁qualify	-10.8958
▁Channel	-10.8958
http	-10.8963
including	-10.8963
▁Egypt	-10.8976
▁industries	-10.8976
▁carrier	-10.8977
▁Toronto	-10.8993
▁charity	-10.8994
▁rescue	-10.9013
▁Perhaps	-10.9029
▁sweat	-10.9029
▁cotton	-10.903
▁gym	-10.9031
▁Minnesota	-10.9047
▁vast	-10.9052
▁inspire	-10.9058
▁equipped	-10.9065
▁Course	-10.9065
▁Atlanta	-10.9082
▁recognition	-10.91
▁Seattle	-10.9118
▁Kingdom	-10.9118
▁Policy	-10.9118
▁NEW	-10.9119
▁Style	-10.9124
▁prime	-10.9141
▁Computer	-10.9155
▁Micro	-10.9159
▁Davis	-10.9163
▁brilliant	-10.9172
▁precise	-10.9172
▁relief	-10.9172
▁tackle	-10.9172
▁Creek	-10.9175
▁Challenge	-10.919
▁arrival	-10.919
▁reception	-10.919
▁Diego	-10.9191
▁coupon	-10.9191
▁pilot	-10.9191
▁comparison	-10.9209
▁politics	-10.9209
▁reducing	-10.9209
▁Quality	-10.9227
▁Therefore	-10.9227
▁genuine	-10.9245
▁pizza	-10.9281
▁Eastern	-10.9282
▁exceed	-10.9282
▁Dream	-10.9282
▁gaming	-10.9282
▁Clear	-10.9285
Include	-10.9289
▁championship	-10.9303
▁Bowl	-10.9303
▁steal	-10.9307
▁Attorney	-10.9318
▁Solutions	-10.9318
▁Discover	-10.9318
▁Movie	-10.9319
▁gentle	-10.9323
▁Install	-10.9337
▁tailor	-10.9338
▁programming	-10.9338
▁vintage	-10.9355
▁compliment	-10.9355
▁Square	-10.9355
▁opposite	-10.9373
▁insert	-10.9383
▁resistance	-10.9392
▁Picture	-10.941
▁Mount	-10.9431
American	-10.9431
▁Electric	-10.9447
▁Material	-10.9447
▁empower	-10.9447
▁rug	-10.945
▁Philadelphia	-10.9466
▁Premier	-10.9466
▁Jordan	-10.9484
while	-10.9508
▁certification	-10.9522
▁corporation	-10.9522
▁literally	-10.954
▁venture	-10.9542
▁Assistant	-10.9559
▁knock	-10.9559
▁concrete	-10.9559
▁yoga	-10.9578
▁compliance	-10.9578
▁scenario	-10.9616
▁consequence	-10.9616
▁Administration	-10.9635
▁Scotland	-10.9635
▁newsletter	-10.9635
▁superior	-10.9635
▁ensuring	-10.9635
▁enforcement	-10.9653
▁primarily	-10.9653
▁Agency	-10.9654
▁Village	-10.9654
▁wound	-10.9673
▁sail	-10.968
▁accommodation	-10.9691
▁layout	-10.9692
sufficient	-10.9711
▁pursue	-10.9711
▁rip	-10.9717
▁acquisition	-10.973
▁Vegas	-10.973
▁conclude	-10.9749
▁inspection	-10.9749
▁vocal	-10.9749
▁reject	-10.9754
▁Memorial	-10.9768
▁anniversary	-10.9768
▁Muslim	-10.9768
▁entrance	-10.9768
▁Machine	-10.9768
▁rival	-10.977
▁Friends	-10.9793
▁advocate	-10.9806
▁Iraq	-10.9806
Develop	-10.9811
▁purchasing	-10.9826
▁mechanism	-10.9826
▁Pakistan	-10.9845
▁criteria	-10.9845
▁discipline	-10.9845
▁Eagle	-10.9845
▁involving	-10.9864
▁swim	-10.9875
▁behalf	-10.9884
▁evaluation	-10.9903
▁Regional	-10.9903
▁ceiling	-10.9923
▁preparing	-10.9942
▁substantial	-10.9961
▁disaster	-10.9962
▁robot	-10.9962
▁loud	-10.9964
▁acknowledge	-10.9981
▁intense	-10.9985
▁Supreme	-11.0001
▁Manchester	-11.0001
▁Holiday	-11.0001
▁delete	-11.0001
▁jacket	-11.002
▁podcast	-11.002
▁advisor	-11.002
▁Democratic	-11.004
▁opponent	-11.004
▁Editor	-11.004
▁roast	-11.004
▁rural	-11.0043
View	-11.0044
▁preserve	-11.0046
▁ultra	-11.0048
▁correspond	-11.006
▁enthusiast	-11.006
▁intelligence	-11.006
▁scratch	-11.006
▁Euro	-11.0064
▁loop	-11.0065
▁diabetes	-11.0079
▁elegant	-11.0079
▁Celeb	-11.008
▁franchise	-11.0099
