<pad>	0
<s>	0
</s>	0
<unk>	0
<0x00>	0
<0x01>	0
<0x02>	0
<0x03>	0
<0x04>	0
<0x05>	0
<0x06>	0
<0x07>	0
<0x08>	0
<0x09>	0
<0x0A>	0
<0x0B>	0
<0x0C>	0
<0x0D>	0
<0x0E>	0
<0x0F>	0
<0x10>	0
<0x11>	0
<0x12>	0
<0x13>	0
<0x14>	0
<0x15>	0
<0x16>	0
<0x17>	0
<0x18>	0
<0x19>	0
<0x1A>	0
<0x1B>	0
<0x1C>	0
<0x1D>	0
<0x1E>	0
<0x1F>	0
<0x20>	0
<0x21>	0
<0x22>	0
<0x23>	0
<0x24>	0
<0x25>	0
<0x26>	0
<0x27>	0
<0x28>	0
<0x29>	0
<0x2A>	0
<0x2B>	0
<0x2C>	0
<0x2D>	0
<0x2E>	0
<0x2F>	0
<0x30>	0
<0x31>	0
<0x32>	0
<0x33>	0
<0x34>	0
<0x35>	0
<0x36>	0
<0x37>	0
<0x38>	0
<0x39>	0
<0x3A>	0
<0x3B>	0
<0x3C>	0
<0x3D>	0
<0x3E>	0
<0x3F>	0
<0x40>	0
<0x41>	0
<0x42>	0
<0x43>	0
<0x44>	0
<0x45>	0
<0x46>	0
<0x47>	0
<0x48>	0
<0x49>	0
<0x4A>	0
<0x4B>	0
<0x4C>	0
<0x4D>	0
<0x4E>	0
<0x4F>	0
<0x50>	0
<0x51>	0
<0x52>	0
<0x53>	0
<0x54>	0
<0x55>	0
<0x56>	0
<0x57>	0
<0x58>	0
<0x59>	0
<0x5A>	0
<0x5B>	0
<0x5C>	0
<0x5D>	0
<0x5E>	0
<0x5F>	0
<0x60>	0
<0x61>	0
<0x62>	0
<0x63>	0
<0x64>	0
<0x65>	0
<0x66>	0
<0x67>	0
<0x68>	0
<0x69>	0
<0x6A>	0
<0x6B>	0
<0x6C>	0
<0x6D>	0
<0x6E>	0
<0x6F>	0
<0x70>	0
<0x71>	0
<0x72>	0
<0x73>	0
<0x74>	0
<0x75>	0
<0x76>	0
<0x77>	0
<0x78>	0
<0x79>	0
<0x7A>	0
<0x7B>	0
<0x7C>	0
<0x7D>	0
<0x7E>	0
<0x7F>	0
<0x80>	0
<0x81>	0
<0x82>	0
<0x83>	0
<0x84>	0
<0x85>	0
<0x86>	0
<0x87>	0
<0x88>	0
<0x89>	0
<0x8A>	0
<0x8B>	0
<0x8C>	0
<0x8D>	0
<0x8E>	0
<0x8F>	0
<0x90>	0
<0x91>	0
<0x92>	0
<0x93>	0
<0x94>	0
<0x95>	0
<0x96>	0
<0x97>	0
<0x98>	0
<0x99>	0
<0x9A>	0
<0x9B>	0
<0x9C>	0
<0x9D>	0
<0x9E>	0
<0x9F>	0
<0xA0>	0
<0xA1>	0
<0xA2>	0
<0xA3>	0
<0xA4>	0
<0xA5>	0
<0xA6>	0
<0xA7>	0
<0xA8>	0
<0xA9>	0
<0xAA>	0
<0xAB>	0
<0xAC>	0
<0xAD>	0
<0xAE>	0
<0xAF>	0
<0xB0>	0
<0xB1>	0
<0xB2>	0
<0xB3>	0
<0xB4>	0
<0xB5>	0
<0xB6>	0
<0xB7>	0
<0xB8>	0
<0xB9>	0
<0xBA>	0
<0xBB>	0
<0xBC>	0
<0xBD>	0
<0xBE>	0
<0xBF>	0
<0xC0>	0
<0xC1>	0
<0xC2>	0
<0xC3>	0
<0xC4>	0
<0xC5>	0
<0xC6>	0
<0xC7>	0
<0xC8>	0
<0xC9>	0
<0xCA>	0
<0xCB>	0
<0xCC>	0
<0xCD>	0
<0xCE>	0
<0xCF>	0
<0xD0>	0
<0xD1>	0
<0xD2>	0
<0xD3>	0
<0xD4>	0
<0xD5>	0
<0xD6>	0
<0xD7>	0
<0xD8>	0
<0xD9>	0
<0xDA>	0
<0xDB>	0
<0xDC>	0
<0xDD>	0
<0xDE>	0
<0xDF>	0
<0xE0>	0
<0xE1>	0
<0xE2>	0
<0xE3>	0
<0xE4>	0
<0xE5>	0
<0xE6>	0
<0xE7>	0
<0xE8>	0
<0xE9>	0
<0xEA>	0
<0xEB>	0
<0xEC>	0
<0xED>	0
<0xEE>	0
<0xEF>	0
<0xF0>	0
<0xF1>	0
<0xF2>	0
<0xF3>	0
<0xF4>	0
<0xF5>	0
<0xF6>	0
<0xF7>	0
<0xF8>	0
<0xF9>	0
<0xFA>	0
<0xFB>	0
<0xFC>	0
<0xFD>	0
<0xFE>	0
<0xFF>	0
s	-3.15335
.	-3.44729
▁	-3.46063
,	-3.55191
▁the	-3.62117
▁and	-4.06111
▁to	-4.08487
▁a	-4.24054
▁of	-4.25588
▁in	-4.55549
0	-4.78541
1	-4.92422
ing	-4.93155
▁is	-4.97857
-	-4.98926
▁for	-5.0023
2	-5.10442
ed	-5.12978
t	-5.16125
d	-5.20887
▁I	-5.25171
▁that	-5.27491
’	-5.30293
▁you	-5.32986
▁with	-5.34716
▁on	-5.37311
▁it	-5.58187
'	-5.59482
▁The	-5.61529
▁be	-5.62323
:	-5.63347
er	-5.64882
▁are	-5.65902
y	-5.73175
3	-5.82184
ly	-5.83328
5	-5.84716
▁(	-5.87059
▁your	-5.87181
▁-	-5.9053
▁at	-5.90668
▁as	-5.94131
▁have	-5.94204
▁or	-5.97337
▁this	-5.98472
▁from	-5.98504
▁was	-6.00784
e	-6.01017
4	-6.01486
▁will	-6.03954
▁by	-6.06437
9	-6.08785
▁can	-6.08939
)	-6.09058
m	-6.1018
al	-6.13999
n	-6.16153
▁an	-6.16637
re	-6.19397
▁A	-6.22156
6	-6.23039
8	-6.23541
▁not	-6.27174
7	-6.29313
▁we	-6.29714
▁has	-6.32185
a	-6.39389
▁S	-6.42187
▁all	-6.43284
r	-6.44274
in	-6.46582
!	-6.46947
o	-6.49677
▁“	-6.49984
es	-6.50108
▁more	-6.52436
?	-6.5418
▁our	-6.54495
▁but	-6.54534
▁their	-6.55377
th	-6.55701
/	-6.56287
▁one	-6.59759
or	-6.60832
▁out	-6.60893
▁my	-6.63632
▁so	-6.65659
▁up	-6.65866
▁about	-6.66578
S	-6.68153
▁they	-6.68931
▁he	-6.69912
l	-6.72029
i	-6.74596
▁time	-6.77838
ve	-6.77996
▁his	-6.78246
I	-6.7915
▁In	-6.80236
▁also	-6.84332
▁who	-6.8464
on	-6.84706
▁It	-6.84982
▁which	-6.85529
▁We	-6.86556
c	-6.87826
▁"	-6.88972
▁C	-6.89874
p	-6.89908
le	-6.90103
▁like	-6.90698
A	-6.91129
▁re	-6.91646
▁new	-6.92467
ll	-6.92728
▁do	-6.93038
▁B	-6.93794
b	-6.95309
▁been	-6.95321
▁This	-6.96161
ers	-6.96998
▁F	-6.97541
▁me	-6.97883
an	-6.9979
▁get	-7.00299
ar	-7.01429
en	-7.0198
▁when	-7.02271
u	-7.0331
▁some	-7.03789
▁her	-7.04998
ic	-7.06027
▁other	-7.07156
▁just	-7.0768
el	-7.08226
D	-7.08229
▁over	-7.08721
▁G	-7.09821
▁what	-7.10101
▁–	-7.10694
▁if	-7.11892
B	-7.1215
▁said	-7.12267
▁E	-7.12731
g	-7.12744
k	-7.12817
f	-7.15107
▁had	-7.15425
▁were	-7.16265
C	-7.17001
▁them	-7.17732
▁would	-7.18397
P	-7.18525
▁there	-7.19259
▁make	-7.19598
ation	-7.19957
▁any	-7.20621
"	-7.20744
”	-7.2079
▁into	-7.21177
▁work	-7.21352
▁no	-7.22269
ur	-7.22505
il	-7.23065
▁P	-7.23697
;	-7.24268
▁people	-7.26762
▁than	-7.27205
▁D	-7.27647
able	-7.29052
st	-7.29627
T	-7.29791
▁first	-7.29886
ion	-7.30415
▁You	-7.30496
▁p	-7.31202
▁how	-7.31431
h	-7.32497
ri	-7.33587
it	-7.35495
▁us	-7.36045
▁T	-7.36224
▁M	-7.36904
▁only	-7.36928
li	-7.37214
▁de	-7.37875
id	-7.3793
▁most	-7.38484
▁Re	-7.38587
▁use	-7.399
▁well	-7.40094
▁He	-7.40222
ment	-7.40267
▁help	-7.40595
F	-7.40762
G	-7.41115
▁she	-7.41281
L	-7.41355
et	-7.42136
▁For	-7.43017
▁If	-7.43024
...	-7.43035
M	-7.43161
▁two	-7.4347
ra	-7.44109
▁know	-7.44745
▁back	-7.45198
▁year	-7.45456
w	-7.4554
▁need	-7.45574
ity	-7.45654
▁may	-7.4573
ne	-7.46218
▁home	-7.47079
▁R	-7.47521
at	-7.48061
com	-7.48311
ive	-7.49186
ir	-7.49264
est	-7.49719
ate	-7.4997
▁&	-7.50465
▁these	-7.50951
▁after	-7.51628
ro	-7.52103
▁see	-7.5212
▁its	-7.52324
▁through	-7.52591
lo	-7.52792
▁un	-7.53322
▁|	-7.53414
W	-7.54045
E	-7.54322
▁very	-7.54713
▁want	-7.55254
▁many	-7.55577
▁way	-7.56036
▁good	-7.56223
im	-7.5632
▁years	-7.56539
▁$	-7.57536
um	-7.57556
▁day	-7.57711
▁N	-7.58447
▁W	-7.58671
▁H	-7.59382
▁now	-7.59586
age	-7.60339
up	-7.61144
am	-7.61169
ent	-7.62248
▁So	-7.62472
▁where	-7.62632
▁K	-7.62766
▁O	-7.6292
us	-7.62987
▁To	-7.64397
to	-7.65303
▁take	-7.65461
▁here	-7.65561
▁go	-7.65691
▁should	-7.66156
▁best	-7.66594
de	-7.66633
ol	-7.66698
me	-7.67554
is	-7.68409
▁De	-7.68498
O	-7.68686
na	-7.68779
ul	-7.69025
la	-7.69152
▁right	-7.69284
▁don	-7.70229
H	-7.70263
N	-7.72088
▁great	-7.72529
▁could	-7.73016
K	-7.73042
ter	-7.73203
co	-7.7328
▁even	-7.73524
▁much	-7.7364
||	-7.74418
te	-7.74636
man	-7.75196
ia	-7.75225
The	-7.75425
▁made	-7.75642
.”	-7.76178
▁information	-7.76645
▁last	-7.76972
▁life	-7.77422
▁find	-7.77569
R	-7.78064
▁because	-7.78284
▁off	-7.7843
▁then	-7.78673
▁And	-7.79175
ta	-7.79198
V	-7.79859
▁place	-7.80511
x	-7.80626
).	-7.80729
▁b	-7.80865
▁before	-7.8091
ine	-7.81615
▁team	-7.81675
z	-7.82107
▁St	-7.82152
ist	-7.83131
se	-7.83361
ry	-7.83391
▁free	-7.84063
as	-7.84072
|	-7.8429
ce	-7.84507
%	-7.84602
▁such	-7.84736
ge	-7.84987
▁But	-7.85049
ad	-7.85447
▁support	-7.85521
▁L	-7.86012
▁love	-7.86647
▁part	-7.86847
ary	-7.86948
▁U	-7.87992
▁New	-7.88287
▁st	-7.88548
▁those	-7.88563
ie	-7.88888
op	-7.89138
▁while	-7.89417
▁own	-7.89571
▁being	-7.8963
ies	-7.90578
▁around	-7.90814
▁world	-7.91151
▁con	-7.9152
mo	-7.91561
▁business	-7.91649
ma	-7.91798
▁f	-7.91893
▁down	-7.91956
▁co	-7.92792
▁used	-7.92877
▁Be	-7.931
▁each	-7.93682
▁under	-7.93899
ci	-7.93961
ian	-7.94162
ant	-7.943
▁c	-7.95083
▁e	-7.95387
▁think	-7.95627
▁him	-7.95664
▁really	-7.95934
▁am	-7.95941
ty	-7.9602
▁As	-7.96387
▁look	-7.97116
ch	-7.97429
▁experience	-7.97713
▁every	-7.98182
▁g	-7.98268
▁long	-7.9866
ated	-7.98822
▁high	-7.98848
pe	-7.98982
▁car	-7.99151
ting	-7.99578
▁Ma	-7.99659
un	-7.99701
ver	-7.99824
ance	-7.99899
),	-8.00944
ton	-8.01056
▁both	-8.0241
▁available	-8.02567
▁going	-8.02596
▁There	-8.02731
U	-8.02817
▁set	-8.02868
▁They	-8.03088
▁end	-8.03214
sh	-8.03354
▁different	-8.03731
▁still	-8.04731
and	-8.04805
ck	-8.05162
▁few	-8.06261
▁week	-8.06332
▁She	-8.06608
per	-8.0709
▁Co	-8.0709
om	-8.07137
▁come	-8.07537
▁La	-8.07855
▁game	-8.08192
▁All	-8.08281
,”	-8.0847
▁three	-8.08787
▁lot	-8.09557
▁found	-8.09802
▁start	-8.10065
▁Mo	-8.10542
ut	-8.11389
Y	-8.11414
ating	-8.11645
▁little	-8.12003
▁No	-8.12473
▁post	-8.12626
▁service	-8.12784
▁family	-8.12823
ha	-8.1305
be	-8.13269
ial	-8.13324
▁V	-8.13409
▁company	-8.13581
▁too	-8.138
▁water	-8.13824
▁What	-8.14217
▁Le	-8.14932
▁between	-8.1502
ful	-8.15153
▁number	-8.15231
ness	-8.15337
▁same	-8.15821
▁during	-8.16092
ling	-8.16193
no	-8.16465
▁state	-8.16508
▁play	-8.16526
▁including	-8.16529
▁per	-8.16981
min	-8.16986
▁Ca	-8.17231
▁using	-8.17428
▁things	-8.17525
em	-8.17746
ac	-8.18017
va	-8.18293
▁J	-8.18485
mp	-8.18873
▁next	-8.19005
vi	-8.19121
ence	-8.19288
v	-8.19679
▁order	-8.19765
▁design	-8.19767
son	-8.1992
ill	-8.20067
▁always	-8.2023
▁Ro	-8.20537
lu	-8.20577
tic	-8.20662
▁Me	-8.20901
▁full	-8.21276
▁v	-8.2141
ner	-8.21762
ke	-8.21968
out	-8.22865
▁sure	-8.22982
▁Ba	-8.23178
ot	-8.2319
▁When	-8.23219
ice	-8.23695
ish	-8.23718
▁online	-8.23802
less	-8.23874
▁system	-8.24117
▁keep	-8.24493
▁top	-8.24876
▁book	-8.25007
▁show	-8.25046
▁provide	-8.25169
▁Do	-8.25324
end	-8.26298
▁Ra	-8.26516
ti	-8.2655
▁since	-8.26614
▁did	-8.26842
▁feel	-8.2715
way	-8.27175
▁pre	-8.27196
land	-8.27386
▁better	-8.27409
▁process	-8.27489
J	-8.27635
the	-8.27646
▁give	-8.28115
▁something	-8.28499
hi	-8.28568
ous	-8.2905
line	-8.29116
he	-8.29354
ster	-8.29371
▁With	-8.29813
▁local	-8.29845
▁got	-8.30239
▁school	-8.30299
ee	-8.30772
ted	-8.3084
▁head	-8.30858
▁read	-8.31351
▁another	-8.31402
▁area	-8.31745
ni	-8.32071
."	-8.32506
ba	-8.32566
▁video	-8.3266
▁today	-8.32934
mb	-8.33359
▁Mar	-8.33677
▁without	-8.34191
ite	-8.34263
▁dis	-8.34609
▁does	-8.34693
▁important	-8.34824
▁days	-8.35019
▁say	-8.35406
▁second	-8.35449
ru	-8.35754
▁must	-8.36073
di	-8.36281
▁small	-8.36454
▁Dr	-8.36504
▁season	-8.3689
▁open	-8.36896
▁data	-8.36919
▁pro	-8.37083
nd	-8.37231
▁call	-8.37392
▁line	-8.37491
▁Our	-8.37611
one	-8.37699
▁never	-8.3772
▁ex	-8.37767
▁website	-8.37801
▁real	-8.3788
der	-8.37938
▁light	-8.38211
▁services	-8.38234
ho	-8.38333
▁run	-8.38345
▁hand	-8.38471
▁course	-8.38601
▁site	-8.38623
▁working	-8.39461
ard	-8.39485
ten	-8.3952
▁fact	-8.3954
▁hard	-8.39556
▁name	-8.39716
ab	-8.39905
go	-8.40062
dy	-8.40177
▁care	-8.4021
▁live	-8.40369
▁di	-8.4042
▁—	-8.4064
▁put	-8.40776
ow	-8.40923
▁market	-8.41051
▁form	-8.41079
▁visit	-8.41306
▁i	-8.41311
▁food	-8.41581
mon	-8.41601
do	-8.41906
▁My	-8.41995
▁might	-8.42096
▁Pro	-8.42137
ring	-8.42264
▁able	-8.42311
▁room	-8.42605
con	-8.42667
▁page	-8.42703
▁students	-8.42851
gu	-8.43082
▁Po	-8.43085
▁w	-8.43399
▁Con	-8.43501
▁looking	-8.43696
▁Di	-8.43884
▁mo	-8.44528
ran	-8.4514
▁Sa	-8.45217
▁At	-8.45397
ca	-8.45686
▁job	-8.45714
▁children	-8.45816
▁That	-8.45957
▁view	-8.46006
bo	-8.46061
▁check	-8.46097
▁email	-8.46174
▁man	-8.46335
▁please	-8.46353
rs	-8.46361
▁offer	-8.46478
che	-8.46576
▁until	-8.46645
ig	-8.46663
▁Ho	-8.46925
▁sh	-8.47116
▁project	-8.4714
We	-8.47299
▁making	-8.47397
▁night	-8.47577
▁past	-8.47648
tion	-8.47908
▁health	-8.48028
▁comp	-8.48409
▁within	-8.48705
▁An	-8.49026
ick	-8.49465
▁personal	-8.49829
ical	-8.49894
▁Al	-8.49927
▁side	-8.50031
▁community	-8.50266
ell	-8.50417
▁share	-8.50657
▁contact	-8.50867
▁app	-8.5088
▁program	-8.51146
▁Ha	-8.51213
▁special	-8.5136
ub	-8.51403
▁against	-8.51427
▁public	-8.5143
▁On	-8.51832
▁po	-8.51983
ap	-8.5241
▁event	-8.52737
▁ch	-8.52853
ga	-8.52892
▁quality	-8.52961
▁again	-8.53114
▁h	-8.53418
qu	-8.53439
our	-8.53494
mi	-8.53516
ph	-8.53532
▁change	-8.53823
ven	-8.53963
▁together	-8.53995
▁become	-8.54108
▁less	-8.54139
▁person	-8.54346
wa	-8.5435
▁easy	-8.54445
▁product	-8.54578
X	-8.54686
old	-8.54744
if	-8.54752
time	-8.54825
▁away	-8.54878
▁products	-8.54911
▁include	-8.5518
▁create	-8.55223
▁let	-8.55234
fe	-8.55349
ny	-8.55647
▁research	-8.55663
▁group	-8.56011
▁la	-8.56103
▁fun	-8.5627
▁How	-8.56317
ction	-8.56355
▁money	-8.56524
ley	-8.5657
▁music	-8.56724
▁Z	-8.56873
oo	-8.56873
▁Li	-8.57032
ag	-8.57407
▁large	-8.57509
tor	-8.57658
av	-8.57799
tu	-8.5815
▁big	-8.5851
mm	-8.58551
▁million	-8.58637
▁pay	-8.58786
ship	-8.58861
ka	-8.58872
king	-8.58996
▁thing	-8.59073
▁University	-8.59424
▁power	-8.59424
▁case	-8.59536
▁One	-8.59582
,"	-8.59605
▁house	-8.59857
▁art	-8.60239
▁access	-8.60439
▁list	-8.60476
▁point	-8.60489
▁four	-8.6125
qui	-8.61437
▁plan	-8.61616
pic	-8.61641
▁enjoy	-8.61752
▁why	-8.62023
▁old	-8.62123
▁short	-8.62163
▁en	-8.62244
port	-8.62328
ors	-8.62393
pa	-8.62445
ally	-8.62599
▁Lo	-8.62881
ries	-8.63509
▁bit	-8.63609
▁color	-8.63961
▁left	-8.63977
▁deal	-8.64415
les	-8.64489
ki	-8.64518
▁add	-8.64682
tro	-8.64703
▁Bo	-8.64704
▁Car	-8.64761
▁across	-8.64856
▁development	-8.64948
▁professional	-8.65271
mer	-8.65302
▁ma	-8.65349
▁below	-8.65355
ized	-8.65439
▁thought	-8.6549
▁having	-8.65637
ay	-8.65815
▁These	-8.66158
ide	-8.66167
▁needs	-8.66235
▁kind	-8.66282
▁says	-8.66372
▁Ta	-8.66416
os	-8.66518
▁following	-8.66598
▁May	-8.66731
▁women	-8.66996
ning	-8.67023
ther	-8.6728
▁tr	-8.67332
ake	-8.6736
we	-8.67483
▁test	-8.67541
ions	-8.67704
ak	-8.67916
▁account	-8.67945
▁American	-8.68056
tra	-8.68134
▁social	-8.68184
▁getting	-8.68346
que	-8.68355
▁space	-8.68363
▁ca	-8.68369
▁story	-8.68372
ect	-8.6838
red	-8.68516
ex	-8.68538
▁believe	-8.68746
▁enough	-8.68952
▁done	-8.69086
▁After	-8.6911
side	-8.69522
ah	-8.69549
▁country	-8.69724
▁report	-8.70022
▁cost	-8.70145
▁minutes	-8.70198
▁along	-8.70219
▁film	-8.70236
▁US	-8.70431
ving	-8.7086
▁Your	-8.70873
▁Su	-8.70891
▁several	-8.70968
▁face	-8.71067
io	-8.71082
▁reason	-8.71132
ism	-8.7116
▁possible	-8.71213
▁bring	-8.71218
ber	-8.71334
▁Pa	-8.71412
▁already	-8.7146
▁close	-8.7149
▁hours	-8.71538
▁turn	-8.71891
▁ever	-8.72194
▁store	-8.72237
ang	-8.72271
cent	-8.72373
▁price	-8.72811
▁far	-8.72827
bu	-8.72902
ities	-8.73118
▁single	-8.73129
▁based	-8.7332
▁often	-8.73536
▁won	-8.73586
ative	-8.73687
▁value	-8.73706
(	-8.73759
sa	-8.74169
▁law	-8.74398
ue	-8.74404
cur	-8.74406
ip	-8.74479
act	-8.74553
au	-8.74996
▁Please	-8.7521
▁try	-8.75554
ger	-8.75591
▁perfect	-8.75753
▁gr	-8.75995
ach	-8.76019
▁Na	-8.76032
▁control	-8.7612
form	-8.76239
▁Vi	-8.7643
▁young	-8.76474
▁record	-8.76578
▁continue	-8.76579
▁du	-8.76722
▁city	-8.76796
▁Y	-8.77099
▁friends	-8.77122
▁tell	-8.77169
▁size	-8.77267
▁learn	-8.77429
▁Ka	-8.77547
▁didn	-8.77598
▁key	-8.77706
▁step	-8.77885
▁cr	-8.77938
by	-8.7798
▁members	-8.78121
ever	-8.78373
▁doesn	-8.78752
▁non	-8.78758
▁hope	-8.79322
bi	-8.79325
▁Here	-8.79395
▁comes	-8.79433
ier	-8.79605
tain	-8.79697
▁range	-8.79711
tter	-8.79996
▁Ne	-8.80158
j	-8.80263
tri	-8.80328
pos	-8.80333
▁office	-8.80502
od	-8.8075
ff	-8.80873
▁travel	-8.80944
ure	-8.81015
ability	-8.81025
▁came	-8.81127
▁building	-8.81246
▁industry	-8.8126
▁search	-8.81266
ations	-8.81284
ft	-8.81499
▁started	-8.81855
▁body	-8.81967
▁future	-8.8208
tin	-8.82107
▁level	-8.82107
tur	-8.82452
▁air	-8.82466
▁State	-8.82518
▁However	-8.82605
ron	-8.82624
▁stay	-8.83049
▁government	-8.83294
▁lead	-8.83328
▁though	-8.83446
▁called	-8.83478
den	-8.83522
vo	-8.8383
▁months	-8.8384
▁Ad	-8.83855
▁mind	-8.83945
oc	-8.84199
da	-8.84384
▁month	-8.84523
▁doing	-8.84547
nch	-8.84558
▁City	-8.8477
▁main	-8.84817
day	-8.84823
▁date	-8.85289
▁bar	-8.85348
▁took	-8.85375
▁yet	-8.85378
▁five	-8.85582
▁X	-8.85688
▁leave	-8.85715
—	-8.85746
▁strong	-8.85808
ct	-8.85838
row	-8.85958
▁Bu	-8.86008
▁Now	-8.86177
lic	-8.86196
▁heart	-8.86285
▁makes	-8.86447
ile	-8.86498
ise	-8.87043
ear	-8.87073
▁early	-8.87108
▁means	-8.87243
▁meet	-8.87275
▁sign	-8.87357
ight	-8.87405
▁once	-8.87454
▁media	-8.87823
light	-8.87933
ious	-8.87941
In	-8.87956
▁follow	-8.8806
▁phone	-8.88172
▁model	-8.88399
▁return	-8.88544
▁buy	-8.88574
▁low	-8.8865
▁blog	-8.88707
▁went	-8.88826
ple	-8.8883
pp	-8.88834
▁Not	-8.89025
▁Some	-8.89155
▁bo	-8.89208
▁content	-8.89287
use	-8.89332
▁study	-8.89384
▁least	-8.89436
▁series	-8.89548
▁move	-8.89623
▁age	-8.89789
▁games	-8.89926
▁...	-8.89944
ER	-8.89978
▁practice	-8.90026
▁article	-8.90026
ual	-8.90087
▁Gu	-8.90225
ition	-8.90258
▁Go	-8.90521
▁sp	-8.90584
uck	-8.90623
▁whole	-8.90641
▁performance	-8.90691
▁issue	-8.90927
▁style	-8.91271
▁unique	-8.91284
▁actually	-8.91313
ze	-8.91342
ham	-8.91527
▁child	-8.91564
▁character	-8.91572
▁training	-8.91715
▁features	-8.91756
ler	-8.91786
▁brand	-8.91988
▁im	-8.92005
▁win	-8.92089
▁School	-8.92178
▁paper	-8.92252
▁cover	-8.92537
▁Man	-8.93001
▁talk	-8.93141
▁Pre	-8.93288
▁More	-8.93356
▁network	-8.93502
▁example	-8.9351
▁added	-8.93526
gg	-8.93571
art	-8.936
▁beautiful	-8.93707
▁offers	-8.94086
▁ago	-8.94202
sion	-8.94242
▁host	-8.94285
▁current	-8.94291
▁half	-8.94332
▁hit	-8.94341
lin	-8.94371
▁questions	-8.94453
ace	-8.94471
▁companies	-8.94481
ey	-8.94482
▁United	-8.94594
nt	-8.94805
It	-8.94887
▁Day	-8.94964
ator	-8.95087
ral	-8.95233
▁staff	-8.95325
▁organization	-8.95469
▁technology	-8.95626
▁result	-8.95709
▁couple	-8.95784
▁Ki	-8.95847
▁taking	-8.95891
▁drive	-8.95967
▁Du	-8.96007
IN	-8.96019
▁Ga	-8.9602
▁Can	-8.96074
ud	-8.96354
▁later	-8.96433
://	-8.96526
▁customers	-8.9659
▁focus	-8.96622
▁someone	-8.96629
▁times	-8.9685
▁receive	-8.96874
ign	-8.9697
▁human	-8.96998
▁everything	-8.97106
▁Ja	-8.97179
▁told	-8.97193
▁due	-8.97274
▁York	-8.9737
▁stand	-8.9741
▁God	-8.97459
▁Se	-8.97523
val	-8.97583
ging	-8.97658
▁simple	-8.9769
▁wide	-8.98043
▁fit	-8.98074
▁By	-8.98092
▁field	-8.98349
gar	-8.98363
▁class	-8.98387
▁South	-8.98388
▁address	-8.98388
▁track	-8.98522
▁everyone	-8.98559
▁*	-8.98623
▁problem	-8.98933
▁sc	-8.99033
▁While	-8.99117
fa	-8.99251
▁card	-8.99268
▁sound	-8.99387
▁movie	-8.99525
▁oil	-8.99554
▁/	-8.99602
▁print	-8.99715
▁action	-8.9975
▁bi	-8.99804
▁cut	-8.99939
▁Mi	-8.99957
▁known	-9.00136
ON	-9.00275
tal	-9.00453
▁Center	-9.00566
▁War	-9.0058
▁Or	-9.0058
▁role	-9.00646
▁Lu	-9.00661
▁break	-9.00703
▁complete	-9.0077
▁increase	-9.00899
pm	-9.00908
▁answer	-9.0101
▁consider	-9.01022
▁management	-9.01032
▁results	-9.01088
ble	-9.01093
▁fo	-9.01172
net	-9.01217
ology	-9.01223
ome	-9.01292
▁safe	-9.01344
▁link	-9.01347
▁Bar	-9.01368
pro	-9.01497
▁interest	-9.01535
▁Gr	-9.01562
ep	-9.01623
AR	-9.01678
ward	-9.01717
▁table	-9.01777
▁location	-9.01785
▁energy	-9.01949
all	-9.0203
▁Park	-9.02056
▁natural	-9.02061
▁white	-9.02064
▁El	-9.02125
fer	-9.02214
▁rest	-9.02314
▁front	-9.02348
▁click	-9.02408
▁review	-9.02506
bb	-9.02608
▁present	-9.02808
ory	-9.02875
▁High	-9.02883
ible	-9.03013
▁ensure	-9.0303
▁Sp	-9.03042
▁addition	-9.03048
OR	-9.03178
▁standard	-9.03209
▁Art	-9.03388
ration	-9.03422
▁given	-9.03461
ack	-9.03613
▁seen	-9.03714
▁understand	-9.03781
iv	-9.03873
▁idea	-9.04048
AN	-9.04144
▁World	-9.04149
▁version	-9.04155
▁others	-9.04319
▁fl	-9.0453
▁six	-9.04568
▁type	-9.0475
▁stop	-9.04861
und	-9.04868
▁near	-9.04893
ix	-9.05013
▁North	-9.05257
▁decision	-9.05296
▁choice	-9.05297
▁anything	-9.05303
ens	-9.0533
▁require	-9.0537
led	-9.0549
ja	-9.05509
▁position	-9.05671
▁hold	-9.05741
▁official	-9.05817
vis	-9.0582
▁develop	-9.05871
▁John	-9.05959
▁web	-9.06019
▁Free	-9.0609
▁fire	-9.06242
▁matter	-9.06249
▁percent	-9.06448
▁watch	-9.06507
▁opportunity	-9.06515
par	-9.06633
▁claim	-9.06976
van	-9.07026
▁original	-9.07154
▁National	-9.0716
rt	-9.07172
▁County	-9.07218
▁En	-9.07372
▁clean	-9.07382
▁history	-9.07396
▁meeting	-9.07457
year	-9.07474
▁Fa	-9.0753
work	-9.07558
cc	-9.07614
let	-9.07686
▁From	-9.07697
▁clear	-9.07754
fin	-9.0776
rr	-9.07795
▁various	-9.07867
▁final	-9.07944
▁favorite	-9.07991
▁http	-9.08024
ize	-9.08102
gi	-9.08123
▁above	-9.08464
▁x	-9.08494
▁summer	-9.087
▁details	-9.0884
▁latest	-9.08846
▁question	-9.08852
▁walk	-9.08976
▁further	-9.08998
▁chance	-9.09001
▁send	-9.09051
uc	-9.09086
▁Ex	-9.09165
▁Friday	-9.09178
▁fall	-9.09349
▁Cha	-9.09405
rk	-9.09408
▁forward	-9.09425
▁black	-9.09495
▁Sha	-9.09918
▁author	-9.09923
▁via	-9.0997
▁major	-9.10024
▁file	-9.10081
▁popular	-9.10087
ink	-9.10236
▁yourself	-9.10263
▁designed	-9.10274
wi	-9.10322
▁issues	-9.10355
▁skin	-9.1039
po	-9.10458
▁source	-9.10492
▁function	-9.10643
▁friend	-9.10647
▁pass	-9.10764
▁among	-9.10973
This	-9.11119
▁soon	-9.1122
▁property	-9.1125
▁living	-9.11302
kin	-9.11362
ped	-9.11414
ng	-9.1151
▁taken	-9.11531
▁pretty	-9.11729
low	-9.1176
▁attend	-9.11802
▁amount	-9.11816
▁men	-9.1183
org	-9.11876
▁events	-9.11903
serv	-9.1192
▁required	-9.11944
▁red	-9.11947
▁trying	-9.12043
ments	-9.121
▁whether	-9.1216
lor	-9.12175
▁remain	-9.1218
▁treatment	-9.12188
▁ask	-9.12231
▁areas	-9.12378
▁nice	-9.12492
ug	-9.12493
▁specific	-9.12513
ec	-9.12558
▁build	-9.12672
▁Si	-9.12675
▁sub	-9.12692
▁Tra	-9.12817
▁according	-9.12932
▁da	-9.12973
gen	-9.13047
▁moment	-9.13071
▁provides	-9.13091
her	-9.13352
▁risk	-9.13405
▁board	-9.13579
▁writing	-9.13655
▁land	-9.13887
ular	-9.13922
▁Even	-9.13944
▁cause	-9.13947
▁coming	-9.13968
▁kids	-9.13981
▁allow	-9.14062
▁document	-9.14158
▁relationship	-9.14225
▁almost	-9.14284
du	-9.1439
tan	-9.14518
▁Sh	-9.14518
▁financial	-9.14536
▁San	-9.14556
▁join	-9.14693
ium	-9.14856
▁Saturday	-9.14917
▁super	-9.15082
ding	-9.15089
▁Of	-9.15119
▁needed	-9.15156
▁especially	-9.15235
▁morning	-9.15235
▁March	-9.15265
▁song	-9.15295
▁plant	-9.15355
▁Un	-9.15503
▁release	-9.15517
▁cup	-9.15537
▁ready	-9.1561
fic	-9.15631
▁running	-9.15723
ina	-9.15918
▁potential	-9.15938
▁suggest	-9.15938
▁choose	-9.15938
ture	-9.15956
▁Don	-9.15989
▁member	-9.16125
▁reading	-9.16162
▁hot	-9.16233
▁education	-9.16263
RE	-9.1627
▁April	-9.16324
▁Da	-9.16425
▁approach	-9.16453
▁tax	-9.16476
▁Qu	-9.1655
▁begin	-9.16579
▁Sunday	-9.16654
▁points	-9.16711
han	-9.16723
▁star	-9.16765
▁door	-9.16919
istic	-9.16962
▁bad	-9.16998
ev	-9.16998
▁pick	-9.17062
▁gift	-9.17166
yn	-9.17522
▁Mu	-9.17548
▁mean	-9.17608
har	-9.17705
▁currently	-9.1773
▁Har	-9.17776
▁individual	-9.17861
▁partner	-9.1791
ping	-9.17969
▁center	-9.18028
lar	-9.18102
ong	-9.18105
▁happen	-9.1814
▁artist	-9.18168
▁recent	-9.18215
▁software	-9.18215
▁Just	-9.18247
▁box	-9.1826
Z	-9.18324
▁June	-9.18377
▁Pi	-9.18396
▁Health	-9.18606
▁clients	-9.18659
▁provided	-9.18747
▁environment	-9.188
▁extra	-9.18829
▁period	-9.18869
▁Wa	-9.18887
▁inter	-9.18897
▁Mr	-9.18911
int	-9.18916
zz	-9.18919
nn	-9.18927
ren	-9.18936
▁common	-9.18988
ify	-9.19045
▁includes	-9.1908
Q	-9.19127
Re	-9.19135
▁Jo	-9.19246
▁career	-9.19302
▁news	-9.19324
▁road	-9.19338
▁fresh	-9.19399
▁match	-9.1966
▁either	-9.19664
▁weeks	-9.19671
▁House	-9.19761
▁impact	-9.19798
▁recently	-9.19829
▁President	-9.19931
▁su	-9.19958
lan	-9.19969
▁wanted	-9.20004
▁party	-9.20031
▁touch	-9.20043
hy	-9.20097
ult	-9.20166
for	-9.20189
▁happy	-9.20198
ore	-9.2027
▁download	-9.20281
▁held	-9.20305
▁quite	-9.2047
▁Read	-9.20502
▁behind	-9.20668
▁Home	-9.20713
▁July	-9.20717
set	-9.20724
▁Ri	-9.20748
▁throughout	-9.20812
ea	-9.20881
▁else	-9.20883
▁Ar	-9.20992
▁purchase	-9.20997
▁vehicle	-9.21005
▁screen	-9.2106
▁method	-9.21411
▁self	-9.21489
of	-9.21561
ified	-9.21918
▁Th	-9.21963
▁se	-9.21971
ization	-9.22028
▁credit	-9.22092
▁private	-9.22227
▁save	-9.22458
▁Get	-9.22643
▁charge	-9.22656
gr	-9.22665
▁Dis	-9.22667
▁additional	-9.22692
▁third	-9.22707
▁Com	-9.22725
▁asked	-9.22841
▁items	-9.22898
▁security	-9.2312
▁leg	-9.23162
▁knowledge	-9.23189
own	-9.23189
my	-9.23222
▁success	-9.23223
▁--	-9.23309
▁Wi	-9.23309
ung	-9.23462
▁police	-9.23466
ST	-9.23572
cha	-9.23695
▁trip	-9.23706
▁award	-9.23745
▁probably	-9.23812
clu	-9.23857
▁difficult	-9.23881
▁message	-9.2409
▁skills	-9.24201
▁created	-9.24206
ES	-9.24212
▁j	-9.24217
off	-9.24272
▁Fe	-9.24274
▁Per	-9.24283
▁options	-9.24285
part	-9.24355
▁note	-9.24376
▁enter	-9.24389
▁sales	-9.24432
▁inside	-9.24454
▁however	-9.24475
ash	-9.24607
▁floor	-9.24859
▁contract	-9.24929
like	-9.25006
▁cool	-9.2505
▁Pe	-9.25084
▁Je	-9.25211
▁outside	-9.2525
▁Monday	-9.25365
▁App	-9.25414
▁hair	-9.2556
▁words	-9.25592
ade	-9.2562
▁request	-9.25672
AL	-9.25889
▁West	-9.25891
put	-9.25902
▁international	-9.25916
pr	-9.2608
ana	-9.26082
board	-9.26088
▁late	-9.26343
▁simply	-9.26343
ef	-9.26409
▁firm	-9.26416
▁TV	-9.26575
▁customer	-9.26609
▁players	-9.2668
▁collection	-9.27027
▁anyone	-9.27172
ook	-9.27277
▁etc	-9.27315
▁activities	-9.27416
bit	-9.27436
▁appear	-9.27469
dic	-9.27525
▁reach	-9.27525
▁users	-9.27534
mate	-9.27566
▁fine	-9.27643
cle	-9.27664
▁Mon	-9.27879
▁Time	-9.27913
▁green	-9.27923
▁application	-9.27992
rit	-9.28118
mal	-9.28125
based	-9.28404
ric	-9.28492
uff	-9.2855
mit	-9.28552
ced	-9.2866
▁learning	-9.28686
▁represent	-9.28704
▁Red	-9.28831
▁His	-9.28833
▁likely	-9.28838
▁fast	-9.28988
▁Che	-9.29056
str	-9.29119
▁ball	-9.29139
▁received	-9.29256
▁Hu	-9.29282
▁shop	-9.29348
ants	-9.29406
over	-9.29458
ient	-9.29509
unt	-9.29515
▁reduce	-9.29536
▁computer	-9.29747
▁improve	-9.29768
▁custom	-9.29816
ney	-9.29906
ker	-9.29933
▁works	-9.29947
▁stock	-9.30007
▁growth	-9.30011
▁write	-9.30059
▁deep	-9.30089
▁similar	-9.30115
▁goal	-9.30186
back	-9.30229
▁located	-9.30252
▁dog	-9.30304
▁heat	-9.30383
▁recommend	-9.30411
▁problems	-9.30479
qua	-9.30696
▁Black	-9.30869
▁platform	-9.30932
▁display	-9.31021
▁Sc	-9.31025
gra	-9.31455
▁spot	-9.31565
▁operation	-9.31605
▁town	-9.3163
bin	-9.31666
▁ground	-9.31695
▁accept	-9.31832
▁Her	-9.31864
▁met	-9.31902
▁image	-9.31931
▁pain	-9.31959
ya	-9.31979
▁student	-9.32005
▁mu	-9.32047
▁pa	-9.32101
▁round	-9.32504
▁production	-9.32553
app	-9.32579
press	-9.32735
fu	-9.32738
▁isn	-9.32759
▁serve	-9.32847
▁national	-9.32924
▁amazing	-9.33041
▁total	-9.33071
▁longer	-9.33103
amp	-9.33145
▁UK	-9.33158
ock	-9.332
▁code	-9.33253
▁unit	-9.33269
▁sun	-9.33348
tch	-9.33408
IC	-9.33422
▁expect	-9.335
▁protect	-9.33513
▁finish	-9.33519
og	-9.33585
ai	-9.33667
▁collect	-9.33684
▁August	-9.33805
▁rather	-9.33809
▁window	-9.33897
za	-9.33951
▁title	-9.3396
▁Work	-9.34078
▁medical	-9.34118
▁America	-9.34125
▁First	-9.3419
▁remember	-9.34205
▁nothing	-9.34209
▁block	-9.34225
▁January	-9.34267
▁prevent	-9.3427
▁worth	-9.34303
▁act	-9.3432
tern	-9.34389
▁shows	-9.34522
ail	-9.34789
ute	-9.34829
▁providing	-9.34885
▁deliver	-9.349
▁update	-9.34963
lit	-9.35084
▁fight	-9.35102
▁cap	-9.35135
▁discuss	-9.35162
▁feeling	-9.3517
▁Ru	-9.35362
AC	-9.35405
vers	-9.35452
ED	-9.35489
men	-9.3559
▁playing	-9.35631
▁Inc	-9.36214
ank	-9.36306
hu	-9.36326
▁girl	-9.36403
▁material	-9.36429
▁director	-9.36431
night	-9.36434
▁treat	-9.36676
ING	-9.36689
▁former	-9.36702
▁respect	-9.36765
log	-9.36793
▁boy	-9.3684
▁court	-9.36847
▁Group	-9.36938
▁weekend	-9.37028
ib	-9.37085
▁wish	-9.3718
imp	-9.37201
▁variety	-9.37239
▁club	-9.37247
▁multi	-9.37272
▁true	-9.37297
cu	-9.37375
▁Also	-9.37573
▁general	-9.37583
IT	-9.37642
▁seems	-9.37661
▁death	-9.37719
▁average	-9.37879
▁September	-9.38005
▁October	-9.38018
ency	-9.38022
▁ho	-9.38038
▁eye	-9.38124
fi	-9.3819
▁photograph	-9.38203
lip	-9.3824
▁lives	-9.38373
rate	-9.38422
▁photos	-9.38448
lf	-9.38509
example	-9.38591
ets	-9.38656
ox	-9.38712
▁wood	-9.38773
▁comment	-9.38801
stone	-9.38881
▁decided	-9.38902
▁attack	-9.38923
▁Well	-9.38956
▁loss	-9.3898
bl	-9.39019
pt	-9.39035
▁leading	-9.39049
▁photo	-9.3907
▁situation	-9.39163
▁damage	-9.39165
AT	-9.39197
lie	-9.39214
ose	-9.39239
▁machine	-9.39244
▁programs	-9.39264
▁projects	-9.3928
▁direct	-9.39346
▁war	-9.39395
▁changes	-9.39415
▁quickly	-9.39433
▁Thursday	-9.39568
▁Street	-9.39569
▁Wednesday	-9.39574
fo	-9.3961
▁fund	-9.39782
IS	-9.39785
▁Tuesday	-9.39813
▁easily	-9.39976
ware	-9.40008
▁Department	-9.40057
▁Facebook	-9.40057
▁mar	-9.40085
▁Tri	-9.40173
▁train	-9.4019
▁Pu	-9.40218
▁Business	-9.40221
▁sell	-9.40253
▁effective	-9.4034
gan	-9.40365
ju	-9.40499
▁Ch	-9.40602
▁included	-9.40686
place	-9.40722
▁Up	-9.40806
▁subject	-9.40877
▁ways	-9.40896
▁Mc	-9.4092
▁session	-9.40962
die	-9.40988
▁global	-9.41042
▁ideas	-9.41059
▁involved	-9.41085
▁Bi	-9.41162
▁dr	-9.4117
yard	-9.41288
▁piece	-9.4142
▁user	-9.41498
▁region	-9.41502
house	-9.4151
▁campaign	-9.41538
▁difference	-9.41538
▁entire	-9.41587
▁Add	-9.41605
ably	-9.4161
ged	-9.41707
▁pet	-9.41742
▁drink	-9.418
▁Comp	-9.41803
▁systems	-9.41806
▁sex	-9.4181
▁fish	-9.41866
pi	-9.42026
▁cell	-9.42028
rac	-9.42101
tle	-9.42203
▁Then	-9.42298
▁mark	-9.42414
▁built	-9.42454
▁race	-9.42482
mark	-9.42551
▁figure	-9.42605
▁degree	-9.42622
▁States	-9.42636
▁lost	-9.42654
▁wall	-9.42682
ification	-9.42762
▁purpose	-9.42789
▁guide	-9.4279
▁East	-9.42903
br	-9.42992
▁Google	-9.43041
mar	-9.43125
▁base	-9.43202
▁takes	-9.43269
▁feature	-9.43283
tation	-9.43334
▁weight	-9.43391
▁anti	-9.43465
▁warm	-9.43505
▁insurance	-9.43548
▁lo	-9.43573
book	-9.43665
wood	-9.43721
▁band	-9.43731
▁section	-9.43745
▁Any	-9.43858
▁bank	-9.43976
▁usually	-9.43983
▁speak	-9.44065
▁language	-9.44141
lon	-9.44158
lies	-9.4416
▁maintain	-9.44169
▁safety	-9.44198
▁higher	-9.44204
PA	-9.44292
▁allows	-9.44317
▁sense	-9.44347
▁PM	-9.44352
▁text	-9.4437
cept	-9.44553
▁Hi	-9.4456
▁parents	-9.44569
▁hear	-9.44641
▁shot	-9.44685
▁legal	-9.44758
▁rate	-9.44791
ew	-9.44863
▁cannot	-9.44936
▁daily	-9.44996
▁India	-9.45032
▁saw	-9.4512
RA	-9.4518
pl	-9.45205
▁holiday	-9.45253
▁stage	-9.45261
▁suit	-9.45527
▁log	-9.4554
▁ha	-9.45637
eek	-9.457
▁worked	-9.45852
▁coach	-9.45853
▁Design	-9.45861
med	-9.45879
▁Most	-9.46
Ma	-9.46041
▁hotel	-9.46144
▁See	-9.4638
▁fa	-9.46423
▁expected	-9.46443
▁benefits	-9.4652
▁Port	-9.46611
▁Let	-9.46644
▁Act	-9.46784
▁Star	-9.46801
▁explain	-9.46814
▁perform	-9.46859
▁Te	-9.46876
▁modern	-9.46902
▁hands	-9.46919
▁Over	-9.46966
▁setting	-9.46976
▁term	-9.47227
▁mother	-9.47305
▁wait	-9.47407
▁huge	-9.47429
▁books	-9.47479
▁seem	-9.47558
▁teacher	-9.47612
▁International	-9.47691
▁quick	-9.47755
▁fee	-9.47758
▁word	-9.47836
room	-9.47902
–	-9.47903
▁fill	-9.47911
▁picture	-9.47926
▁marketing	-9.47944
▁Use	-9.47945
▁Green	-9.4796
▁Super	-9.48007
▁apply	-9.48042
▁concern	-9.4816
▁bag	-9.48257
▁positive	-9.48311
▁ten	-9.48394
▁Christmas	-9.484
raw	-9.48506
▁announced	-9.48661
rain	-9.48726
field	-9.4882
▁giving	-9.48845
ov	-9.48861
LE	-9.48894
▁notice	-9.48905
car	-9.49099
ford	-9.49135
▁London	-9.49201
▁option	-9.49264
LA	-9.49274
hop	-9.49364
rap	-9.49377
▁restaurant	-9.4938
▁California	-9.4947
▁Ni	-9.49483
▁grow	-9.49494
body	-9.49635
▁Am	-9.49675
▁Click	-9.49709
▁payment	-9.49739
▁patients	-9.49742
win	-9.49757
▁dream	-9.4983
&	-9.49836
roll	-9.49904
▁hour	-9.49921
▁goes	-9.49961
ray	-9.4998
wo	-9.50015
▁plans	-9.5003
US	-9.50034
ville	-9.50106
▁Ed	-9.50144
▁Play	-9.5017
▁Make	-9.5024
ET	-9.50241
▁certain	-9.50259
AS	-9.50347
▁highly	-9.50351
▁digital	-9.50373
▁gain	-9.50387
▁tour	-9.50426
▁released	-9.50514
▁Director	-9.50552
▁myself	-9.50553
len	-9.50597
chan	-9.50618
▁families	-9.50643
▁adult	-9.50656
▁woman	-9.50736
▁interested	-9.5089
▁investment	-9.50909
▁target	-9.50916
He	-9.51068
ld	-9.51095
▁baby	-9.511
▁English	-9.51189
az	-9.51224
▁sale	-9.51266
▁trust	-9.51286
▁condition	-9.51304
▁force	-9.51412
▁listen	-9.51531
▁attention	-9.51555
▁pen	-9.51571
cess	-9.51575
▁lower	-9.51586
▁Check	-9.51595
▁drop	-9.51626
▁related	-9.5163
▁November	-9.51647
gue	-9.51673
▁para	-9.51739
▁instead	-9.5177
▁tree	-9.51818
▁News	-9.51841
▁Cor	-9.51868
▁k	-9.51883
iti	-9.51938
view	-9.51942
▁solution	-9.52016
▁cat	-9.52028
illa	-9.52042
▁Pri	-9.52043
east	-9.52118
▁Ti	-9.52122
▁dress	-9.52196
▁arm	-9.52263
air	-9.52322
▁traditional	-9.52344
well	-9.52351
▁Service	-9.52359
▁themselves	-9.52384
▁published	-9.52392
ica	-9.52409
ko	-9.52445
ough	-9.5259
▁connect	-9.52622
▁trans	-9.5264
▁policy	-9.52661
▁player	-9.52678
▁count	-9.52694
▁College	-9.52846
af	-9.5286
▁Em	-9.52895
▁tools	-9.53053
▁offering	-9.53301
lock	-9.53329
www	-9.53335
lum	-9.53396
▁Ju	-9.534
▁wine	-9.53553
▁mid	-9.5356
▁disease	-9.53615
sure	-9.53616
izing	-9.53653
▁Air	-9.53687
▁blue	-9.53688
BC	-9.53716
ale	-9.53731
▁planning	-9.53732
▁recipe	-9.53779
▁played	-9.5379
▁opportunities	-9.53872
▁camera	-9.53901
cy	-9.54091
▁Since	-9.54164
vol	-9.54171
NA	-9.54275
▁Other	-9.5428
▁vote	-9.54296
▁eat	-9.544
▁statement	-9.54433
▁measure	-9.54436
▁December	-9.54436
▁speed	-9.54443
▁particular	-9.54521
▁letter	-9.54582
▁normal	-9.54658
▁equipment	-9.5472
▁Char	-9.5475
▁seven	-9.54832
▁mix	-9.5492
▁THE	-9.54924
rd	-9.55031
rin	-9.55184
ists	-9.55242
▁regular	-9.55281
▁Tre	-9.55281
ane	-9.55293
▁reported	-9.55349
▁response	-9.55384
You	-9.55406
▁Paul	-9.55416
▁foot	-9.55467
▁driver	-9.55503
read	-9.55573
▁interesting	-9.55579
▁roll	-9.55591
uk	-9.55609
▁Plan	-9.55619
▁healthy	-9.55664
▁Tu	-9.55694
▁written	-9.55835
▁According	-9.55861
▁president	-9.55861
▁David	-9.5587
▁interview	-9.55872
▁Post	-9.55877
nc	-9.55938
▁sold	-9.56122
▁physical	-9.56149
▁Great	-9.56151
ette	-9.56341
▁multiple	-9.56357
▁Q	-9.56496
▁pull	-9.56559
RO	-9.56642
▁annual	-9.5692
top	-9.56979
▁college	-9.57015
▁encourage	-9.57015
▁materials	-9.57039
ties	-9.57044
▁attempt	-9.57113
▁fr	-9.5714
▁disc	-9.5715
▁Bre	-9.57205
▁pack	-9.57228
▁fair	-9.57331
▁Out	-9.57433
▁Book	-9.57462
▁park	-9.57484
▁achieve	-9.57525
▁demand	-9.57601
▁challenge	-9.57607
▁looks	-9.57719
down	-9.57742
▁ability	-9.57746
sha	-9.57749
▁directly	-9.57758
▁dry	-9.57787
▁hospital	-9.57792
▁scene	-9.57798
▁businesses	-9.5786
▁completely	-9.57922
ez	-9.57941
cus	-9.57966
▁draw	-9.57979
▁sleep	-9.57988
▁Trans	-9.58099
▁Program	-9.58101
▁began	-9.58233
▁active	-9.58244
lay	-9.5826
▁mobile	-9.58281
struct	-9.58294
▁Twitter	-9.58379
▁commercial	-9.58477
SA	-9.58561
▁wrong	-9.58576
▁costs	-9.58619
unk	-9.58641
▁trade	-9.58707
▁starting	-9.58873
▁gold	-9.58875
*	-9.58896
aw	-9.58936
ense	-9.58948
▁Mac	-9.58954
▁employees	-9.58975
▁assist	-9.59017
mail	-9.59114
▁stuff	-9.59222
▁February	-9.59464
▁Game	-9.5953
▁resources	-9.59543
▁cancer	-9.59584
▁farm	-9.59637
▁Once	-9.59723
▁essential	-9.59762
rop	-9.59863
▁Best	-9.59891
ease	-9.59898
$	-9.59935
▁Year	-9.59953
graph	-9.60042
ridge	-9.60084
right	-9.60093
▁excellent	-9.60161
▁necessary	-9.60161
▁slow	-9.60182
EN	-9.60262
ically	-9.60281
▁taste	-9.603
▁manager	-9.60306
▁package	-9.60315
▁album	-9.60361
▁Many	-9.60398
▁effort	-9.60496
▁wedding	-9.60571
▁Ben	-9.60612
▁Office	-9.60614
▁Are	-9.60809
lish	-9.60867
▁Who	-9.60894
▁levels	-9.60944
▁stories	-9.61165
▁avoid	-9.61166
▁pan	-9.61191
▁select	-9.61231
▁spend	-9.61307
cl	-9.61335
▁advice	-9.61366
▁www	-9.61441
MS	-9.6145
▁correct	-9.61573
▁countries	-9.61588
▁conditions	-9.61644
▁sea	-9.61704
▁culture	-9.61771
▁upon	-9.61821
▁item	-9.61822
▁button	-9.61897
ari	-9.61951
▁images	-9.61953
▁owner	-9.6198
▁felt	-9.62079
▁gives	-9.62132
▁bill	-9.62331
not	-9.6234
▁quarter	-9.62348
▁press	-9.62418
▁rock	-9.62601
▁Pat	-9.62626
PS	-9.62672
▁itself	-9.6269
▁thinking	-9.62745
▁Why	-9.62771
▁miles	-9.62778
▁economic	-9.62791
meter	-9.6281
cycle	-9.62811
yl	-9.62895
▁wonderful	-9.62911
iz	-9.62962
SE	-9.62974
TM	-9.63012
▁garden	-9.631
▁sent	-9.63111
▁previous	-9.63217
▁Good	-9.63238
ax	-9.63377
erry	-9.63383
▁internet	-9.6343
▁pair	-9.6347
▁Have	-9.63512
bra	-9.63576
pur	-9.63622
▁seat	-9.63624
▁shape	-9.63831
gene	-9.63846
▁successful	-9.63882
acy	-9.63919
▁structure	-9.63926
▁rep	-9.63933
pping	-9.63935
▁soft	-9.63987
atch	-9.64147
▁groups	-9.64153
▁moving	-9.64191
itch	-9.6421
▁significant	-9.64255
▁William	-9.64341
▁gave	-9.64353
▁Council	-9.64445
▁conference	-9.64445
▁carry	-9.64449
ulation	-9.6445
▁Photo	-9.64528
▁Ab	-9.64535
▁flow	-9.64608
rian	-9.6474
▁White	-9.64803
▁Spa	-9.64976
▁creating	-9.65073
q	-9.65094
▁benefit	-9.65321
▁gas	-9.65381
▁element	-9.65389
▁towards	-9.65418
▁nature	-9.65511
Each	-9.65546
▁Will	-9.65578
▁Ph	-9.65682
▁Today	-9.65707
rack	-9.65901
jo	-9.65934
▁conduct	-9.66021
▁pictures	-9.66058
▁fully	-9.66089
▁cross	-9.66134
▁limit	-9.66173
▁growing	-9.66238
arch	-9.66352
▁loved	-9.66365
▁blood	-9.66445
▁comments	-9.66448
chi	-9.66608
▁weather	-9.66659
▁double	-9.66659
No	-9.66687
▁produce	-9.66792
▁Michael	-9.66871
▁fat	-9.66906
▁Hill	-9.66917
ulate	-9.66934
▁Award	-9.66939
▁Win	-9.66956
▁sur	-9.66971
▁Indian	-9.67045
▁drug	-9.67124
▁solutions	-9.67151
▁complex	-9.67192
▁Ko	-9.67216
▁Life	-9.67259
pir	-9.67293
nda	-9.67386
▁wasn	-9.67391
UN	-9.6742
▁Reg	-9.6744
▁welcome	-9.67514
teen	-9.67565
▁Services	-9.67649
ID	-9.67661
▁sometimes	-9.67741
▁Board	-9.67795
▁finding	-9.67826
▁sort	-9.68061
▁station	-9.68072
▁Nor	-9.68185
▁reflect	-9.68269
▁respond	-9.68269
▁electric	-9.68269
▁dark	-9.68292
▁connection	-9.68375
Ch	-9.68409
▁Find	-9.68416
▁dating	-9.68421
▁Science	-9.68486
▁sweet	-9.68486
▁wear	-9.68546
▁task	-9.68603
▁requirements	-9.6862
▁ban	-9.68644
▁paint	-9.68662
can	-9.68679
list	-9.68751
▁Law	-9.68755
▁limited	-9.68767
▁heard	-9.68775
▁saying	-9.68833
▁fans	-9.68887
▁consumer	-9.6891
▁engine	-9.69029
▁sites	-9.69097
▁Web	-9.69115
lam	-9.69282
▁mis	-9.69282
hood	-9.69285
CH	-9.69301
TH	-9.69334
▁types	-9.69427
▁Thank	-9.69483
▁Club	-9.69484
▁handle	-9.69556
▁Association	-9.69577
▁spent	-9.69577
uch	-9.69583
▁cases	-9.69649
▁led	-9.69654
▁finally	-9.69683
wing	-9.69688
▁Road	-9.69752
▁colour	-9.69797
ery	-9.69813
dent	-9.69981
▁kitchen	-9.70017
▁budget	-9.70018
▁device	-9.70043
▁stick	-9.7005
rie	-9.70159
▁prices	-9.70179
▁glass	-9.70183
AP	-9.70244
To	-9.7026
▁Product	-9.70268
▁Apple	-9.70311
▁score	-9.70324
▁na	-9.70362
▁street	-9.7046
▁Sal	-9.70465
▁cu	-9.70545
▁progress	-9.70569
▁discover	-9.70669
▁Hol	-9.70731
ik	-9.70759
▁Ac	-9.70765
ili	-9.70768
▁Blue	-9.70801
▁General	-9.71022
ators	-9.71083
ky	-9.71228
▁doctor	-9.71237
▁Last	-9.71288
▁Learn	-9.71354
▁tend	-9.71426
hol	-9.71502
EL	-9.71503
lk	-9.71526
▁eyes	-9.71571
▁bra	-9.71771
▁path	-9.71789
▁nation	-9.71812
▁eight	-9.71821
ole	-9.71833
▁ob	-9.71973
▁System	-9.7202
▁Canada	-9.7202
▁secure	-9.72138
▁repair	-9.72141
▁terms	-9.72213
cho	-9.72224
py	-9.72261
▁developed	-9.7227
▁exactly	-9.72363
▁Gold	-9.72364
oke	-9.72375
▁goals	-9.72404
▁sugar	-9.72494
▁bus	-9.7257
▁Research	-9.72584
▁brought	-9.72584
▁effect	-9.72786
▁temperature	-9.7281
▁pattern	-9.72811
▁turned	-9.72851
▁contain	-9.72864
wn	-9.72866
▁China	-9.72866
▁cold	-9.72877
eg	-9.729
▁surface	-9.72926
igh	-9.73036
▁bla	-9.7311
▁voice	-9.73153
ological	-9.73174
▁estate	-9.73302
▁Min	-9.7331
▁maybe	-9.73326
▁delivery	-9.73398
ising	-9.73433
▁individuals	-9.73528
▁concept	-9.73542
▁stress	-9.73574
▁Cre	-9.73584
▁Bur	-9.73621
▁cook	-9.73666
▁Inter	-9.73752
▁opening	-9.73813
▁advantage	-9.73835
▁officer	-9.73846
gin	-9.73891
▁enable	-9.73965
▁trail	-9.73983
▁Vo	-9.74012
▁def	-9.74028
▁volunteer	-9.74064
▁expand	-9.74065
▁push	-9.74065
▁port	-9.74067
pre	-9.74075
▁reports	-9.7411
▁fan	-9.74161
▁length	-9.74179
▁provider	-9.74206
more	-9.74226
▁thank	-9.74264
ME	-9.74265
▁Ter	-9.74319
▁direction	-9.74323
▁prior	-9.74352
▁girls	-9.74496
bri	-9.74523
▁Thanks	-9.74523
▁guarantee	-9.74524
▁Bri	-9.74593
▁wind	-9.74607
▁pop	-9.74711
▁audience	-9.74755
ature	-9.74769
▁Europe	-9.7479
▁Bill	-9.74823
mat	-9.74851
▁definitely	-9.74871
cor	-9.74873
▁talent	-9.74879
▁nu	-9.74906
▁Va	-9.74923
▁earn	-9.74965
▁coffee	-9.74987
▁nearly	-9.74999
▁Lake	-9.75083
▁James	-9.75108
▁client	-9.75122
atory	-9.75148
▁launch	-9.75206
▁wrote	-9.75219
▁became	-9.75219
▁wonder	-9.75273
script	-9.75331
Fi	-9.75401
▁Open	-9.75462
▁Fo	-9.75537
▁Windows	-9.75567
▁Church	-9.75568
▁Court	-9.75576
Mo	-9.7559
▁construction	-9.75596
pon	-9.75632
▁communication	-9.75684
vid	-9.75707
▁schedule	-9.75719
▁Review	-9.75763
▁competition	-9.75801
▁suffer	-9.75802
▁Real	-9.75831
▁Sam	-9.75839
▁install	-9.75861
▁affect	-9.7591
▁Exp	-9.7597
▁ski	-9.75981
▁classic	-9.76003
▁tried	-9.76087
▁retail	-9.76119
▁schools	-9.76164
TA	-9.76165
▁comfortable	-9.76214
wer	-9.76306
head	-9.76357
▁decor	-9.76377
▁Take	-9.76409
▁King	-9.76411
▁About	-9.76417
vin	-9.76423
gn	-9.76449
▁sports	-9.76456
▁European	-9.76479
▁excited	-9.76504
▁church	-9.76504
rat	-9.76507
▁beginning	-9.76538
tech	-9.76576
▁Education	-9.76621
▁overall	-9.76685
ase	-9.76829
▁Fire	-9.76906
▁grant	-9.7698
gent	-9.77051
▁mode	-9.77057
▁applications	-9.77096
▁loan	-9.77131
bound	-9.77149
pen	-9.77193
▁Internet	-9.77225
▁map	-9.77289
▁Big	-9.773
!!	-9.77312
▁mission	-9.7732
lea	-9.77394
▁parts	-9.7741
▁technique	-9.77449
▁plus	-9.77474
CA	-9.7762
▁analysis	-9.77686
▁promote	-9.77689
▁ship	-9.77933
▁kill	-9.77989
▁camp	-9.77991
rad	-9.78003
box	-9.78009
▁auto	-9.78025
▁billion	-9.78041
▁Washington	-9.78044
▁spa	-9.78113
▁offered	-9.7814
MA	-9.78156
▁Ver	-9.78184
▁fashion	-9.78283
▁selection	-9.78296
▁son	-9.78363
fully	-9.78377
▁tool	-9.7839
▁straight	-9.78403
▁terr	-9.78444
▁AM	-9.78484
ised	-9.78545
▁feet	-9.78593
▁surprise	-9.78644
▁activity	-9.78651
▁ideal	-9.78662
▁Cu	-9.78683
oon	-9.78714
IP	-9.78725
▁Love	-9.78769
▁daughter	-9.78883
▁Sch	-9.78902
▁Bel	-9.79194
▁trend	-9.79327
▁sector	-9.79367
▁wife	-9.79387
▁fi	-9.79423
▁largest	-9.79434
▁understanding	-9.79452
free	-9.79471
▁bottom	-9.79487
▁cash	-9.79549
▁responsible	-9.7973
▁Fin	-9.79786
▁exist	-9.79839
▁creative	-9.79973
ender	-9.80059
▁pressure	-9.80118
▁Top	-9.80159
HO	-9.80166
nce	-9.80187
▁invest	-9.80261
▁basic	-9.80321
▁considered	-9.80428
▁enhance	-9.80461
play	-9.80491
nut	-9.80509
point	-9.80563
▁ahead	-9.80625
▁Florida	-9.80706
ett	-9.80719
OL	-9.80747
▁experienced	-9.80811
▁truly	-9.80838
▁load	-9.80898
▁initial	-9.80985
burg	-9.81009
▁panel	-9.81072
▁Public	-9.81075
▁explore	-9.81075
▁transfer	-9.81091
▁Jan	-9.81111
bil	-9.81132
phy	-9.81132
▁candidate	-9.81198
Co	-9.81201
▁micro	-9.81204
cal	-9.8126
▁Project	-9.81321
try	-9.81342
▁north	-9.81373
pla	-9.81442
▁Texas	-9.81444
▁Bay	-9.81495
▁adjust	-9.81572
pin	-9.81632
how	-9.81677
▁balance	-9.81693
ought	-9.81762
▁serious	-9.81771
▁science	-9.81816
▁RE	-9.81877
▁driving	-9.8194
dia	-9.82069
ram	-9.82102
ok	-9.82157
De	-9.82227
mond	-9.82253
▁bed	-9.82314
▁min	-9.82412
▁paid	-9.82425
▁beyond	-9.82438
▁wild	-9.82451
▁Wal	-9.82468
▁Show	-9.82519
lb	-9.8254
▁Water	-9.82544
▁talking	-9.8258
aging	-9.82615
▁mi	-9.82639
urge	-9.82657
▁husband	-9.82687
▁desire	-9.82699
▁winter	-9.82806
PR	-9.82827
▁Island	-9.83045
▁patient	-9.8306
▁earlier	-9.83063
▁certainly	-9.83094
▁pool	-9.83116
▁Information	-9.83189
▁lack	-9.83194
▁throw	-9.83202
▁Ke	-9.83211
BA	-9.83222
▁Gar	-9.83242
▁Care	-9.83277
wel	-9.83283
▁exercise	-9.83315
▁easier	-9.83441
▁Power	-9.83468
MP	-9.83484
▁Call	-9.83517
▁Look	-9.83538
▁evening	-9.83554
▁Although	-9.83693
▁spec	-9.83729
▁background	-9.83737
IA	-9.83783
▁Sen	-9.8379
▁Every	-9.83866
▁served	-9.83885
OS	-9.83926
▁wi	-9.83937
▁supply	-9.83946
▁fruit	-9.83951
▁Col	-9.84017
▁storage	-9.84074
▁helping	-9.84195
▁Cap	-9.84202
▁comfort	-9.84258
Po	-9.84317
▁senior	-9.84327
▁PC	-9.84344
▁spring	-9.84388
▁himself	-9.84454
▁decade	-9.84477
▁movement	-9.84518
hen	-9.84624
▁Australia	-9.84718
▁Chi	-9.84744
rick	-9.84778
▁grand	-9.84813
▁honor	-9.84839
▁Sur	-9.84945
je	-9.84964
CC	-9.85055
TE	-9.85102
▁tips	-9.85215
▁guy	-9.85224
▁manage	-9.85281
▁journey	-9.85349
▁Dan	-9.854
▁Light	-9.85458
If	-9.85491
▁express	-9.85501
SS	-9.85526
▁Mor	-9.85545
▁People	-9.85575
zo	-9.8565
▁Music	-9.85692
▁completed	-9.85729
▁political	-9.85735
▁salt	-9.85821
HA	-9.85821
▁finished	-9.85832
▁smooth	-9.85864
uction	-9.86071
cel	-9.86084
wan	-9.86165
rank	-9.86234
▁Bank	-9.86296
▁spread	-9.86401
▁pieces	-9.8652
▁rid	-9.86522
▁powerful	-9.86548
Con	-9.86573
AM	-9.86598
▁Management	-9.86642
▁posted	-9.86647
▁Team	-9.86692
▁beauty	-9.86773
▁accident	-9.86903
▁protection	-9.86914
▁MA	-9.86957
ball	-9.86972
gate	-9.86993
For	-9.87014
▁copy	-9.87073
▁Lab	-9.87081
▁meal	-9.87186
▁Cur	-9.87188
pan	-9.87231
▁replace	-9.87251
▁communities	-9.87295
▁procedure	-9.87295
▁metal	-9.874
EC	-9.87407
▁Student	-9.87426
▁dance	-9.87429
▁district	-9.87439
▁CA	-9.87649
▁master	-9.87657
DA	-9.87707
▁During	-9.87754
▁opinion	-9.8782
▁father	-9.87863
▁flu	-9.87908
▁Men	-9.87912
BS	-9.87914
▁Dec	-9.87919
▁Rock	-9.87964
CT	-9.8806
:||	-9.88177
▁Special	-9.88232
▁Christ	-9.88292
▁knew	-9.88355
▁opt	-9.88469
▁basis	-9.88481
town	-9.88487
maker	-9.88492
▁cards	-9.88493
bal	-9.88527
itive	-9.88568
mag	-9.88577
▁Note	-9.88589
▁craft	-9.88641
▁dec	-9.88718
▁Part	-9.88722
▁department	-9.88746
▁Right	-9.88774
▁Sun	-9.88793
▁immediately	-9.88861
▁separate	-9.88879
term	-9.88929
▁discussion	-9.8894
▁couldn	-9.89004
▁proud	-9.89207
▁realize	-9.89219
▁Two	-9.89245
ibility	-9.89286
▁rain	-9.89369
▁butter	-9.89375
▁View	-9.89384
▁beat	-9.89398
▁increased	-9.89403
▁Robert	-9.89578
▁Like	-9.89589
▁Mark	-9.89596
▁highest	-9.8966
▁Central	-9.89681
▁meaning	-9.89703
matic	-9.8974
▁object	-9.89759
▁sit	-9.89824
▁Tom	-9.89864
▁egg	-9.89931
▁Mary	-9.89949
▁Community	-9.89949
▁chair	-9.89984
bird	-9.9002
▁dead	-9.90031
▁Online	-9.90051
▁traffic	-9.90084
▁List	-9.90123
aries	-9.90185
LO	-9.9023
▁Pen	-9.90377
▁TO	-9.90409
▁dinner	-9.90489
ancy	-9.90515
▁alone	-9.90543
▁winner	-9.90569
▁refer	-9.90584
▁Peter	-9.90637
▁particularly	-9.90639
▁shopping	-9.90645
▁thanks	-9.90693
▁monitor	-9.90759
▁increasing	-9.90759
▁server	-9.90844
▁leader	-9.90849
MO	-9.90849
▁CO	-9.91008
▁profile	-9.91032
▁shoe	-9.91072
▁named	-9.91102
▁Mil	-9.91151
AD	-9.91165
▁relax	-9.91168
▁District	-9.9118
but	-9.91207
▁Sea	-9.91244
get	-9.91284
▁occasion	-9.91303
▁Data	-9.91347
▁Hall	-9.91416
▁outdoor	-9.91441
▁appropriate	-9.9149
▁born	-9.91495
▁celebrate	-9.91576
▁generation	-9.91577
▁essay	-9.91714
▁Back	-9.91717
▁Brown	-9.91722
▁corner	-9.91732
▁moved	-9.91869
reg	-9.91979
▁secret	-9.91987
▁rates	-9.9207
▁peace	-9.92128
late	-9.92129
▁Pay	-9.92167
▁minute	-9.92255
▁dollar	-9.92264
▁graduate	-9.92365
▁Cl	-9.92369
▁Mill	-9.92375
▁Bra	-9.92387
▁Contact	-9.924
vic	-9.92417
▁stream	-9.92466
▁highlight	-9.92497
▁Company	-9.92539
▁Police	-9.92677
▁helped	-9.92864
▁allowed	-9.92877
▁rich	-9.92887
▁fix	-9.92916
angle	-9.92939
▁influence	-9.92953
key	-9.93065
▁advance	-9.93099
▁remove	-9.93108
▁reviews	-9.9312
▁Ken	-9.93159
▁miss	-9.93183
▁files	-9.93404
SP	-9.93471
!!!	-9.93486
▁challenges	-9.93634
▁changed	-9.93635
▁federal	-9.93648
▁Food	-9.93671
zi	-9.93747
▁whose	-9.9377
▁cream	-9.9379
▁Under	-9.93845
▁edge	-9.93867
▁iPhone	-9.93928
▁boat	-9.9396
orn	-9.93998
▁conversation	-9.94068
▁middle	-9.94074
▁onto	-9.94108
▁Yes	-9.94121
▁bright	-9.94129
▁Mont	-9.94158
▁River	-9.94181
▁poor	-9.94226
▁beach	-9.94249
love	-9.94257
ike	-9.94308
▁devices	-9.94316
cro	-9.94341
NE	-9.94342
gram	-9.9439
▁tea	-9.94418
ivity	-9.94423
▁Ge	-9.94592
ttle	-9.94603
▁ride	-9.94617
rated	-9.94642
▁residents	-9.94697
▁jump	-9.94774
mouth	-9.94786
▁obtain	-9.9479
▁although	-9.94912
▁aspect	-9.94921
berg	-9.94927
▁haven	-9.94936
▁frame	-9.95065
▁remind	-9.95067
▁guys	-9.95099
▁cheap	-9.952
CE	-9.95264
▁appreciate	-9.95337
▁dedicated	-9.95337
▁error	-9.95339
▁operate	-9.9534
▁independent	-9.95351
take	-9.95359
ctive	-9.95449
▁agent	-9.95451
▁edit	-9.95452
▁extremely	-9.95457
▁alternative	-9.95479
ison	-9.95603
▁French	-9.95622
rist	-9.95661
▁Spring	-9.95683
▁comm	-9.95733
NO	-9.95771
▁England	-9.95907
word	-9.95916
SO	-9.95918
lash	-9.95994
nel	-9.96004
eep	-9.9607
pat	-9.96103
FA	-9.96174
▁Wood	-9.96204
▁improvement	-9.96229
▁looked	-9.96238
▁critical	-9.96283
EA	-9.96377
▁skill	-9.9652
round	-9.96608
▁British	-9.96623
▁capital	-9.96623
Th	-9.96672
▁rules	-9.96694
▁shared	-9.96831
cast	-9.97018
▁Shi	-9.97047
▁mail	-9.97056
▁layer	-9.97123
▁effects	-9.97159
▁writer	-9.97166
▁flat	-9.97169
▁strategy	-9.972
▁Master	-9.97258
!)	-9.97272
▁channel	-9.97345
▁Ven	-9.97444
▁rule	-9.97479
▁heavy	-9.97491
▁guests	-9.97495
▁forget	-9.97521
▁snow	-9.97608
life	-9.97608
▁efficient	-9.97635
▁fabric	-9.97635
▁technical	-9.97635
▁bat	-9.97663
▁Mag	-9.97702
▁catch	-9.97777
▁cast	-9.97817
▁decide	-9.97835
▁efforts	-9.97875
▁Cal	-9.97898
▁existing	-9.97918
▁facilities	-9.97925
▁Smith	-9.97927
ken	-9.98066
▁solid	-9.98085
▁Los	-9.98124
long	-9.98162
▁hundred	-9.98217
▁Follow	-9.98217
▁shown	-9.98282
spite	-9.98317
▁associated	-9.98318
▁fear	-9.98348
▁Family	-9.98364
▁gone	-9.98422
What	-9.98442
▁compared	-9.98489
▁Hotel	-9.98513
▁teaching	-9.98518
▁regarding	-9.98654
▁Because	-9.98656
NS	-9.98666
▁shipping	-9.98818
lly	-9.99015
oh	-9.99121
▁Obama	-9.99245
▁gather	-9.99248
▁roof	-9.99249
▁sister	-9.99405
▁participate	-9.99541
▁pal	-9.99546
▁lose	-9.99548
ND	-9.9956
▁spoke	-9.99562
ella	-9.99573
▁equal	-9.99603
stand	-9.99681
▁links	-9.99691
pot	-9.99691
▁Foundation	-9.99721
verse	-9.9973
UT	-9.99751
zy	-9.99826
▁implement	-9.99877
▁kick	-9.99887
test	-9.99941
▁spin	-10.0019
UR	-10.002
tail	-10.002
▁larger	-10.0021
▁format	-10.0022
▁continued	-10.0023
▁agreement	-10.0024
▁USA	-10.003
▁income	-10.0035
▁occur	-10.0042
▁strength	-10.0047
▁election	-10.0059
▁Auto	-10.006
▁League	-10.0073
ji	-10.0073
▁sponsor	-10.0088
▁license	-10.0088
▁medium	-10.0088
▁flight	-10.0089
▁bedroom	-10.009
▁Set	-10.0096
fra	-10.0101
▁environmental	-10.0104
tru	-10.0111
▁promise	-10.0119
▁waiting	-10.0122
▁seek	-10.0133
▁identify	-10.0133
▁bowl	-10.0134
▁followed	-10.0137
▁becoming	-10.0137
▁cru	-10.0145
▁chat	-10.0146
tribute	-10.0161
▁Development	-10.0164
▁Pan	-10.0166
▁flavor	-10.0179
▁brother	-10.0179
▁threat	-10.0192
rum	-10.0197
▁raise	-10.02
ux	-10.0206
▁consist	-10.0208
▁brain	-10.0208
▁famous	-10.0209
▁happened	-10.021
▁covered	-10.0221
▁military	-10.0224
▁Centre	-10.024
▁Christian	-10.0244
▁Martin	-10.0249
▁executive	-10.0255
▁sauce	-10.0255
▁classes	-10.027
ino	-10.0272
▁watching	-10.0276
▁IT	-10.0276
ita	-10.0278
nie	-10.0281
▁quote	-10.0285
grad	-10.0287
▁biggest	-10.0301
▁smart	-10.0301
▁Commission	-10.0301
▁except	-10.0305
▁Sign	-10.0305
peak	-10.0307
▁contains	-10.0312
▁Card	-10.0314
▁Download	-10.0316
bro	-10.0322
ban	-10.0326
▁appointment	-10.0331
▁Place	-10.0331
▁transform	-10.0334
shirt	-10.0335
cultural	-10.0347
▁leaving	-10.0347
▁closed	-10.0352
bert	-10.0358
▁cent	-10.036
▁horse	-10.0363
▁hang	-10.0367
▁Fla	-10.0375
▁studies	-10.0377
▁diet	-10.0378
▁older	-10.0391
▁leaders	-10.0406
▁produced	-10.041
▁chocolate	-10.0424
▁population	-10.0425
▁expert	-10.043
lot	-10.0434
▁owners	-10.0436
▁gun	-10.0437
▁combination	-10.0439
▁component	-10.0439
▁survey	-10.0439
▁football	-10.044
▁keeping	-10.0441
PE	-10.0444
▁developing	-10.0446
▁involve	-10.0447
▁engage	-10.0447
▁Price	-10.0453
EM	-10.0464
▁learned	-10.0464
phone	-10.0469
▁novel	-10.0474
▁vision	-10.0474
itt	-10.0476
▁breath	-10.0486
▁exchange	-10.0486
▁mental	-10.0489
▁exclusive	-10.0502
DE	-10.0506
▁menu	-10.051
▁grade	-10.0526
▁Media	-10.0528
▁trial	-10.0532
▁Full	-10.0536
▁serving	-10.0539
▁adding	-10.0539
cover	-10.054
pire	-10.0542
▁broad	-10.0548
▁episode	-10.0549
▁cheese	-10.0549
▁lock	-10.0551
▁listed	-10.0553
▁Trump	-10.0567
▁sample	-10.058
▁George	-10.0581
load	-10.0583
▁feed	-10.0594
▁centre	-10.0596
fla	-10.0598
▁winning	-10.0612
▁Main	-10.0615
▁truck	-10.0617
▁Hy	-10.0619
▁rise	-10.062
▁numerous	-10.0628
▁Jesus	-10.0628
▁blend	-10.063
ington	-10.0631
even	-10.0633
ama	-10.0633
▁seeing	-10.0643
mination	-10.0643
▁Chicago	-10.0643
▁bottle	-10.0645
▁entry	-10.0648
wise	-10.0652
▁institution	-10.066
▁whatever	-10.0674
▁ingredients	-10.0676
▁Report	-10.0686
employ	-10.0686
▁perhaps	-10.0691
▁Institute	-10.0691
▁Beach	-10.0691
▁emb	-10.0692
▁bike	-10.0694
▁Ann	-10.0698
lig	-10.071
▁Tru	-10.0712
▁visual	-10.0723
▁south	-10.0724
▁Camp	-10.0726
TS	-10.0727
▁fly	-10.0728
▁actual	-10.0729
bon	-10.0731
▁Scott	-10.0732
▁Arm	-10.0734
gy	-10.0741
TO	-10.0742
▁Tour	-10.0743
▁opened	-10.0745
▁useful	-10.0755
rig	-10.0757
▁thousands	-10.0763
▁passed	-10.0767
▁Amazon	-10.0771
▁Plus	-10.0774
▁radio	-10.0779
▁mini	-10.0787
▁capacity	-10.0787
▁evidence	-10.0787
ola	-10.0787
SC	-10.0792
▁experts	-10.0796
▁Both	-10.0799
spec	-10.0801
▁awesome	-10.0803
▁primary	-10.0803
▁spending	-10.0806
care	-10.0809
▁Watch	-10.0814
▁facility	-10.0819
▁Uni	-10.0831
▁scar	-10.0833
▁kept	-10.0836
▁capture	-10.0839
range	-10.0843
▁Val	-10.0845
▁Head	-10.0845
pho	-10.0847
▁Join	-10.0851
▁editor	-10.086
▁determine	-10.0862
vy	-10.0865
▁profit	-10.0866
▁animals	-10.0866
▁Social	-10.0868
▁CEO	-10.0868
name	-10.0871
ENT	-10.0876
▁greater	-10.0885
▁established	-10.089
▁programme	-10.0893
fil	-10.0893
▁exciting	-10.0901
▁plenty	-10.0901
NC	-10.0904
▁Cup	-10.0909
inch	-10.0913
▁Week	-10.0928
▁Support	-10.0933
▁Start	-10.0941
made	-10.0942
▁kid	-10.0943
▁friendly	-10.0943
tire	-10.0943
▁attach	-10.0952
▁switch	-10.0966
▁status	-10.0966
▁milk	-10.0967
▁Steve	-10.097
▁Leg	-10.0975
law	-10.0979
▁Another	-10.0982
▁sexual	-10.0985
▁burn	-10.0997
vision	-10.0999
▁shall	-10.1002
proof	-10.1008
▁Date	-10.1009
▁counter	-10.1011
▁plastic	-10.1015
There	-10.1024
▁Ye	-10.1028
ku	-10.1031
eng	-10.1032
▁Member	-10.1032
▁presented	-10.104
▁Grand	-10.1044
▁Valley	-10.105
▁appearance	-10.1056
▁wash	-10.1057
▁OF	-10.1061
▁depend	-10.1062
▁workers	-10.1064
hur	-10.1064
▁apartment	-10.1065
▁saving	-10.1065
▁Wheth	-10.1066
▁fantastic	-10.1081
▁bought	-10.1087
▁selected	-10.1096
▁boot	-10.1098
ground	-10.1099
▁Ve	-10.1101
tric	-10.1102
▁prepare	-10.111
▁Op	-10.1114
▁kit	-10.1117
▁prove	-10.1125
mission	-10.1127
ich	-10.1128
▁lunch	-10.1131
une	-10.1138
▁Market	-10.1138
▁instruction	-10.1148
▁updated	-10.1149
▁discount	-10.1149
▁contribute	-10.1152
▁meat	-10.1159
▁agree	-10.1164
now	-10.1172
▁yesterday	-10.1181
▁memory	-10.1181
hill	-10.1181
▁adopt	-10.1182
▁installation	-10.1199
▁rare	-10.1208
source	-10.1211
▁studio	-10.1215
▁honest	-10.1215
▁properties	-10.1215
▁sport	-10.1215
▁organize	-10.1221
▁Guide	-10.1222
▁Jack	-10.123
▁female	-10.1231
agon	-10.1232
▁sharing	-10.1249
▁detail	-10.1258
▁commitment	-10.1269
▁Keep	-10.1273
▁raised	-10.1276
▁tickets	-10.1279
▁wheel	-10.1282
▁fuel	-10.1283
xi	-10.1284
▁Wall	-10.1286
▁Africa	-10.1286
IL	-10.1289
▁virtual	-10.1299
▁route	-10.1301
IM	-10.1314
▁ultimate	-10.1316
▁guess	-10.1317
▁aren	-10.133
▁library	-10.1333
cut	-10.1344
▁Sand	-10.1347
▁Network	-10.135
▁France	-10.135
▁Dev	-10.1354
ddle	-10.1356
▁Class	-10.1358
aff	-10.1358
print	-10.1362
▁Organ	-10.1369
▁focused	-10.1371
▁harm	-10.1378
▁adventure	-10.1384
▁faith	-10.1384
▁psych	-10.1384
last	-10.1399
▁advanced	-10.14
ographic	-10.1401
▁afternoon	-10.1401
▁brown	-10.1401
▁central	-10.1403
▁initiative	-10.1418
▁distance	-10.1418
cap	-10.1422
▁parties	-10.1422
ility	-10.143
Pro	-10.1435
▁died	-10.1443
dding	-10.1446
▁obvious	-10.1452
▁Help	-10.1454
▁workshop	-10.1455
mount	-10.1466
▁volume	-10.147
▁Manager	-10.147
▁label	-10.1472
▁je	-10.1473
▁Han	-10.1474
mile	-10.1479
CO	-10.1499
▁settle	-10.15
craft	-10.1501
▁Next	-10.1505
▁hole	-10.1507
▁Pet	-10.1513
▁nine	-10.1513
hor	-10.1513
▁Key	-10.1517
▁Long	-10.1521
▁battle	-10.1523
▁mom	-10.1525
▁putting	-10.1526
▁tough	-10.1527
PO	-10.1533
▁Ste	-10.1542
▁funding	-10.1544
▁Cri	-10.1562
ache	-10.1564
▁wouldn	-10.1568
▁buying	-10.157
?”	-10.1571
▁slightly	-10.1574
SU	-10.1575
▁Off	-10.1584
▁Pra	-10.1589
▁Where	-10.1591
▁core	-10.1595
▁wrap	-10.1598
ese	-10.1605
▁spirit	-10.1607
▁Conference	-10.1608
▁expensive	-10.1608
▁Author	-10.1608
▁busy	-10.1624
▁pepper	-10.1626
▁Museum	-10.1626
▁arrest	-10.1626
“	-10.1627
▁defend	-10.1633
▁chicken	-10.1643
▁assistance	-10.1649
▁Rob	-10.1654
▁filled	-10.1674
▁adapt	-10.1679
bel	-10.1683
▁Press	-10.1684
▁trouble	-10.1696
▁complain	-10.1696
▁prepared	-10.1702
bar	-10.1705
▁establish	-10.1707
▁visitors	-10.171
▁cloud	-10.1714
▁reference	-10.1717
▁YOU	-10.1719
▁village	-10.1732
▁truth	-10.1732
▁walking	-10.1734
▁thick	-10.1734
astname	-10.1741
▁painting	-10.1752
▁Mal	-10.1757
poli	-10.1758
rc	-10.1759
▁Way	-10.1764
▁reality	-10.1767
▁Government	-10.1767
▁attorney	-10.1767
hand	-10.1768
▁Sale	-10.177
▁testing	-10.1775
▁lift	-10.1776
Be	-10.1777
Tech	-10.1779
▁worry	-10.1785
▁Women	-10.1785
▁guest	-10.1786
run	-10.1786
▁victim	-10.1802
stitut	-10.1803
▁teach	-10.1809
▁crowd	-10.182
▁Visit	-10.1822
▁generate	-10.1822
▁enjoyed	-10.1836
▁indicate	-10.1844
▁fold	-10.1845
▁Tim	-10.1846
rb	-10.1849
▁mountain	-10.1856
▁presence	-10.1857
hel	-10.1859
▁Cho	-10.186
GB	-10.1863
▁prefer	-10.1878
▁partnership	-10.1879
▁aware	-10.1886
▁bio	-10.1892
corn	-10.1893
▁magic	-10.1895
▁cleaning	-10.1897
▁tight	-10.1899
water	-10.191
▁magazine	-10.191
▁extensive	-10.191
under	-10.191
▁info	-10.1919
▁pitch	-10.1923
▁HD	-10.1926
▁coverage	-10.1928
▁furniture	-10.1928
▁innovative	-10.1928
So	-10.1932
▁Page	-10.1934
▁register	-10.1941
▁Richard	-10.1947
iness	-10.1956
▁listing	-10.1961
▁stretch	-10.1964
▁passion	-10.1974
▁designer	-10.1977
▁Hand	-10.1986
▁signed	-10.1988
▁Kar	-10.1992
▁Security	-10.2
▁investigation	-10.2
▁Israel	-10.2
▁waste	-10.2004
▁caused	-10.2014
▁academic	-10.2019
▁changing	-10.2019
▁chain	-10.202
IR	-10.202
▁placed	-10.2024
▁showing	-10.2036
▁Mike	-10.205
lap	-10.2052
Com	-10.2054
▁competitive	-10.2055
▁relevant	-10.2055
ata	-10.2055
▁previously	-10.2071
▁steel	-10.2074
▁joined	-10.208
wide	-10.2085
rug	-10.2092
▁corporate	-10.2092
▁contest	-10.2097
▁consistent	-10.2098
▁ended	-10.2099
ounce	-10.21
▁eating	-10.2103
▁plate	-10.2107
▁Pur	-10.2108
▁shift	-10.211
▁agency	-10.211
front	-10.2111
▁Base	-10.2112
When	-10.2115
▁pot	-10.2119
▁rating	-10.212
▁leadership	-10.2131
hal	-10.2132
▁Chris	-10.2133
▁graphic	-10.2134
▁AND	-10.2136
▁educational	-10.2146
gle	-10.2147
▁delicious	-10.2147
▁economy	-10.2147
▁operating	-10.2147
▁Bro	-10.2147
▁predict	-10.2148
▁fellow	-10.2149
▁manufacturer	-10.2152
▁holding	-10.2155
New	-10.2159
▁inspired	-10.2161
▁prop	-10.2163
▁Technology	-10.2165
▁chapter	-10.2165
▁Republican	-10.217
▁connected	-10.2174
▁temp	-10.2181
▁asking	-10.2184
▁Live	-10.2184
therapy	-10.219
▁judge	-10.2202
▁Ly	-10.2209
▁Cla	-10.221
▁allowing	-10.2212
▁sand	-10.2234
cm	-10.2236
▁showed	-10.2238
▁Union	-10.2238
▁chemical	-10.2239
▁electronic	-10.2239
▁Japan	-10.2241
lia	-10.2242
RS	-10.2247
ALL	-10.2256
▁climate	-10.2258
▁pump	-10.2258
▁laugh	-10.2258
▁scale	-10.2259
Me	-10.2261
▁Land	-10.2262
▁Posted	-10.2263
▁Jim	-10.2263
▁detect	-10.2266
▁define	-10.2272
▁Australian	-10.2275
▁launched	-10.2279
AB	-10.2279
Source	-10.228
▁managed	-10.2282
pit	-10.2291
heat	-10.2293
▁surrounding	-10.2298
Lo	-10.2304
▁absolutely	-10.2306
▁Ku	-10.2313
▁Drive	-10.2313
▁approximately	-10.2314
▁defense	-10.2315
▁McC	-10.2331
▁bathroom	-10.2333
▁lawyer	-10.2335
▁finger	-10.2342
▁motor	-10.2345
▁lovely	-10.2347
▁Journal	-10.2352
▁Society	-10.2352
▁society	-10.2352
▁NY	-10.2354
▁missing	-10.2361
▁transport	-10.2367
▁expertise	-10.2372
stat	-10.2386
▁Share	-10.2388
▁revenue	-10.2389
▁chart	-10.2392
mph	-10.2394
▁icon	-10.2395
gal	-10.2412
▁selling	-10.2425
▁Nov	-10.2433
▁anywhere	-10.2434
MB	-10.2439
away	-10.2446
▁injury	-10.2446
EST	-10.245
▁Town	-10.2454
▁Test	-10.2462
▁Hospital	-10.2465
▁root	-10.2466
cum	-10.2471
▁sheet	-10.2472
▁generally	-10.2478
▁square	-10.2484
▁Search	-10.2487
shire	-10.2493
▁sat	-10.25
ani	-10.2503
▁incident	-10.2503
▁Microsoft	-10.2503
▁Night	-10.2505
▁Minister	-10.2505
▁boost	-10.2506
▁Android	-10.2507
terior	-10.2511
TR	-10.2513
Stat	-10.2513
▁Angeles	-10.2516
▁Louis	-10.2523
▁Type	-10.2523
▁Pack	-10.2524
▁presentation	-10.2526
▁hearing	-10.2533
▁Shop	-10.2535
▁speaker	-10.2537
▁submit	-10.2542
roid	-10.2542
▁smaller	-10.2545
▁participants	-10.2546
▁describe	-10.2548
uce	-10.256
▁Farm	-10.2565
▁Old	-10.2574
leg	-10.2575
quest	-10.2576
▁behavior	-10.258
▁Children	-10.2581
▁Medical	-10.2581
▁dish	-10.2594
riff	-10.2597
▁insight	-10.2598
▁citizen	-10.2599
▁birthday	-10.2601
▁reveal	-10.2618
▁demonstrate	-10.2619
▁cooking	-10.2625
▁Rose	-10.2625
▁Coll	-10.2633
▁reward	-10.2636
▁Energy	-10.2638
▁Cook	-10.2641
▁reached	-10.2643
▁fail	-10.2643
▁experiment	-10.2657
▁appeal	-10.2658
▁mention	-10.267
On	-10.267
▁Frank	-10.2672
▁maintenance	-10.2677
rip	-10.2677
▁Wild	-10.2682
▁Chinese	-10.2696
▁Before	-10.2696
▁brief	-10.2696
DS	-10.2698
▁upgrade	-10.27
▁firstname	-10.2704
▁Party	-10.2708
▁Miss	-10.2708
▁Asia	-10.271
▁Through	-10.2716
▁tag	-10.2718
▁helpful	-10.2728
tress	-10.2729
publish	-10.273
▁married	-10.2735
gro	-10.2735
▁Western	-10.2737
GA	-10.2737
▁Run	-10.2741
▁Matt	-10.2755
▁accurate	-10.2755
▁Access	-10.2756
▁repeat	-10.276
▁Lord	-10.276
▁proper	-10.276
▁Van	-10.277
▁audio	-10.278
▁broke	-10.2781
where	-10.2787
▁Cru	-10.2789
▁calling	-10.279
▁negative	-10.2794
▁committed	-10.2795
▁Hope	-10.2796
ched	-10.2822
▁Code	-10.2822
▁Congress	-10.2827
▁Buy	-10.283
▁majority	-10.2833
▁Thomas	-10.2833
▁crime	-10.2834
▁totally	-10.2838
▁entertainment	-10.2838
▁Vol	-10.284
▁Step	-10.2849
▁joint	-10.2858
▁emotional	-10.2863
new	-10.2868
▁Fund	-10.2868
force	-10.2869
▁cities	-10.2872
Le	-10.2872
▁Whi	-10.2872
▁practical	-10.2873
SH	-10.2875
▁habit	-10.2875
▁Garden	-10.2876
▁Need	-10.288
▁chip	-10.2885
oz	-10.2886
▁Committee	-10.2893
▁feedback	-10.2894
▁shut	-10.2904
flow	-10.291
▁hire	-10.291
▁Queen	-10.2913
char	-10.2913
▁seeking	-10.2919
▁delivered	-10.2926
My	-10.2929
▁foundation	-10.293
▁inspiration	-10.2933
▁integrate	-10.2933
▁registered	-10.2938
▁German	-10.2941
▁Comment	-10.2942
cia	-10.2949
▁instrument	-10.2953
▁doubt	-10.2953
▁confirm	-10.2955
▁whi	-10.2956
▁breakfast	-10.2973
▁television	-10.2973
▁Those	-10.2975
▁Update	-10.2976
▁scan	-10.2979
nov	-10.2982
immer	-10.2982
▁clearly	-10.2992
▁prize	-10.2994
▁upcoming	-10.2994
▁monthly	-10.2998
abilities	-10.3012
▁confidence	-10.3013
▁organisation	-10.3013
▁Coast	-10.3014
▁emergency	-10.3033
▁joy	-10.3035
▁internal	-10.3036
▁nor	-10.3037
▁Series	-10.3041
oma	-10.3045
▁perspective	-10.3053
▁filter	-10.3053
TC	-10.3062
▁advise	-10.3076
▁instant	-10.3095
▁hat	-10.3095
▁Nu	-10.3106
war	-10.3108
▁confident	-10.3114
▁processes	-10.3115
▁performed	-10.313
▁Low	-10.3131
▁Bla	-10.3132
▁muscle	-10.3134
▁Additional	-10.3134
▁Chief	-10.3136
▁favourite	-10.3154
▁Mountain	-10.3154
▁parking	-10.3163
▁therefore	-10.3175
▁instance	-10.3176
▁wave	-10.3181
▁strip	-10.3184
▁Bon	-10.3185
▁golf	-10.3188
▁responsibility	-10.3195
▁Video	-10.3197
▁struggle	-10.3216
▁Earth	-10.3216
lick	-10.3219
▁ticket	-10.3219
PD	-10.323
▁comprehensive	-10.3236
▁century	-10.3236
with	-10.3237
weight	-10.3237
▁Middle	-10.3238
▁cookie	-10.3239
▁permit	-10.3245
OP	-10.3253
▁Lee	-10.3254
▁Festival	-10.3257
▁Maybe	-10.3261
▁Jeff	-10.3262
▁sitting	-10.3263
▁depending	-10.3264
▁Using	-10.3273
▁fourth	-10.3274
▁database	-10.3277
▁Jul	-10.3286
▁Sub	-10.3287
▁valuable	-10.3298
▁Global	-10.3298
▁promotion	-10.3298
▁rot	-10.33
▁importance	-10.3301
▁Young	-10.3302
▁outcome	-10.3303
▁Down	-10.3306
Ro	-10.3309
▁killed	-10.3318
▁combined	-10.3326
▁Phil	-10.3329
▁Alex	-10.333
▁casino	-10.334
▁mistake	-10.3341
cher	-10.3344
▁command	-10.3344
▁Brand	-10.3346
elect	-10.3354
▁Only	-10.3356
▁NOT	-10.3358
MI	-10.3374
▁intended	-10.3381
ATE	-10.3382
▁DO	-10.3383
wear	-10.3391
ride	-10.341
▁consult	-10.3419
▁publication	-10.3419
▁smile	-10.3419
DI	-10.3419
▁maximum	-10.3423
▁regulation	-10.3423
▁valid	-10.3424
▁crash	-10.3428
▁properly	-10.3434
▁destination	-10.3444
▁Jersey	-10.3444
▁marriage	-10.3444
▁caught	-10.3447
▁worldwide	-10.3448
▁species	-10.3451
FC	-10.3454
▁interior	-10.3455
▁tie	-10.3456
organ	-10.346
▁surgery	-10.3465
▁suspect	-10.3465
▁specialist	-10.347
▁Sep	-10.347
▁Area	-10.3475
VER	-10.3479
rich	-10.3479
▁recording	-10.3479
holder	-10.348
▁exam	-10.349
▁Boy	-10.3492
▁actor	-10.3494
▁Human	-10.3499
ography	-10.3501
▁speech	-10.3507
▁solve	-10.3517
▁otherwise	-10.3518
▁trick	-10.3523
▁Give	-10.3524
▁category	-10.3528
▁registration	-10.3528
profit	-10.3531
▁extend	-10.3533
claim	-10.3533
▁Box	-10.3535
▁bringing	-10.3541
▁birth	-10.3548
▁sad	-10.3549
▁rent	-10.3551
▁earned	-10.3552
▁Hard	-10.3561
▁rose	-10.3569
▁alcohol	-10.3571
▁finance	-10.3571
PL	-10.3573
▁broken	-10.3593
ouch	-10.3596
media	-10.3606
▁cancel	-10.3608
▁Fair	-10.3609
person	-10.3612
▁administration	-10.3613
▁parent	-10.3614
Ex	-10.3619
▁Ya	-10.3626
▁accomplish	-10.3635
▁possibly	-10.3635
▁bigger	-10.3644
▁Fra	-10.3655
▁recruit	-10.3656
ique	-10.366
▁wearing	-10.3677
▁draft	-10.3678
▁commission	-10.3678
▁ourselves	-10.3678
▁Joe	-10.368
▁animal	-10.3681
▁crew	-10.3682
▁featured	-10.3688
▁Walk	-10.3696
vine	-10.3696
▁recommended	-10.3699
▁featuring	-10.3699
▁Par	-10.3699
▁venue	-10.3699
▁rental	-10.37
exp	-10.3702
▁affordable	-10.3705
▁civil	-10.3721
▁poll	-10.3726
you	-10.3737
▁resource	-10.3739
▁breast	-10.3742
▁detailed	-10.3753
▁described	-10.3761
▁Tro	-10.3764
▁bread	-10.3774
▁browser	-10.3774
▁coast	-10.3784
▁charged	-10.3787
▁Line	-10.3792
atic	-10.3793
▁pipe	-10.3799
▁Link	-10.3801
▁vegetable	-10.3807
▁foreign	-10.3808
▁mentioned	-10.3808
▁appeared	-10.3812
▁Pop	-10.3816
▁imagine	-10.3829
▁Arch	-10.383
ius	-10.3831
▁compete	-10.3839
▁dining	-10.3844
▁cutting	-10.3844
cation	-10.3844
▁Fall	-10.3848
▁Standard	-10.3851
▁reliable	-10.3851
▁Log	-10.3851
OD	-10.3858
▁Academy	-10.3873
▁teeth	-10.3873
Welcome	-10.3873
▁plug	-10.3874
▁returned	-10.3876
▁Come	-10.3881
▁minor	-10.3884
▁Hunt	-10.3884
what	-10.3888
▁campus	-10.3889
▁quiet	-10.3896
▁Aug	-10.3901
kh	-10.3902
EE	-10.3907
▁Name	-10.3915
▁Fu	-10.3921
▁soul	-10.3933
▁African	-10.3933
eller	-10.3935
TV	-10.3943
▁recovery	-10.3948
▁debut	-10.3949
cri	-10.3959
▁contribution	-10.3961
▁eventually	-10.3961
▁chief	-10.3962
▁shower	-10.3973
▁mine	-10.3974
LS	-10.3975
▁minimum	-10.3983
▁league	-10.3983
Our	-10.3996
▁Max	-10.3996
▁description	-10.4005
▁convert	-10.4006
▁Tele	-10.4007
▁faster	-10.4009
cla	-10.4011
▁Merc	-10.4018
▁delay	-10.402
▁flowers	-10.4029
▁Johnson	-10.404
▁height	-10.4041
▁possess	-10.405
▁distinct	-10.4051
▁assessment	-10.4061
▁govern	-10.4066
▁Size	-10.4067
▁engineering	-10.4069
▁powder	-10.4072
▁Oct	-10.4076
▁greatest	-10.4087
▁removed	-10.4093
▁approved	-10.4094
▁Canadian	-10.4094
▁Italian	-10.4095
▁creation	-10.4095
▁border	-10.4098
itz	-10.4111
▁Library	-10.4117
▁familiar	-10.4117
▁university	-10.4117
▁labor	-10.4117
▁blow	-10.412
▁picked	-10.412
▁weak	-10.4122
born	-10.4122
berry	-10.4123
▁discovered	-10.4124
▁meant	-10.4128
RC	-10.413
▁Cost	-10.4131
▁Friend	-10.4139
▁worse	-10.414
▁Boston	-10.414
▁clinical	-10.4141
▁Jones	-10.4141
▁installed	-10.4142
▁recover	-10.4144
GO	-10.4145
▁donation	-10.4155
▁Copyright	-10.4162
▁phase	-10.4162
▁strike	-10.4163
▁regularly	-10.4164
▁mass	-10.4165
▁remaining	-10.4177
quality	-10.4177
▁weapon	-10.4184
▁Record	-10.4185
▁Bob	-10.4185
▁warrant	-10.4185
plan	-10.419
▁employer	-10.4191
▁fell	-10.4202
▁bull	-10.4206
ugg	-10.4206
▁distribution	-10.4207
▁apparent	-10.4207
▁cute	-10.4216
▁attract	-10.4218
▁Heat	-10.4223
▁Travel	-10.423
which	-10.4233
▁tradition	-10.4239
lib	-10.4247
▁strategies	-10.4252
▁twice	-10.4252
▁neighborhood	-10.4253
related	-10.4257
PC	-10.4272
OT	-10.4279
ctic	-10.4281
▁alter	-10.4282
▁Store	-10.4296
▁typically	-10.4297
▁yes	-10.4298
▁Cross	-10.4298
buck	-10.4303
▁Gene	-10.4306
▁Paris	-10.4311
▁scheduled	-10.4314
▁bond	-10.4315
▁advertising	-10.4321
▁remote	-10.4321
▁innovation	-10.4321
▁cable	-10.4325
▁Instead	-10.4329
▁arrive	-10.4335
▁vary	-10.4336
Un	-10.4343
▁criminal	-10.4344
▁crazy	-10.4344
▁Number	-10.4344
VE	-10.4345
▁strange	-10.435
▁dig	-10.4354
▁Made	-10.4354
▁Select	-10.4365
▁Japanese	-10.4367
Mar	-10.437
TER	-10.4371
▁flash	-10.4377
▁producer	-10.438
▁tomorrow	-10.439
▁prison	-10.439
▁earth	-10.4392
▁slice	-10.4396
strict	-10.4399
.....	-10.4405
▁sight	-10.4408
▁suitable	-10.4408
▁perfectly	-10.4409
▁guitar	-10.4413
▁specifically	-10.442
How	-10.4422
UL	-10.4426
▁combine	-10.4427
▁protected	-10.443
▁manner	-10.4435
▁Instagram	-10.4436
▁routine	-10.4436
▁victory	-10.4436
▁Summer	-10.4436
▁observe	-10.4438
▁purchased	-10.4439
▁wire	-10.4441
▁critic	-10.4445
▁drawing	-10.4445
▁Ram	-10.4447
state	-10.4454
via	-10.4457
▁Executive	-10.4459
▁happening	-10.4459
▁Oh	-10.4461
▁Coach	-10.4468
▁Sky	-10.4472
▁proposal	-10.4482
▁oven	-10.4486
▁missed	-10.4494
▁ongoing	-10.4508
▁edition	-10.4509
▁flag	-10.4515
▁arrived	-10.4515
▁improved	-10.4516
▁km	-10.4522
▁Carolina	-10.4529
▁hunt	-10.4537
▁seemed	-10.4541
▁manual	-10.4541
▁Ci	-10.4544
corp	-10.4552
▁policies	-10.4552
▁transaction	-10.4552
▁injuries	-10.4553
▁protein	-10.4553
▁proposed	-10.4553
ologist	-10.4553
▁freedom	-10.4553
▁Image	-10.4558
▁river	-10.4558
▁introduced	-10.4574
▁Control	-10.4577
▁neck	-10.4578
▁divide	-10.4581
▁Room	-10.4583
PM	-10.4595
▁landscape	-10.46
▁automatically	-10.46
▁Little	-10.4603
▁resolution	-10.4603
▁festival	-10.4623
▁manufacturing	-10.4623
▁planned	-10.4624
▁coat	-10.4638
▁employee	-10.4646
▁collaboration	-10.4647
▁leather	-10.4647
▁researchers	-10.4649
▁logo	-10.4656
UC	-10.4662
▁Sometimes	-10.4671
▁guard	-10.4671
▁zone	-10.4672
▁thus	-10.4679
▁council	-10.4694
▁proceed	-10.4694
▁unless	-10.4699
▁Germany	-10.4709
RM	-10.4711
▁incredible	-10.4718
▁shooting	-10.4718
lev	-10.4733
▁crack	-10.4733
▁Trust	-10.4738
▁shock	-10.4749
▁pure	-10.4753
▁Digital	-10.4766
▁mortgage	-10.4766
▁bath	-10.4777
▁Bear	-10.4788
▁FREE	-10.479
▁Film	-10.479
▁organic	-10.4799
HS	-10.4803
EX	-10.4804
▁male	-10.4806
▁Fish	-10.481
boo	-10.4813
▁applied	-10.4814
▁End	-10.4816
▁hurt	-10.482
▁Ten	-10.4822
▁juice	-10.4838
▁revealed	-10.484
▁Word	-10.484
▁Earl	-10.484
▁lifestyle	-10.4842
▁historical	-10.4842
▁Audi	-10.4847
ndle	-10.4853
▁regard	-10.486
▁technologies	-10.4862
▁effectively	-10.4877
▁FOR	-10.4879
▁sustain	-10.488
▁Partner	-10.4892
▁portion	-10.4899
▁supposed	-10.4901
▁Try	-10.4909
▁scored	-10.491
▁Michigan	-10.4911
▁Studio	-10.4911
▁medicine	-10.4911
▁tournament	-10.4911
▁battery	-10.4911
▁vacation	-10.4911
▁housing	-10.4911
▁tomato	-10.4912
▁deposit	-10.4914
▁Marketing	-10.4919
style	-10.493
▁Site	-10.4931
▁witness	-10.4935
▁Local	-10.4939
▁representative	-10.494
▁exhibit	-10.4944
▁gear	-10.4958
▁tune	-10.4959
▁illustr	-10.4959
▁climb	-10.4959
▁musical	-10.4963
▁Ltd	-10.4964
order	-10.497
▁Gen	-10.4971
▁agencies	-10.4984
class	-10.4984
▁storm	-10.4985
▁Color	-10.4986
▁brush	-10.4986
▁extract	-10.4989
▁Oil	-10.4994
▁Angel	-10.4996
▁county	-10.4997
▁grown	-10.4999
▁chosen	-10.5001
band	-10.5006
EP	-10.5007
▁confirmed	-10.5007
▁scheme	-10.5008
▁Philip	-10.501
▁Does	-10.5014
▁Adam	-10.5019
▁Pass	-10.5022
▁Mexico	-10.5033
▁mixed	-10.5039
▁sentence	-10.504
▁grab	-10.5041
▁hall	-10.5049
▁counsel	-10.5057
▁permanent	-10.5057
▁rapid	-10.5058
▁Point	-10.5068
▁newspaper	-10.5082
▁concert	-10.5082
anda	-10.5092
▁belong	-10.5095
▁relation	-10.5103
count	-10.5104
▁affected	-10.5109
▁native	-10.5111
▁solar	-10.5111
▁Four	-10.5117
▁Korea	-10.5118
active	-10.513
Ho	-10.513
▁failed	-10.5133
▁Blog	-10.5139
▁Multi	-10.5141
▁Heart	-10.5144
▁everyday	-10.515
▁premium	-10.5157
▁prospect	-10.5157
▁Ticket	-10.5157
▁mixture	-10.5159
▁conflict	-10.5181
▁industrial	-10.5181
▁murder	-10.5181
▁vital	-10.5182
▁debate	-10.5183
▁Dar	-10.5184
▁Though	-10.5186
nap	-10.5187
▁journal	-10.5198
LY	-10.5201
▁Clean	-10.5207
▁bonus	-10.5207
▁thread	-10.5208
▁Gro	-10.5208
▁accessible	-10.5215
▁Dun	-10.5229
▁principle	-10.5232
▁Daily	-10.5232
▁rough	-10.5233
izer	-10.5237
▁Print	-10.5238
scope	-10.5243
break	-10.5244
And	-10.5245
▁signal	-10.525
▁Senior	-10.5257
▁slot	-10.5265
▁thin	-10.5276
▁Available	-10.5282
▁challenging	-10.5282
▁impressive	-10.5282
▁vendor	-10.5282
▁Santa	-10.5282
▁deserve	-10.5286
▁Which	-10.5286
▁tall	-10.5295
▁Brad	-10.5304
▁engineer	-10.5311
▁expectations	-10.5313
▁fixed	-10.5314
▁Know	-10.5319
utter	-10.533
▁Second	-10.5332
▁division	-10.5336
shore	-10.5344
▁clip	-10.5358
▁Job	-10.5363
▁violence	-10.5383
▁facing	-10.5384
▁plain	-10.5385
▁Sound	-10.5389
▁Ham	-10.5389
▁objective	-10.5394
▁Spec	-10.5396
▁assess	-10.54
▁committee	-10.5409
▁subscribe	-10.541
▁History	-10.5434
▁transition	-10.5438
▁tip	-10.5456
▁Financial	-10.546
▁Federal	-10.546
▁massage	-10.5466
▁Zealand	-10.5486
▁Bio	-10.5489
▁usual	-10.5491
just	-10.5499
▁interaction	-10.5502
dependent	-10.5504
▁Environment	-10.5511
▁expense	-10.5511
▁trading	-10.5512
▁healthcare	-10.5515
▁disappoint	-10.5537
▁atmosphere	-10.5537
▁acquire	-10.5537
▁Personal	-10.5537
▁none	-10.5542
▁funny	-10.5556
▁celebration	-10.5563
▁identified	-10.5563
▁strategic	-10.5563
▁veteran	-10.5563
▁diverse	-10.5567
▁Charles	-10.5569
▁flour	-10.5572
▁engagement	-10.5576
aught	-10.5582
▁Natural	-10.5589
▁Ireland	-10.559
pack	-10.5591
▁Ze	-10.5592
▁awareness	-10.5593
▁airport	-10.56
▁regional	-10.5602
MC	-10.561
▁pleasure	-10.5616
▁failure	-10.5617
▁stopped	-10.5621
▁significantly	-10.5637
▁recognize	-10.5637
dale	-10.5637
▁reserved	-10.5659
▁successfully	-10.5665
▁entertain	-10.5667
▁efficiency	-10.5667
▁Phone	-10.5673
▁desk	-10.5676
▁abuse	-10.568
▁Enjoy	-10.5694
▁pocket	-10.5694
▁Three	-10.5694
▁taught	-10.5696
▁agreed	-10.5701
Invest	-10.5705
empt	-10.571
▁receiving	-10.572
▁symbol	-10.572
▁carried	-10.5721
▁smoke	-10.5721
▁Ohio	-10.5722
▁debt	-10.5722
▁massive	-10.5727
▁hardware	-10.5727
▁Ball	-10.573
▁renew	-10.5735
▁Officer	-10.5737
▁scientific	-10.5746
conscious	-10.5746
▁clothes	-10.5747
aire	-10.5748
▁Connect	-10.5749
Di	-10.5753
▁Anti	-10.5757
▁Order	-10.576
rape	-10.5762
▁extended	-10.5768
▁Want	-10.5769
▁dangerous	-10.5774
▁excess	-10.578
isation	-10.5794
▁gorgeous	-10.5799
▁dental	-10.5802
▁classroom	-10.5803
▁Carl	-10.5812
▁emotion	-10.5812
▁Radio	-10.5815
▁examine	-10.5816
▁afford	-10.582
plication	-10.5821
▁Email	-10.5824
▁stunning	-10.5826
▁prompt	-10.5827
Cloud	-10.5827
▁severe	-10.5828
▁hoping	-10.5837
▁entirely	-10.584
▁concerned	-10.5845
▁affiliate	-10.5853
▁Spanish	-10.5853
▁Jackson	-10.5858
▁determined	-10.5863
▁Catholic	-10.5879
▁liquid	-10.5879
▁folks	-10.588
▁Daniel	-10.588
athlete	-10.588
▁Stra	-10.5882
▁slide	-10.5886
fall	-10.5894
▁Customer	-10.59
▁infrastructure	-10.5906
▁convenient	-10.5906
▁domestic	-10.5906
▁domain	-10.5907
▁interface	-10.5907
▁defeat	-10.5909
▁sustainable	-10.5914
▁math	-10.5914
▁shade	-10.5925
▁Force	-10.5929
▁tap	-10.593
▁context	-10.5933
▁Nick	-10.5935
▁formula	-10.5944
▁Mini	-10.5958
▁authentic	-10.596
▁contemporary	-10.596
▁luxury	-10.596
▁supplies	-10.596
▁nurse	-10.5961
▁household	-10.5969
▁pounds	-10.5972
▁hip	-10.5986
▁deploy	-10.5987
▁teaspoon	-10.5987
▁preparation	-10.5987
▁Division	-10.5991
▁acid	-10.5994
▁Despite	-10.5996
▁closer	-10.6013
▁thrill	-10.6014
▁Royal	-10.6016
▁Model	-10.6017
▁Turn	-10.6021
ask	-10.6031
▁replacement	-10.6031
▁Still	-10.6033
▁YouTube	-10.6041
▁assume	-10.6049
zar	-10.6074
▁nearby	-10.6076
▁mask	-10.6076
▁EU	-10.6081
▁garage	-10.6097
▁sky	-10.6103
▁lens	-10.6107
▁Write	-10.6111
▁Russian	-10.6115
▁Roman	-10.6121
▁Experience	-10.6123
▁calendar	-10.6123
▁yellow	-10.6123
▁Website	-10.6124
▁investors	-10.6129
▁Create	-10.6129
▁Having	-10.6137
unny	-10.614
face	-10.6141
▁recognized	-10.6142
▁resume	-10.6152
▁protest	-10.6156
wai	-10.6162
▁favor	-10.6176
suit	-10.6177
▁Capital	-10.6178
▁losing	-10.6191
One	-10.62
found	-10.6202
▁encounter	-10.6206
▁potato	-10.6206
▁worst	-10.6206
▁Provide	-10.6214
▁lend	-10.6216
▁fitness	-10.6221
▁Professional	-10.6234
▁herself	-10.6234
▁employment	-10.6234
▁guidelines	-10.6234
▁glad	-10.6234
▁invite	-10.6235
▁planet	-10.6236
▁pink	-10.6239
▁semi	-10.6241
▁tear	-10.6248
▁Small	-10.6263
NG	-10.6268
▁iron	-10.6286
▁scientist	-10.6289
▁alleged	-10.629
▁Question	-10.629
▁clothing	-10.6291
▁residential	-10.6292
▁User	-10.6298
▁Saint	-10.6299
game	-10.63
▁exhibition	-10.6307
▁boil	-10.6308
▁Virginia	-10.6317
▁Application	-10.6317
▁baking	-10.6318
▁seal	-10.6319
DR	-10.6324
▁bone	-10.6329
▁rice	-10.6329
▁deck	-10.6329
▁Jun	-10.6332
▁exact	-10.6332
▁container	-10.6335
▁Change	-10.6335
▁implementation	-10.6338
▁snap	-10.6345
▁invited	-10.6373
▁convention	-10.6373
bury	-10.6376
▁odd	-10.6386
▁announce	-10.6392
▁qualified	-10.6402
▁Avenue	-10.6402
▁sharp	-10.6404
▁silver	-10.643
▁outstanding	-10.643
▁PDF	-10.643
▁urban	-10.643
▁Italy	-10.6439
▁taxes	-10.6444
CR	-10.6452
▁Ryan	-10.6459
power	-10.6461
▁Disney	-10.6462
▁import	-10.6463
ERS	-10.6466
treat	-10.6476
▁strengthen	-10.648
▁jewelry	-10.6487
▁supplement	-10.6487
▁identity	-10.6487
▁Southern	-10.6487
▁Easy	-10.6487
▁carefully	-10.6492
▁decline	-10.6493
▁Tea	-10.6502
▁constantly	-10.6511
▁tape	-10.6514
▁association	-10.6515
▁wealth	-10.6517
osis	-10.6522
▁tiny	-10.6522
▁gallery	-10.6544
▁ocean	-10.6544
▁premier	-10.6544
▁infection	-10.6544
▁salad	-10.6544
crypt	-10.6545
▁Building	-10.6546
▁spiritual	-10.6546
▁bug	-10.6547
▁Thu	-10.655
▁Cover	-10.6563
▁neighbor	-10.6572
▁upload	-10.6596
▁Colorado	-10.6601
▁Safety	-10.6601
▁utilize	-10.6601
▁accessories	-10.6601
▁Northern	-10.6601
▁:)	-10.6603
▁split	-10.6606
▁Very	-10.6609
▁texture	-10.661
ipped	-10.662
▁Motor	-10.6628
▁Software	-10.663
▁crisis	-10.663
▁introduce	-10.6633
▁Sex	-10.6635
▁sew	-10.6638
▁specialize	-10.6639
▁Estate	-10.664
▁seriously	-10.664
▁noise	-10.6647
Build	-10.6651
▁proven	-10.6659
▁Continue	-10.6659
▁Country	-10.6659
▁iPad	-10.6659
▁passenger	-10.6659
▁exceptional	-10.6659
▁survive	-10.6659
▁tube	-10.6665
▁Living	-10.6672
bble	-10.6675
▁motion	-10.668
▁supplier	-10.6688
▁giant	-10.6689
UP	-10.6699
product	-10.6705
NY	-10.6707
▁string	-10.6708
▁fuck	-10.6711
▁nail	-10.6714
▁Associate	-10.6717
▁extension	-10.6717
▁Andrew	-10.6717
FT	-10.6718
▁Francisco	-10.6718
friendly	-10.6722
▁external	-10.6746
▁tank	-10.6757
▁hate	-10.676
▁Feb	-10.6771
▁Gallery	-10.6775
▁enterprise	-10.6776
▁smell	-10.6776
▁smartphone	-10.6776
encies	-10.6778
▁origin	-10.6779
With	-10.6783
▁slip	-10.6786
▁transportation	-10.6787
▁restore	-10.6793
▁bodies	-10.6805
▁File	-10.6806
▁Finally	-10.6809
▁relatively	-10.6832
▁consideration	-10.6833
▁circumstance	-10.6834
▁tablespoon	-10.6834
▁vitamin	-10.6834
▁garlic	-10.6834
cott	-10.6835
max	-10.6838
▁retain	-10.6845
▁announcement	-10.6846
call	-10.6857
▁Olympic	-10.6863
▁tweet	-10.6863
ART	-10.6863
▁capabilities	-10.6865
zen	-10.6872
piece	-10.6874
▁hook	-10.6875
▁Prime	-10.689
▁rush	-10.6894
▁clock	-10.6905
▁random	-10.6923
▁Account	-10.6923
▁lucky	-10.6925
TION	-10.6941
▁Engine	-10.6952
▁broadcast	-10.6953
▁Prince	-10.6956
▁compare	-10.6958
▁tele	-10.6961
season	-10.6967
▁certificate	-10.6982
▁certified	-10.6982
▁thorough	-10.6982
▁Engineering	-10.6982
▁communicate	-10.6984
▁grass	-10.6986
▁relat	-10.6986
▁permission	-10.6988
▁carbon	-10.6989
▁Professor	-10.7012
▁operator	-10.7012
▁Taylor	-10.7012
▁Gift	-10.7013
▁argue	-10.7016
▁Golf	-10.7018
▁downtown	-10.7021
▁Russia	-10.7021
▁arrange	-10.7021
▁bake	-10.7023
▁matches	-10.7025
▁assistant	-10.703
wick	-10.7034
viv	-10.7034
shot	-10.7038
▁nutrition	-10.7042
▁memories	-10.7042
▁snack	-10.7042
▁password	-10.7045
▁grew	-10.7048
▁Trade	-10.7049
lift	-10.7055
▁gap	-10.7057
ief	-10.7064
▁Para	-10.7066
▁Palm	-10.7066
▁incredibly	-10.7072
▁chopped	-10.7072
▁chose	-10.709
▁Tip	-10.71
level	-10.71
▁choosing	-10.7103
▁typical	-10.7103
▁attractive	-10.711
▁Consul	-10.7115
ML	-10.7115
▁COVID	-10.7133
▁colleague	-10.7133
▁incorporate	-10.7133
▁professor	-10.7133
▁causing	-10.7133
▁luck	-10.7134
foot	-10.7135
▁dramatic	-10.7142
metric	-10.7143
▁Classic	-10.715
▁Baby	-10.7152
▁Victoria	-10.7158
▁exposure	-10.7163
▁privacy	-10.7163
▁Credit	-10.7163
▁construct	-10.7167
▁prayer	-10.7176
▁Case	-10.7184
▁advertise	-10.7194
▁authorities	-10.7202
hour	-10.7203
▁pace	-10.7217
▁dishes	-10.7221
IVE	-10.7222
▁column	-10.7224
▁template	-10.7225
▁charm	-10.7227
▁Custom	-10.7231
▁Stock	-10.7241
▁mentor	-10.7255
▁Field	-10.7255
▁Miami	-10.7255
▁branch	-10.7259
▁Ang	-10.7261
charge	-10.7264
ESS	-10.7276
▁dirt	-10.7281
▁Would	-10.7286
▁flood	-10.7286
▁membership	-10.7295
▁Reserve	-10.73
fire	-10.7315
▁restrict	-10.7331
▁stamp	-10.7334
▁Collection	-10.7348
▁museum	-10.7348
▁reputation	-10.7348
▁sensor	-10.7348
▁Oak	-10.7354
▁inspire	-10.7364
▁Irish	-10.738
▁dropped	-10.7383
▁Hollywood	-10.741
▁swimming	-10.741
▁entrepreneur	-10.7412
▁Greg	-10.7419
▁Talk	-10.742
▁frequently	-10.7429
Original	-10.743
▁manufacture	-10.7433
▁Paper	-10.7435
▁tab	-10.744
▁singer	-10.7441
▁religious	-10.7441
▁Jewish	-10.7441
▁Range	-10.7443
child	-10.7443
▁relative	-10.7449
||$	-10.7463
▁ceremony	-10.7472
▁eligible	-10.7472
▁portfolio	-10.7472
▁Should	-10.7472
▁decrease	-10.7472
cycling	-10.7472
▁injured	-10.7472
▁attitude	-10.7473
▁Total	-10.748
▁plot	-10.7489
▁consultation	-10.7492
scribe	-10.7493
▁capable	-10.75
▁Unfortunately	-10.7504
▁reaction	-10.7504
▁Bridge	-10.7504
▁succeed	-10.7535
▁knee	-10.7536
build	-10.7538
▁reduction	-10.7538
pound	-10.7539
▁stir	-10.7547
stead	-10.7557
▁equipped	-10.7567
▁carpet	-10.7568
▁outfit	-10.7568
▁disorder	-10.757
▁Insurance	-10.7599
▁definition	-10.7599
▁ancient	-10.7599
▁copyright	-10.76
▁era	-10.7602
school	-10.7603
▁Harris	-10.7604
▁Arab	-10.7604
▁alongside	-10.7613
Read	-10.7622
▁Meanwhile	-10.7631
▁guidance	-10.7631
▁Limited	-10.7631
▁Spirit	-10.7631
▁Article	-10.7631
▁resident	-10.7644
ATION	-10.7648
▁Eric	-10.7656
▁circle	-10.7663
▁belief	-10.7663
burn	-10.7665
▁export	-10.7683
▁removal	-10.7695
▁resort	-10.7695
▁Smart	-10.7696
▁refuse	-10.7696
▁loose	-10.77
space	-10.7713
▁Policy	-10.7727
▁Register	-10.7727
▁Stephen	-10.7728
▁Championship	-10.7728
worthy	-10.7729
▁index	-10.7732
▁drain	-10.7733
▁dozen	-10.7738
case	-10.7741
▁Bible	-10.7756
▁Wine	-10.7759
▁Communication	-10.7759
▁Silver	-10.7759
▁scholarship	-10.776
▁signature	-10.7763
▁olive	-10.7763
▁availability	-10.7791
▁DVD	-10.7792
▁Secretary	-10.7794
▁showcase	-10.7794
▁submitted	-10.7796
▁emerge	-10.7799
▁associate	-10.7801
▁Grant	-10.7804
▁architect	-10.7822
▁Galaxy	-10.7824
▁cabinet	-10.7824
▁lemon	-10.7827
▁warning	-10.7831
quarter	-10.7835
cture	-10.784
ILL	-10.7842
▁historic	-10.7851
▁Course	-10.7857
▁managing	-10.7862
▁clinic	-10.7887
▁evaluate	-10.7889
▁hidden	-10.7889
▁Dallas	-10.7889
▁segment	-10.7889
▁Latin	-10.7891
market	-10.7906
▁investigate	-10.7922
▁loving	-10.793
▁alert	-10.7937
Published	-10.7955
▁continuing	-10.7955
▁fulfill	-10.7955
▁empty	-10.7956
▁reserve	-10.7967
▁Fox	-10.7973
▁Atlanta	-10.7988
▁recognition	-10.7988
▁Medicine	-10.7988
▁laptop	-10.7988
▁resolve	-10.7988
▁Again	-10.7988
▁tailor	-10.7989
▁Broad	-10.7995
▁priority	-10.8004
▁destroy	-10.8021
▁Joseph	-10.8021
▁grateful	-10.8021
▁calm	-10.8026
▁leak	-10.8028
stream	-10.8039
athy	-10.804
position	-10.8046
▁physician	-10.8054
▁vintage	-10.8054
▁contrast	-10.8054
▁crucial	-10.8054
▁medication	-10.8054
▁Location	-10.8057
▁Clinic	-10.806
▁Common	-10.8065
ONE	-10.8086
▁coupon	-10.8088
lav	-10.8093
▁pride	-10.8099
▁Section	-10.81
▁somewhere	-10.8102
▁Josh	-10.8112
home	-10.8118
▁Governor	-10.8121
▁Muslim	-10.8121
▁resistance	-10.8121
▁bud	-10.8125
▁provision	-10.8126
▁pray	-10.8134
▁Senate	-10.8136
▁surround	-10.8151
▁champion	-10.8153
▁LLC	-10.8155
▁Micro	-10.8158
▁wireless	-10.8158
cloth	-10.816
▁Think	-10.8161
▁dust	-10.8173
▁drag	-10.8182
▁industries	-10.8188
▁charity	-10.8188
▁Exam	-10.8189
▁declare	-10.8191
▁Vice	-10.82
▁Body	-10.821
▁Assistant	-10.8222
▁impossible	-10.8222
▁casual	-10.8222
▁bru	-10.8224
▁Large	-10.8227
▁spray	-10.8227
▁Tax	-10.8244
▁chill	-10.8246
high	-10.8255
▁Magazine	-10.8256
▁qualify	-10.8256
▁refresh	-10.8256
▁interpret	-10.8256
▁admit	-10.8257
▁Kevin	-10.8257
▁spark	-10.826
▁immediate	-10.826
itude	-10.8263
▁recall	-10.8268
▁drum	-10.8281
▁lake	-10.8288
▁illegal	-10.829
▁narrow	-10.829
▁Houston	-10.829
▁insert	-10.8291
▁expression	-10.8294
▁minister	-10.8296
DAY	-10.83
▁plea	-10.8313
▁porn	-10.8321
▁consumption	-10.8324
▁tissue	-10.8324
▁yoga	-10.8324
▁Include	-10.8324
▁Seattle	-10.8325
▁mill	-10.8358
▁faculty	-10.8358
▁Material	-10.8358
▁Toronto	-10.8358
▁handling	-10.8358
▁Season	-10.8366
▁achievement	-10.8384
▁fundamental	-10.8393
▁introduction	-10.8393
▁continuous	-10.8393
▁Georgia	-10.8393
▁closing	-10.8393
▁Install	-10.8393
▁constant	-10.8398
▁Express	-10.8398
▁gay	-10.8402
PU	-10.8404
▁peer	-10.8417
▁addict	-10.842
▁brilliant	-10.8427
▁Studies	-10.8427
▁Quality	-10.8427
▁span	-10.8429
▁Davis	-10.8434
▁LED	-10.8447
known	-10.8454
▁intention	-10.8462
▁Stay	-10.8466
COM	-10.8471
▁arrangement	-10.8487
▁flexible	-10.8496
▁orange	-10.85
▁escape	-10.85
firm	-10.8512
OUR	-10.8516
including	-10.8531
▁gym	-10.8534
▁Remember	-10.8535
▁extreme	-10.8537
▁Single	-10.8542
IST	-10.8543
▁percentage	-10.8561
▁Past	-10.8565
stein	-10.8566
▁Philadelphia	-10.8566
▁Economic	-10.8566
▁exceed	-10.8566
▁hydro	-10.8567
▁everywhere	-10.8572
▁melt	-10.8584
HR	-10.8585
▁genuine	-10.8601
▁NFL	-10.8601
▁Samsung	-10.8601
▁PRO	-10.8603
▁steal	-10.8603
▁interact	-10.8617
▁Winter	-10.8617
▁drama	-10.8628
▁criteria	-10.8636
▁measurement	-10.8637
▁Channel	-10.8637
▁rural	-10.8637
while	-10.864
▁fiber	-10.8642
direct	-10.8652
elves	-10.8665
▁Scotland	-10.8672
▁argument	-10.8672
▁eliminate	-10.8672
▁refund	-10.8672
▁relief	-10.8672
▁Diego	-10.8672
▁framework	-10.8675
▁Corp	-10.8698
▁Story	-10.8699
▁entrance	-10.8707
▁quilt	-10.8707
▁Clark	-10.8712
▁indeed	-10.8723
▁concrete	-10.8743
▁trigger	-10.8743
▁NEW	-10.8743
▁Shipping	-10.8745
screen	-10.8749
▁Extra	-10.8754
▁cruise	-10.8759
▁module	-10.8779
▁reception	-10.8779
▁Eastern	-10.8779
store	-10.8789
▁healing	-10.8789
That	-10.8801
▁Rich	-10.8804
▁patch	-10.881
▁pizza	-10.8814
▁Corporation	-10.8814
▁mechanism	-10.8814
▁Therefore	-10.8814
▁layout	-10.8815
▁Child	-10.8816
▁Choose	-10.8816
▁indoor	-10.8818
▁gentle	-10.8819
▁comic	-10.8823
walk	-10.8838
▁Democratic	-10.885
▁comparison	-10.885
▁consequence	-10.885
▁mirror	-10.885
▁ensuring	-10.885
▁bunch	-10.8851
▁Opera	-10.8856
▁Found	-10.8857
▁bearing	-10.8864
▁mood	-10.887
▁Illinois	-10.8886
▁legislation	-10.8886
▁purchasing	-10.8886
▁Jordan	-10.8886
▁reducing	-10.8887
▁cotton	-10.8887
▁strive	-10.8888
▁interactive	-10.8894
fusion	-10.89
▁Idea	-10.8905
▁Metro	-10.8906
▁belt	-10.891
▁Republic	-10.8917
▁arrival	-10.8923
▁categories	-10.8923
▁possibility	-10.8923
▁wound	-10.8923
▁Process	-10.8932
from	-10.8937
▁Scholar	-10.8959
▁Machine	-10.8959
▁venture	-10.896
winning	-10.898
▁lady	-10.8986
▁Manchester	-10.8996
▁approval	-10.8996
▁Kingdom	-10.8996
▁fifth	-10.8996
▁Computer	-10.8996
▁preferred	-10.8999
cock	-10.9
▁vast	-10.9001
▁Break	-10.9003
View	-10.9011
▁Things	-10.9012
▁Jason	-10.9018
▁audit	-10.9029
▁whilst	-10.9032
▁Release	-10.9032
▁honey	-10.9037
▁basically	-10.9038
▁grain	-10.9051
▁producing	-10.9069
▁Protection	-10.9073
▁deadline	-10.9076
▁Steel	-10.9093
▁rub	-10.91
sufficient	-10.9106
▁expansion	-10.9106
▁politics	-10.9106
▁Regional	-10.9106
▁precise	-10.9106
▁twist	-10.9106
▁preserve	-10.9111
▁tourist	-10.9122
▁Minnesota	-10.9143
▁anniversary	-10.9143
▁discipline	-10.9143
▁complement	-10.9143
▁gaming	-10.9144
▁minimal	-10.9146
▁Finance	-10.9153
▁Enterprise	-10.918
▁scenario	-10.918
▁compliance	-10.918
▁superior	-10.918
▁Michel	-10.9181
▁illness	-10.9182
▁carrier	-10.9182
▁referred	-10.9185
▁Euro	-10.9186
sheet	-10.9188
▁attraction	-10.919
▁laser	-10.9208
▁Staff	-10.921
QU	-10.9215
▁Pennsylvania	-10.9217
▁knock	-10.9217
▁conclude	-10.9217
▁Cancer	-10.9218
▁Short	-10.922
▁gender	-10.9229
▁grill	-10.9245
▁newsletter	-10.9255
▁HERE	-10.9255
▁rescue	-10.9256
▁architecture	-10.9257
▁programming	-10.9257
▁genre	-10.9259
▁consultant	-10.9278
▁acknowledge	-10.9292
▁behalf	-10.9293
▁lecture	-10.9293
▁sweat	-10.9293
▁Movie	-10.9293
▁Discover	-10.9295
▁brew	-10.9297
▁tile	-10.9299
▁Planning	-10.93
▁Quick	-10.9304
▁Chan	-10.9326
▁certification	-10.933
▁pursue	-10.933
▁bass	-10.9343
▁acquisition	-10.9368
▁vocal	-10.9368
▁basketball	-10.9369
▁Father	-10.938
▁delete	-10.9401
▁Arizona	-10.9406
▁intelligence	-10.9406
▁opposite	-10.9406
▁primarily	-10.9406
▁Doctor	-10.9406
▁empower	-10.9406
▁desktop	-10.9407
▁Patrick	-10.9408
jack	-10.9419
▁Interest	-10.9427
▁basket	-10.9444
▁elegant	-10.9444
▁enthusiast	-10.9444
▁pricing	-10.9445
▁forecast	-10.9445
▁barrier	-10.9445
▁intense	-10.9447
▁journalist	-10.9458
▁Administration	-10.9483
▁Challenge	-10.9483
▁subscription	-10.9483
▁Kitchen	-10.9483
▁tackle	-10.9483
▁Creek	-10.9483
▁Dark	-10.9483
▁rival	-10.9484
▁Theatre	-10.9485
ICE	-10.9495
▁commit	-10.9497
▁scrap	-10.9501
Free	-10.9502
▁accommodation	-10.9521
▁participating	-10.9521
▁analyze	-10.9521
▁podcast	-10.9521
▁archive	-10.9522
▁ultra	-10.9524
▁Among	-10.9526
soft	-10.9549
▁Perhaps	-10.956
▁participation	-10.956
▁Egypt	-10.956
▁Condition	-10.956
▁Justice	-10.9576
▁religion	-10.9598
▁Agency	-10.9598
▁pilot	-10.9599
▁jacket	-10.9599
▁Editor	-10.9599
▁Lewis	-10.9601
▁Annual	-10.9602
▁Creative	-10.9604
Operation	-10.9606
▁voters	-10.961
▁passionate	-10.961
▁ratio	-10.9624
▁revolution	-10.9637
▁advisor	-10.9637
▁fraud	-10.9637
▁robot	-10.9638
▁Morgan	-10.9652
▁cheer	-10.9665
▁Electric	-10.9676
▁nursing	-10.9676
▁preparing	-10.9677
▁afraid	-10.9677
▁Remove	-10.9678
▁prime	-10.968
▁tired	-10.9682
▁anxiety	-10.9716
▁Premier	-10.9716
▁Perfect	-10.9716
connect	-10.9719
▁inspection	-10.9729
horn	-10.9732
▁alive	-10.9749
▁Vietnam	-10.9755
▁advocate	-10.9755
▁literally	-10.9755
▁Description	-10.9755
▁assault	-10.9755
▁Village	-10.9755
▁Donald	-10.9756
▁dentist	-10.9756
American	-10.9756
▁array	-10.9757
▁margin	-10.9758
▁Singapore	-10.9794
▁correspond	-10.9794
▁enforcement	-10.9794
▁surprising	-10.9794
▁Consider	-10.9795
▁reject	-10.9796
▁lawsuit	-10.9797
▁Airport	-10.9802
▁Parent	-10.9804
▁neuro	-10.9808
▁swim	-10.9809
▁stair	-10.9812
▁Kris	-10.9815
▁Anthony	-10.9834
▁aggressive	-10.9834
▁sensitive	-10.9834
▁Holiday	-10.9834
▁Private	-10.9834
▁blind	-10.9834
▁breed	-10.9837
▁Title	-10.9839
▁publisher	-10.9842
▁iOS	-10.9842
▁Sydney	-10.9874
▁educate	-10.9874
▁Picture	-10.9875
▁baseball	-10.9876
▁submission	-10.9877
▁fault	-10.988
▁unknown	-10.988
▁Clear	-10.9882
▁Round	-10.9894
▁Mount	-10.9894
▁Features	-10.9914
▁conclusion	-10.9954
▁satisfy	-10.9954
▁Brazil	-10.9954
▁Sweet	-10.9954
▁squad	-10.9955
▁championship	-10.9956
▁alarm	-10.9957
▁admitted	-10.9958
▁rising	-10.996
▁preference	-10.996
▁Everyone	-10.9962
▁ranking	-10.9962
▁controlled	-10.9966
▁evaluation	-10.9994
▁phrase	-10.9994
▁globe	-10.9995
▁variation	-10.9995
▁Bowl	-10.9998
▁Brother	-10.9999
▁loud	-11.0003
▁blogger	-11.0009
▁hint	-11.0012
▁ceiling	-11.0035
▁ladies	-11.0036
▁Speed	-11.0038
▁Explore	-11.004
graduate	-11.0045
▁babies	-11.0076
▁compliment	-11.0076
▁convince	-11.0076
▁spice	-11.008
▁shipped	-11.0083
▁racing	-11.0087
Edit	-11.0091
▁fabulous	-11.0116
▁promoting	-11.0116
▁scratch	-11.0116
▁applicant	-11.0116
▁Ministry	-11.0116
▁composition	-11.0117
▁tension	-11.0127
▁strain	-11.0136
▁wake	-11.0143
▁Memorial	-11.0157
▁Performance	-11.0157
▁opponent	-11.0157
▁complicated	-11.0157
▁default	-11.0157
▁completion	-11.0157
▁Vegas	-11.0158
▁knit	-11.0158
toxic	-11.016
▁steam	-11.0161
▁worn	-11.0165
▁lime	-11.0165
http	-11.0172
▁crush	-11.0176
▁Practice	-11.0199
▁anticipate	-11.0199
▁nuclear	-11.0199
▁Oregon	-11.0199
▁joke	-11.0206
▁Wisconsin	-11.024
▁tale	-11.0262
▁absorb	-11.0281
▁gambling	-11.0281
▁impression	-11.0281
▁regulator	-11.0281
▁worship	-11.0281
▁Teacher	-11.0282
▁praise	-11.0282
▁Complete	-11.0283
▁trademark	-11.0285
world	-11.03
▁strap	-11.0306
scale	-11.0314
▁appointed	-11.0323
▁assembly	-11.0323
▁sandwich	-11.0323
▁engaging	-11.0323
▁leaf	-11.0325
▁Columbia	-11.0365
▁motivate	-11.0365
▁satisfaction	-11.0365
▁accused	-11.0365
▁vessel	-11.0365
▁roast	-11.0365
▁shelter	-11.0365
commerce	-11.0365
▁zero	-11.0367
▁organise	-11.037
▁regardless	-11.037
▁creativity	-11.0407
▁substantial	-11.0407
▁compensation	-11.0407
▁involving	-11.0407
▁disaster	-11.0407
▁Details	-11.0407
▁rubber	-11.0409
▁API	-11.0412
▁Brook	-11.0427
invent	-11.0434
▁integration	-11.0449
▁Eagle	-11.0449
▁emissions	-11.045
▁jail	-11.0456
▁romantic	-11.0491
▁Austin	-11.0492
▁southern	-11.0492
▁visible	-11.0492
▁Nigeria	-11.0492
▁Option	-11.0497
**	-11.0517
▁Industry	-11.0534
▁exploring	-11.0534
▁recipient	-11.0534
▁generous	-11.0534
▁Civil	-11.0534
▁Modern	-11.0535
▁telephone	-11.0535
eastern	-11.0535
▁Greek	-11.054
▁worried	-11.0577
▁Turkey	-11.0577
▁retirement	-11.0577
▁reservation	-11.0577
▁Dream	-11.0577
▁Front	-11.0578
▁elected	-11.0581
▁personnel	-11.0583
▁weird	-11.0585
augh	-11.0599
scape	-11.0617
▁disappear	-11.062
▁bacteria	-11.062
▁unusual	-11.062
▁inventory	-11.062
▁instructor	-11.0621
▁restrictions	-11.0622
▁mineral	-11.0623
▁hopefully	-11.0625
▁Iowa	-11.0627
▁fiction	-11.0627
▁Halloween	-11.0663
▁Square	-11.0663
▁dimension	-11.0703
▁principal	-11.0706
▁substance	-11.0706
▁embrace	-11.0707
▁raising	-11.0707
▁Version	-11.0713
▁Bird	-11.0716
▁accommodate	-11.075
▁coordinate	-11.075
▁divorce	-11.075
▁motivation	-11.075
▁Construction	-11.075
▁diversity	-11.075
▁Everything	-11.075
▁punch	-11.075
▁false	-11.075
▁combat	-11.075
▁ignore	-11.0751
▁Close	-11.0764
▁zip	-11.0764
▁Vancouver	-11.0793
▁exhaust	-11.0793
▁Wilson	-11.0793
▁Address	-11.0793
▁Edward	-11.0799
▁kilo	-11.0805
▁facilitate	-11.0837
▁necessarily	-11.0837
▁struggling	-11.0837
resistant	-11.0837
▁Denver	-11.0837
▁admission	-11.084
▁translate	-11.0841
▁candle	-11.0864
Electronic	-11.0881
▁automatic	-11.0881
▁competitor	-11.0881
▁satisfied	-11.0881
▁analyst	-11.0881
▁Simply	-11.0881
▁loyal	-11.0882
▁occurred	-11.0887
▁float	-11.0887
▁chef	-11.0898
▁diagnose	-11.0925
▁Architect	-11.0926
▁Fresh	-11.0926
▁Self	-11.0933
▁convenience	-11.097
▁unexpected	-11.097
▁prohibit	-11.097
▁shadow	-11.097
▁impressed	-11.097
▁Resort	-11.097
▁Ocean	-11.097
▁bulk	-11.0971
▁scoring	-11.0971
▁sorry	-11.0971
▁tsp	-11.0975
communica	-11.1013
▁Delivery	-11.1014
▁Official	-11.1014
▁residence	-11.1014
▁Malaysia	-11.1015
▁Animal	-11.1015
▁curve	-11.1019
▁scholar	-11.1057
▁Matthew	-11.1059
▁guilty	-11.1059
▁Study	-11.106
▁actress	-11.106
▁Attorney	-11.1104
▁franchise	-11.1104
▁assignment	-11.1104
▁Craft	-11.1104
▁Psych	-11.1105
▁Kelly	-11.1107
▁diabetes	-11.115
▁Linux	-11.115
▁boast	-11.115
▁silk	-11.1153
operative	-11.1194
▁Supreme	-11.1195
▁entitled	-11.1195
▁recognise	-11.1195
▁affair	-11.1195
ennial	-11.1196
aimed	-11.1236
▁Ontario	-11.1241
▁horror	-11.1241
▁moisture	-11.1241
▁distributed	-11.1241
▁patio	-11.1241
▁Content	-11.1241
▁Britain	-11.1247
Factor	-11.1273
▁danger	-11.1284
▁Mexican	-11.1287
▁accuracy	-11.1287
▁variable	-11.1287
▁offensive	-11.1287
▁chronic	-11.1287
▁jazz	-11.1287
▁abandon	-11.1287
▁Henry	-11.1287
▁Subscribe	-11.1287
▁crisp	-11.1287
▁Present	-11.1289
▁bump	-11.1291
Wire	-11.1326
▁Elizabeth	-11.1333
▁Tennessee	-11.1333
▁intervention	-11.1333
▁knife	-11.1333
▁pandemic	-11.1333
▁Judge	-11.1333
▁render	-11.1337
▁universities	-11.1379
▁Stadium	-11.1379
▁flexibility	-11.1379
▁Double	-11.1379
▁regime	-11.1382
▁spectacular	-11.1425
▁appliance	-11.1426
▁catalog	-11.1426
nutrient	-11.1426
▁okay	-11.1426
▁struck	-11.1426
▁extent	-11.1426
▁Northwest	-11.1428
▁accent	-11.1429
▁Wolf	-11.1433
▁Exchange	-11.1472
▁Restaurant	-11.1472
▁circuit	-11.1472
▁explanation	-11.1472
▁screw	-11.1472
▁pleasant	-11.1472
function	-11.1486
▁Massachusetts	-11.1519
▁Toyota	-11.1519
▁harvest	-11.1519
▁stood	-11.152
▁SEO	-11.152
▁URL	-11.1521
Hello	-11.1557
▁curriculum	-11.1566
▁possibilities	-11.1566
▁studied	-11.1566
▁yield	-11.1566
▁Kansas	-11.1566
▁Resident	-11.1566
▁Method	-11.1566
▁Advisor	-11.1567
▁genetic	-11.1567
author	-11.1584
▁twenty	-11.1614
▁beneficial	-11.1614
▁flavour	-11.1614
▁subsequent	-11.1614
▁calories	-11.1614
▁portrait	-11.1614
▁greet	-11.1615
▁mild	-11.1618
▁frequent	-11.1632
▁privilege	-11.1661
▁recreation	-11.1661
▁sneak	-11.1661
▁Susan	-11.1681
through	-11.1682
▁Currently	-11.1709
▁diamond	-11.1709
▁packaging	-11.1712
***	-11.1712
Every	-11.1732
▁Champion	-11.1755
▁violation	-11.1757
▁borrow	-11.1757
▁ministry	-11.1757
▁Issue	-11.1759
glass	-11.1801
▁calculate	-11.1806
▁celebrating	-11.1806
▁evolution	-11.1806
▁concentration	-11.1806
▁applicable	-11.1806
▁creature	-11.1806
▁assigned	-11.1806
▁Alliance	-11.1806
▁Historic	-11.1807
▁Melbourne	-11.1854
▁Cooper	-11.1856
▁consume	-11.1861
▁drove	-11.1875
▁Benefit	-11.1903
▁mushroom	-11.1903
▁pregnant	-11.1903
▁tremendous	-11.1903
▁dried	-11.1904
interest	-11.1933
▁province	-11.1952
▁crystal	-11.1952
▁remarkable	-11.1952
▁patent	-11.1953
▁cocktail	-11.2001
▁Chapter	-11.2001
▁Profile	-11.2002
▁Future	-11.2004
▁Affairs	-11.2051
▁Football	-11.2051
▁Registration	-11.2051
▁execute	-11.2051
▁conservation	-11.2051
▁prominent	-11.2051
▁Clinton	-11.2051
▁courtesy	-11.2051
▁Several	-11.2051
facebook	-11.2091
▁configuration	-11.21
▁obligation	-11.21
▁Effect	-11.21
▁vanilla	-11.2101
▁Casino	-11.2101
▁Lauren	-11.2117
▁absolute	-11.2121
▁whisk	-11.2148
▁imagination	-11.215
▁navigate	-11.215
▁Writing	-11.2151
▁dispute	-11.2154
▁hyper	-11.2154
▁thousand	-11.2175
▁accord	-11.2179
▁heavily	-11.2201
▁narrative	-11.2201
▁uncertain	-11.2201
▁Consumer	-11.2201
▁examination	-11.2201
▁Summit	-11.2201
▁hypo	-11.2201
▁creator	-11.2201
▁Leave	-11.2202
▁inspect	-11.2203
▁aroma	-11.221
▁Lincoln	-11.2251
▁Pakistan	-11.2251
▁philosophy	-11.2251
▁Convention	-11.2251
▁copies	-11.2251
▁beverage	-11.2252
▁Floor	-11.2252
▁Always	-11.2253
▁hiring	-11.2253
▁electro	-11.2265
▁glue	-11.2269
onomic	-11.2275
▁Indonesia	-11.2302
▁iTunes	-11.2302
▁integrity	-11.2302
▁pregnancy	-11.2302
▁sleeve	-11.2302
▁Universal	-11.2302
▁dessert	-11.2302
▁soccer	-11.2302
▁withdraw	-11.2304
After	-11.2346
▁Volunteer	-11.2353
▁equivalent	-11.2353
▁horizon	-11.2353
▁robust	-11.2353
▁disrupt	-11.2353
▁disturb	-11.2353
▁Investment	-11.2354
▁Sorry	-11.2354
course	-11.2356
▁Horse	-11.2363
▁emphasis	-11.2404
▁observation	-11.2404
▁athletic	-11.2404
▁Chamber	-11.2404
▁cyber	-11.2405
▁width	-11.2405
▁Besides	-11.2406
worth	-11.2429
From	-11.2452
▁Entertainment	-11.2456
▁Phoenix	-11.2456
▁diagnosis	-11.2456
▁vulnerable	-11.2456
▁romance	-11.2456
▁removing	-11.2456
▁Recipe	-11.2456
twitter	-11.2456
▁dismiss	-11.2456
▁Iraq	-11.2456
▁concentrate	-11.2456
▁inspiring	-11.2456
Previous	-11.2456
▁spouse	-11.2456
▁WITH	-11.2456
▁seminar	-11.2456
optional	-11.2465
approx	-11.2466
Submit	-11.2467
▁Thanksgiving	-11.2508
▁junior	-11.2508
▁frozen	-11.2508
▁teenager	-11.2508
▁hazard	-11.2508
▁evolve	-11.2508
▁Wonder	-11.2508
▁abroad	-11.2508
▁Delhi	-11.2508
▁Hawaii	-11.2508
